#version: 0.2
Ġ i
e n
Ġ s
o r
e s
t i
n d
Ġ w
a r
a l
n g
Ġ c
t e
Ġ Ġ
o u
t o
Ġ f
Ġ p
Ġ b
a nd
e d
a s
o f
Ġ h
i ng
Ġ of
Ġ m
Ġ to
Ġi n
Ġ and
i s
Ġ d
l e
v e
i t
r o
i c
Ġ r
ti o
tio n
n e
h a
a c
en t
o m
Ġ l
i l
Ġ e
r a
u s
e l
e c
ĠĠ ĠĠ
Ġ S
e t
u r
Ġ T
Ġ I
Ġ g
te r
t a
Ġ C
Ġ A
o l
a d
r i
ha t
l y
Ġi s
Ġ t
r s
Ġf or
o w
i d
o t
a m
Ġ y
n s
Ġ n
n t
a y
i g
o s
Ġ M
Ġb e
Ġt hat
it h
c h
c e
a tion
i r
Ġr e
Ġ P
Ġy ou
Ġc o
ve r
Ġ B
te d
Ġw h
Ġw ith
Ġ ar
u l
t s
a b
e m
Ġ (
e a
es s
ĠT h
' s
Ġ as
a g
Ġ 1
Ġ al
Ġ 2
o p
u t
k e
Ġ H
Ġ D
u n
Ġ W
Ġp ro
Ġh e
Ġ R
o d
Ġ F
i o
e rs
Ġi t
u m
Ġw e
a p
ou t
il l
Ġc om
Ġ L
Ġ v
Ġs t
ti ng
q u
ĠTh e
Ġw as
Ġ or
Ġ N
Ġm a
i m
Ġar e
Ġ E
Ġ G
i a
Ġ ne
Ġe x
Ġs e
it y
ro m
u p
l d
h is
o c
Ġd e
ig h
Ġs h
a ve
m ent
ou r
Ġ "
Ġb y
en d
p e
es t
ĠĠ Ġ
m e
or e
o ne
Ġl i
Ġf rom
Ġ2 0
ti c
i e
Ġc a
ĠĠĠĠ ĠĠĠĠ
io n
u c
m a
Ġt his
n y
Ġ J
Ġ O
n ce
u d
Ġh ave
Ġp r
f f
b e
l a
Ġf i
ot h
Ġ ac
ar d
â Ģ
g h
h i
al l
Ġ le
om e
l i
n i
g e
Ġ us
t r
T h
a te
p or
t or
ou ld
Ġp e
Ġn ot
Ġd o
ur e
u b
Ġw or
e ar
e e
Ġca n
Ġ ab
o o
ou s
Ġ U
Ġ en
Th e
al ly
0 0
n c
ac k
Ġc h
Ġw ill
Ġ j
ic h
Ġh as
id e
e y
ar t
Ġ k
Ġh is
Ġal l
am e
n a
r ea
Ġs p
. .
igh t
el l
f or
l l
u e
be r
o ver
ou gh
Ġr es
Ġ $
m p
Ġ ti
o g
ou nd
r y
n k
Ġyou r
us t
e p
ti ve
Ġ ad
as s
os t
a i
Ġb ut
f e
Ġ K
Ġcom p
en ce
s o
ag e
a v
h r
Ġ te
b le
ap p
i v
Ġco n
tion s
ar y
d e
as t
is t
ac h
e ir
en s
h eir
Ġt heir
ic e
n ing
h ey
o b
a ny
Ġ up
k ing
' t
Ġt hey
Ġ20 1
e w
u nd
oth e
Ġhe r
Ġ Ð
othe r
i al
y s
n al
o ng
Ġm ore
ac e
Ġwh ich
Ġg o
i ne
Ġ one
Ġd is
Ġ V
ent s
Ġ un
Ġn o
ow n
Ġ out
i es
Ġs a
as e
ec t
Ġp l
Ġs ta
l ic
Ġ ta
Ġt ra
Ġr ec
Ġ \
h ing
Ġin c
ver y
k s
ĠI n
Ġwh o
n ed
i te
Ġab out
v en
Ġ op
a nt
Ġs o
Ġ âĢ
Ġ qu
Ċ ĠĠĠĠ
Ġ 3
os e
Ġ Y
ha n
i ve
r v
o nd
s e
Ġc l
Ġ -
ve l
Ġ1 9
Ð ¾
ab le
Ġwe r
es e
Ġl a
o ns
is h
Ġne w
Ġ =
Ġy ear
t t
me r
ation s
Ġwer e
p r
Ġ our
u ch
i z
Ċ ĠĠĠ
Ġm e
ar e
en e
Ġh ad
Ġal so
ay s
m s
Ġt hr
Ċ ĠĠĠĠĠĠĠĠ
Ġ ag
le c
Ġco ns
h en
Ð °
Ġbe en
or d
Ġs ome
h em
Ġm o
p s
c ess
Ġpe r
Ġd i
Ġm y
Ġi f
i nd
l o
Ġp ar
t es
i ti
Ġti me
r ed
t y
) .
ol d
Ġi ts
Ġ app
Ġ any
por t
a il
ĠH e
Ġw ould
Ġin ter
ou nt
or t
ĠI t
Ġ other
f ic
il d
Ġt hem
ic al
Ġ over
ve rs
t ur
Ġ ro
i p
o i
us e
Ġ '
rs t
Ġin s
Ġg et
. "
i tion
Ġwh en
oo k
ow e
Ð µ
for m
a ted
Ġs c
2 0
Ġli ke
n ly
n ess
i le
Ġco nt
l es
w o
Ġb ec
Ġt r
Ġw hat
u g
g ra
Ð ¸
t ure
w e
en c
f ter
op le
Ġin to
ta i
) ;
e f
Ġk n
) ,
v es
Ġi m
Ġd es
m o
l ud
Ġ und
Ġ am
c o
en ti
ad e
h o
a w
ro w
Ġ 4
- -
pe r
Ġsa id
x t
n es
Ġ &
u al
ar k
Ġt han
v i
ol l
p le
ĊĠĠĠĠ ĠĠĠ
Ġex p
g a
d uc
r ing
ĠâĢ ĵ
c om
p h
et h
Ġi nd
Ġs up
ic a
ia n
/ /
Ġpe ople
Ġc ha
ter s
Ġfi rst
ie w
ng e
Ġ 5
rea t
ac t
Ġwor k
f i
Ġd a
Ġs ec
to n
Ġg r
Ġj ust
Ġne ed
Ð ½
Ġ {
s s
o nly
te m
r ent
e ad
Ġsh e
r es
Ġh el
Ġb et
is s
Ġ only
ai n
f ul
n o
Ñ Ģ
fe r
Ġp os
Ġcom m
Ġp ri
r ess
, "
o ve
Ġt wo
el f
Ġi mp
ation al
Ġp la
Ġinc lud
Ġad d
Ġr a
Ġof f
or s
Ġm ay
Ġp a
ic k
ĠW e
is e
Ñ Ĥ
Ġus e
Ġr el
ĠTh is
Ġm ost
Ġma n
d ay
o ol
ff e
f t
r ee
Ġh ow
v ed
Ġthr ough
a fter
m i
de r
ra tion
Ġw a
iti es
I n
Ġkn ow
Ġ 0
Ġre g
ĠM a
Ġwh e
ol og
Ġ after
Ġd ec
ig n
ti n
Ñ ģ
ĠC h
r al
ub lic
Ġb ack
Ġpro v
ĠC om
p l
h ese
Ġh igh
Ġt hese
Ġst ud
Ġc ould
ĉ ĉ
Ġas s
Ġma ke
ne r
Ġp art
Ġyear s
Ġ <
Ġe v
= "
Ġse e
Ġwhe r
Ġw ell
t u
Ġwher e
ĠR e
g i
ĠS h
ĠC o
al t
Ð¾ Ð
as ed
ti s
Ġh im
Ġc ar
Ġe very
Ġc ol
Ã ©
Ġse rv
ul ar
Ġ20 0
n ment
Ġb u
a use
il y
_ {
Ġs et
io ns
1 9
Ġ 6
t ch
Ċ Ġ
ur n
u es
Ġpl ay
ĠA r
or y
p ec
Ġb l
al s
p a
Ġt hen
Ġs ub
oi nt
ĠN ew
od e
a ns
Ġs uch
a tt
Ġma ny
e x
Ġm i
Ġp ol
ar i
vel op
el y
ri b
il ity
Ġ very
ĠU ni
Ġ ob
v a
ĠS ta
ers o
Ġw ay
Ġf e
r en
Ġn ow
ma n
c tion
ment s
tor y
t le
Ġ ke
a u
Ġac c
Ġe ven
i ns
it s
owe r
ĠS t
Ġd id
Ġc ou
Ġsh ould
Ġl oc
i b
i ble
Ġsp ec
ri es
Ġr et
Ġhel p
Ġ *
ul l
ĠM ar
ta nt
h ough
ea t
s t
Ġ es
ir e
w ard
ul t
us i
or k
j ect
em ent
ĠA nd
alt h
Ġe ff
Ġpro duc
Ġtra ns
o k
g et
Ġsh ow
Ġ end
Ġs i
Ġpr es
Ġbec ause
Ġ1 0
Ġdi ffe
Ġund e
Ġt hi
Ġ }
Ġ 7
li ne
ch ool
ic es
hi p
ra te
le r
Ġunde r
t en
Ġs ur
Ġgo od
Ġbe ing
ĠF or
1 0
pe ri
n n
ti v
Ġl ong
al e
oll ow
ĠP ro
Ġcl ass
o od
l and
ur ing
ĠY ou
el d
usi ness
Ġwor ld
Ġpr e
a ir
o y
Ġc rea
form ation
.. .
Ġre qu
Ġm uch
Ġn um
Ġthi nk
as o
h ose
ĠA l
ing s
Ġc all
Ġ 8
co n
f ore
Ġ [
Ġd own
l ed
we en
Ġ aw
Ġt hing
Ġg u
Ġm ade
Ġt hose
Ġv al
Ġf am
p os
ar s
Ġin v
Ġw ant
v ing
' r
'r e
Ġb el
Ġdo es
c i
p p
k es
m es
Ġch ar
Ġs ti
ie r
Ġde velop
Ġm em
Ġbe fore
Ġs ys
Ġst r
ut h
Ġdo n
v iew
ĊĠĠĠĠĠĠĠĠ ĠĠĠ
Ġfi nd
gi n
< /
oc k
Ġs im
p t
Ġc e
mer ica
Ġdis c
l ish
Ġbet ween
Ġher e
tai n
Ġus ed
eth e
Ġg ene
Ġda ta
ĠS e
Ġg ra
Ġs m
* *
Ġ 9
ma t
Ġm ea
ethe r
as h
{ \
Ġm ed
aso n
Ġc ount
Ġb o
ear ch
00 0
Ð »
ous e
ol u
Ġex peri
Ġc ur
Ġp ublic
Ġ .
Ġli fe
Ġf ollow
ĠC a
tor s
Ġre ad
ĠA s
Ġf un
Ġta ke
Ġp erso
Ġb r
g es
Ġ ap
Ġ ed
Ġ av
ou p
et s
nt h
iz e
r ac
tic al
Ġd ay
Ġi d
Ġc or
t ter
Ġsta te
Ġr ight
Ġe ach
Ġg reat
Ġ att
e g
Ġf ac
us s
p ar
Ġwh ile
W e
Ġf il
ke r
n is
ro p
r u
Ġd ir
Ġres p
a ng
e qu
Ġcomm un
âĢ Ķ
ĠB ut
Ġh and
ĠA merica
Ġv is
. ,
Ġ ter
it al
Ġf ound
r ic
Ġ own
Ġs ame
Ġl ast
n ti
Ġb est
b s
Ġb oth
Ġ |
Ġf l
Ġd el
Ġb usiness
Ġm od
ess ion
a nce
olog y
Ġcomp le
Ġ1 8
gra m
ĠA c
ĠJ o
Ġin formation
a z
Ġwe e
Ġh ome
gh t
Ġp h
Ġch ild
to m
ĠI f
ro ss
Ġre al
Ġsti ll
Ġt hough
Ġ$ \
Ġar ound
id ent
am es
Ġle ad
E R
out h
i na
ni z
ar ly
ro l
Ġst ar
Ġdiffe rent
b o
g y
Ð º
T his
w w
m ed
r ef
r n
ai ns
e ra
ĠA d
j ec
Ġthr ee
Ġte am
Ġt y
Ġe l
Ġl ar
Ġl ook
et y
ĠS a
' ve
' m
ĠI nd
ro n
Ġp oint
Ċ Ċ
Ġv o
ag es
Ġs to
b ers
ic s
ĠI s
Ġs ay
Ġs ig
e am
Ñ ĥ
Ġc r
a k
Ġre ally
n other
Ġpar tic
Ġ Z
Ġd uring
Ġte ch
Ġg iv
Ġin t
ĠN o
Ġpro cess
: //
el s
h n
c ri
Ġgo ing
Ġprov id
ti l
r r
tr uc
n u
u ne
Ġc ap
i f
Ġm ar
om et
p tion
ĠG r
I t
Ġin f
is ion
g r
Ġus ing
Ġcon tin
Ġ Q
1 2
ĠP e
od y
e en
Ġt ri
Ġe mp
n ter
igh ts
enc y
tur es
Ġs oc
so n
r ead
e b
ort h
Ġb a
-- --
Ġnum ber
Ġw i
Ġd ri
.. ..
over nment
qu e
owe ver
Ġcon f
ĠThe y
Ġs te
um a
Ġim por
Ġc le
âĢ ¦
Ġpl ace
ĠE x
Ġf a
mi n
ĠUni vers
w ays
ill ion
Ġp ur
end s
ens e
( )
Ġis s
Ġinclud ing
" ,
ar ed
Ġg l
ĠĠĠĠ ĠĠĠ
ĠâĢ Ķ
Ġpr of
Ġsys tem
Ġop en
m it
lo y
Ġco nd
ĠSh e
Ġ /
Ġs chool
Ġp ass
t w
u ra
ti es
Ġn a
1 1
ta nce
Ġex am
Ġde f
Ġpos s
k ed
t ra
ent ly
us tr
ter n
c l
ge r
Ġsec ond
Ġhe alth
" >
i fic
Ġ1 2
g ed
is m
ains t
Ġl o
Ġs k
Ġor ga
Ġh app
Ġe t
Ġto o
Ġfor m
ĠB e
it tle
Ġto p
n ted
em ber
ra y
z e
le ase
r it
ĠC ol
Ġr ed
ne rs
h y
Ġbu ild
Ġf ew
Ġla w
ir ed
tic s
a ting
Ġm us
ou rs
Ġv ari
av ing
enc es
lec t
rib u
Ġs u
b i
Ġm ust
Ġmo nth
as es
Ġsi nce
I N
ĠL i
enti al
Ġinc r
om en
Ġma i
C o
ar m
ĠL a
v al
ho to
Ġs l
t hing
a ta
omet hing
is ts
Ġag ainst
ĊĠĠĠĠĠĠĠĠ ĠĠĠĠĠĠĠĠ
ĠS o
5 0
Ġr un
Ġl ot
Ġn ame
te ly
nk s
2 1
and s
Ġmi n
ĠG e
O N
âĢ ĵ
ĠUnivers ity
a nother
Ġall ow
Ð ²
Ġc ase
Ġincr e
d u
Ġm ark
Ġapp ro
ff ic
Ġ another
al ity
ti tu
Ġcomp any
os s
en ter
Ġce r
op e
ti ce
ul ti
nt s
Ġwee k
ar a
Ġd em
eat h
ail able
Ġe as
ĠM i
Ġcom e
Ġle ar
Ġfam ily
Ġrec e
fi ed
n ta
Ġwith out
Ġsup port
Ġw ri
Ġe qu
ĠM o
' ll
Ġle g
1 8
Ġm en
Ġg ame
Ġ Â
Ġthing s
iz ed
Ġ ve
mat h
Ġl ove
Ġg row
Ġp ower
Ġne xt
ĠT r
Ġt al
Ġhe ad
ĠP a
ĠJ a
l ing
Ġc ri
ri ght
ĠD e
Ġp op
Ġqu es
ĠU S
} }
c k
p ro
m b
uth or
ea n
ĠR o
Ġs omething
le y
tur al
Ġ19 9
r t
ro ng
Ġt ry
ĠP r
um p
ap e
Ġde p
Ġret urn
ri d
Ġs uc
lec tion
Ġco nce
Ġpro ble
Ġap pe
Ġcur rent
Ċ ĉĉ
ĠThe r
Ġle vel
ard s
a ff
ĠT o
iss ion
ec k
a nn
Ġ +
ur y
Ġfe el
ne l
t and
3 0
Ġcons ide
am p
Ġb ig
om a
a tive
ig i
e ed
our t
Ġal ways
ĠR es
Ġl ittle
ec tion
ĠC l
Ġl oo
g o
Ġne ver
c es
p i
Ċ ĉ
Ġbet ter
Ġpro gram
Ġf ri
ĠTher e
Ġc us
Ġd ra
Ġs it
Ġimpor tant
Ġm ight
b y
Ġres earch
Ġst and
ĠC hr
Ġke ep
Ġf ree
ir d
li n
^ {
l ess
1 5
s ta
ĠT ra
A T
Ġl ist
Ġf ea
Ġ :
iv id
k en
Ġ u
r et
t al
Ġre f
rs e
Ġav ailable
1 6
ĊĠĠĠĠ Ġ
ĠA t
por ts
Ġprov ide
tr ic
Ġtech n
ĠI ns
E S
te xt
en g
ĠB l
Ġc ent
Ġ1 5
Ġwith i
Ġwithi n
H e
our ce
b a
Ġwa ter
Ġpla n
2 2
Ġc are
ĠC ha
Ġp ut
ot s
Ġg ot
Ġund ers
ur t
Ġpro per
uma n
ĠA ll
Ġse em
eth od
Ġg overnment
con om
Ġp ay
Ġs ays
ord ing
vi ous
oo n
Ġbel ie
Ġresp ons
ul ts
ke rs
n line
F or
ne t
Ġb ook
A R
te c
Ġexperi ence
nc es
v ent
Ġd r
i ning
us h
Ġsm all
} \
Ġ _
Ġc ame
ĠM ay
Ġb ro
Ġl ess
Ġs ing
ra ge
uc k
Ġserv ice
ne y
Ġgr oup
i ted
it ch
ra n
Ġor der
= =
} $
A s
Ġ aff
ur es
Ġcha nge
Ġloc al
ĠD o
Ġv iew
Ġ z
olu tion
ĠE ng
w ay
mo n
Ġh ard
a tes
Ġperso n
ĠW or
Ġd oc
Ġli ne
te ms
c ha
Ġf ull
one y
1 4
Ñ ı
Ġm et
ĠA n
ĠC ar
a ni
is ed
Ġac cess
j or
Ġab le
y ing
Ġcha ng
1 7
Ġmai n
Ġwor king
Ġb as
ĠS p
nc ed
Ġse ver
Ġfun ction
Ġd ays
Ġst art
ur s
ĠH is
c ent
Ð ¼
ĠP h
Ġst or
O R
um e
Ġval ue
' ,
Ġchild ren
ĠT hat
ĠF i
Ġcount ry
al es
a nal
um ent
1 3
Ġ au
ag ement
Ġw ar
as ter
en ted
e rv
al i
Ġs w
Ġ ann
Ð ´
Ġag ain
a h
oc c
Ġadd ition
A N
ĠMa n
ne c
Ġh o
Ġar ea
Ġsuc cess
Ġch o
ta ble
Ġen g
u ally
I f
ro s
ĠAmerica n
ta tion
a x
Ġ1 6
Ġg ive
ĠCo n
ĠO r
Ġpr ac
ĠP ar
un ch
la im
p ly
Ñ ĸ
Ġs y
ĠP ri
Ġstud ents
i ent
ar ing
Ġac tiv
Ġp o
tr ing
end ing
Ġp i
ta b
ĠF ra
Ġst ory
Ġr est
u ly
oc us
Ġ air
u le
te l
ĊĠĠĠĠĠĠĠĠ ĠĠĠĠĠĠĠ
Ġapp lic
Ġ X
Ġcommun ity
Ġrec ord
Ġev ent
Ġd et
Ġchar ac
ĠUni ted
i ver
p ut
Ġle t
Ġle ft
Ġserv ices
ec ted
a uthor
Ġ1 7
Ġ3 0
Ġ old
Ġwor d
ĠD ec
vi ro
Ġmus ic
w h
ĠB o
w n
pr es
ut ure
s h
ul ation
Ġno n
Ġre m
Ġma king
hi le
Ġ201 8
Ġaw ay
viro nment
Ġcont rol
ed ic
ow s
end ed
Ġm illion
Ġf ar
ĠS c
Ġemp loy
Ġ #
I D
l or
Ġmo ve
ĠCa n
ĠCom m
Ġ @
g ether
Ġspec ial
Ġ201 9
i tions
or n
Ġsoc ial
Ġ1 4
Ġ anal
Ġto day
Ġ //
for ma
Ġal ong
Ġf und
Ġun til
Ġf our
n ia
Ġcall ed
n or
Ġeff ec
Ġb ased
ec u
E N
ĠA ss
e es
Ġpri v
Ġof fic
Ċ ĊĠĠĠ
Ġ occ
b r
Ġfollow ing
ab el
ĠE u
ĠD is
ĠW ith
Ã ¡
Ġ ou
lish ed
ir c
Ġwh y
Y ou
read y
2 00
id d
ar ch
Ġunders tand
Ġde v
Ġl im
ti me
ter ial
u ng
it or
( \
Ġ1 1
Ġimp ro
Ġp ost
k i
S T
" .
Ġs ol
Ġ ,
Ġj ob
la n
se r
Ġs ure
ic y
i nt
Ġm il
- >
Ġre ma
o ot
Ġorga niz
Ġ vers
Ġti mes
' d
Ġop era
Ġf r
al f
ir t
Ġac ross
Ġpol i
Ġlar ge
urt h
ac y
ivid ual
Ġs elf
Ġk ind
Ġto gether
Ġcou rse
lo ad
om m
end e
Ġma jor
Ġmem bers
fer ence
Ġ ent
Ġ1 3
E x
ur ity
Ġex t
W hat
i ally
urth e
ic ally
ab ly
Ġw omen
r is
Ġof ten
ĠC hi
or g
Ġr is
ade r
ĠS outh
Ġbec ome
Ġfi eld
Ġp hoto
_ _
ri a
ed e
urthe r
oth ers
Ġen ti
Ġe le
tt p
Ġexam ple
ĠW hat
Ġh aving
Ġb ring
ĠSta te
Ġgiv en
Ġposs ible
Ġdid n
o nline
Ġfi n
oc i
Ġs ch
e et
Ġre pres
ough t
f ac
ide o
Ġdevelop ment
im e
Ġal ready
ĠB a
ĠP ol
art ment
c al
ne w
Ġed uc
a nti
ive rs
Ġe ar
A L
te e
Ġe conom
Ġs ide
ut es
gra ph
Ġinter es
Ġ author
Ġc ity
Ġwi n
id s
Ġinclud e
ur ch
ec tor
Ġf ocus
Ġc ul
ob al
r c
Ġsever al
p o
m ber
ill s
et a
ĠÐ ¿
Ġtra d
ith e
Ġpro ject
Ġde fi
tt ps
Ġm ethod
Ġpartic ular
\ \
i ned
Ġdes ig
Ġnew s
Ġro om
k a
Ġm ulti
ĠO c
i um
Ġty pe
Ġ201 7
Ġmark et
( "
Ã ³
Ġs ha
Ġfil m
tu ally
p y
ĠT e
Ġid enti
Ñģ ÑĤ
i or
ĠY ork
ĠW hen
Ġle ast
ithe r
Ġt ur
Ġ online
Ġte ll
Ġor igi
Ġind ividual
Ġf ood
be gin
ga n
ĠP res
Ġh uman
ab ility
s et
Ġpa ti
Ġf act
jec ts
por ted
Ġm oney
n am
Ġmea ns
Ġf uture
ĠĠĠĠĠĠĠĠ ĠĠĠĠĠĠĠĠ
Ġe ver
am b
port un
om es
Ġv i
Ġ Ã
ni fic
ĠHe r
Ġp ast
Ġkn own
: :
ĠN orth
Ġre le
ĠL e
Ġla ter
f r
t est
Ġw o
id ence
Ġperso nal
oo ks
g le
Ġloo king
m y
A S
ĠN ational
Ġwor ks
Ġinv ol
Ġen ter
Ġen ough
our ces
u ed
Ġke y
Ġwe bs
Ġli ve
c a
Ġ others
Ġh ouse
ee r
ustr y
Ġe arly
Ġdes ign
Ġco nc
Ġd one
Ġhis tory
n ot
ĠS te
Ġpe ri
Ġp ot
Ġpres ent
Ġ201 6
ma il
g ing
ĠWor ld
a ti
n ation
iv ed
ri e
Ñ Į
2 5
Ġs ite
Ġ19 8
l u
Ġcrea te
Ã Ń
g est
Ġse ason
m al
Ġb i
o nce
ĠG u
Ġstud y
rea k
Ġre p
ward s
2 3
ia ns
ĠE d
Ġsh ort
Ġf ra
P ro
ĠSta tes
Ġsc i
Ġl ight
ĠS ep
Ġfi na
nge r
S h
pr ess
Ġh old
ab or
Ġs ug
ou d
Ġdet ail
Ġ20 20
I T
) $
pa n
Ġto ok
ens ive
r el
s c
R E
all en
Ġfi nal
j oy
Ġre view
of f
b ack
Ġpa t
ro nt
Ġb ene
Ġop portun
ĠS ec
Ġma kes
Ġam ong
m ost
Ġm om
Ġres ult
i ous
b all
T o
Ġmod el
Ġs um
Ġse ries
Ġen e
nu ary
Ġs us
pl ay
Ġc laim
ape r
Ġin te
Ġar tic
i nc
ĠC ity
Ġte ach
ĠD r
( );
Ġdisc uss
Ġene r
Ġsp ace
Ġp ub
le ge
Ġthough t
Ġc li
Ġn ight
Ġspec ific
ac es
ad a
ĠC ons
w a
ĠU n
ĠA pr
ti mes
ĠC ount
I C
Ġad va
ĠS chool
id es
c ol
Ġneed s
ĠJo hn
Ġen c
ĠM e
Ġen vironment
Ġme as
ĠS up
} {
_{ \
B y
is ter
ĠÐ ²
Ġdo ing
Ġ2 5
Ġl ow
Ġb ody
Ġ once
ĠB ar
} ,
ĠO n
ĠG od
Ġcl ose
) :
os p
Ġoff ice
ĠP l
oth ing
ha m
Ġres ults
A nd
Ġcus tom
Ġyou ng
Ġ x
Ġhapp en
ĠM y
Ġse en
Ġma terial
Ġmed ia
Ġb ar
oma n
ĠH owever
nc ial
tion al
Ġv ol
Ġtr ue
Ġou ts
Ġb it
Ġm ode
ĠD ep
Ġre mo
Ġperi od
C h
Ġfi ve
Ġproble m
forma nce
Ġ201 5
ĠM ed
Ġdoes n
rr or
Ġd ue
ĠA ug
ĠH ar
ww w
ĠMar ch
d a
d o
we r
ĠO ne
Ġsing le
y e
Ġw al
ĠC or
Ġw ent
ĠN e
Ġty p
em e
ĠM c
Ġques tion
ound s
Ġde ter
Ġwo n
Ġt es
a ud
The r
n f
ir l
ĠA b
n ow
Ġm ind
Ġcom es
ent al
4 0
Ġco ver
B ut
Ġad v
Ġrel ations
Ġwh ether
Ġwa tch
Ġn or
n im
Ġsig nific
Ñ ĭ
s elf
Ġ1 00
ĠChr is
ond e
our nal
Ġt reat
Ġab ove
Ġprof ession
Ġf ir
ĠTh ese
Ġstar ted
ÑĢ Ð°
Ġvis it
f rac
Ġac tually
s y
Ġta x
Ġse r
ĠR ep
Ġc ost
Ġind ustry
Ther e
Ġto ld
Ġst ra
N o
Ġpro b
R e
Ġmonth s
Ġre ach
Ġp ic
A C
ting s
ende r
Ġpriv ate
le t
Ġc ell
Ġf av
Ġun i
Ġt w
Ġpr ess
t hough
ĠJa nuary
Ġl and
A r
Ġrequ ir
Ġproduc ts
lec ted
Ġin iti
Ġre ason
Ġy et
E D
Ġen s
Ġinv est
x im
Ġqu ality
Ñ ĩ
ra ted
Ġappro ach
tive ly
Ġi de
I S
t m
ill ed
A l
Ġget ting
Ġen joy
Ġper cent
? "
em ents
M a
ig ure
Ġm ag
Ġwebs ite
Ġex c
ĠS ch
ĠW ill
Ġener gy
el ves
b ook
Ġadd ress
ĠH ow
oi n
Ġ2 4
ĠIn ter
ant s
ro om
il ities
ec h
f y
ĠSe rv
ĠJ une
f ace
Ġ201 4
---- ----
to ber
Ġf urther
6 0
Ġs of
is o
Ġst rong
Ġcharac ter
Ġab s
Ġw ind
Ġcomm it
tem ber
ĠApr il
ĠW ar
Ġbe gin
Ð½ Ð¸
Ġc al
Ġst y
il ar
i x
k ely
ul a
m ing
Ġne ar
Ġne tw
il t
Ġbuild ing
ou n
Ġf ail
us ed
ie f
le x
Ġm or
Ġof fer
Ġde al
Ġdir ect
Ġsh are
Ġcon nec
h ird
c ed
te ad
Ġp age
ec e
iz ation
Ġdiffe r
f ect
Ġm ess
Ġstr uc
p ing
Ġro le
ani es
Ġ19 7
a nc
Ġac ce
Ġcomp anies
u ff
e rn
ove mber
m ary
as ing
u gh
Ġcl os
se rv
ĠJ uly
am s
ate ly
Ġph ys
age r
Ġgene ral
ĠF eb
Ġd eath
Ġiss ues
Ġv ideo
Ġin ves
pp ed
ish ed
ib ility
Ġsc r
Ġel se
Ġag o
o x
ĠB r
oc ia
ac tion
h ol
Ġacc ount
is ing
ep end
Ġcom pe
to p
Ġre port
ad d
w ork
Ġcont ent
Ġra nge
2 4
Ġh alf
ti m
Ġf ace
Ġh y
Ġf lo
te mp
Ġpro tec
Ġac tion
ta n
Ġann ou
du ce
il le
ea k
pec ially
Ġ Ċ
Ġpre vious
Ġde b
m en
Ġ aud
o v
Ġt est
ĠCom p
ens ion
Ġtechn ology
Ġpr ep
Ġwho le
Ġsignific ant
fr ica
( '
i tive
b b
lic k
Ġbel ow
ĠNew s
Ġh ours
Ġ5 0
am a
A c
Ġ Ñģ
Ġeas y
ul es
ra ph
Ð¾Ð ²
Ġbene f
Ġ ow
u ation
Ġpos ition
m m
ĠS tr
Ġc irc
Ġ ans
ys is
h ie
ri ed
Ã ¤
id ed
E C
g ress
ĠM ic
Ġ age
as k
ĠC O
ch e
hi nd
ro ll
ti g
Ġ201 3
Ġe ither
Ġpartic ip
ĠM us
t all
Ġqu ick
ustr al
Ġfri ends
c ite
Ġper formance
Ġta ken
Ġbelie ve
Ġd ou
ac hi
ĠW h
Ġar g
ur ed
W hen
ĠB y
Ġn ational
Ġal most
y ear
r m
Ġs ong
ĠSt ud
pe ra
Ġr ad
Ġt hird
l og
ĠS ci
A d
Ġp ain
Ġex ce
Ġcomp u
Ġra t
ĠSep tember
led ge
ĠW a
A M
iso n
pos ed
ĠDec ember
ĠOc tober
Ġes tab
Ġam ount
Ġta king
e ring
Ġt our
C om
art h
Ġper form
.... ....
ĠA fter
eng t
ĠI nc
ond o
Ġm iss
ma tic
ke y
ĠD av
k y
d iv
med ia
Ġiss ue
Ġs pe
t us
Ġevery thing
Ġd ist
a nim
Ġvari ous
le ment
Ġ< /
min ist
Ġl og
Ġid ea
ĠN ovember
Ð ·
Ġmo v
Ġreg ion
n ational
Ġqu e
Ġg ames
Ġh ea
Ġacc ording
S t
Ġex tr
ack s
r ec
! !
ĠRe g
Ġst rate
Ġenti r
et ty
ĠHe alth
Ġcle ar
Ġar tis
Ġproduc t
ng u
nc il
) )
p ha
ĠPres ident
p ose
e q
Ġt ar
um b
l abel
Ġ201 2
Ġ ess
F i
Ġd ig
ĠD es
Ġne cess
ra d
ti ma
av a
Ġch allen
u ts
ĠO ff
ĠGe r
c rib
Ġse arch
Ġh owever
Ġshow s
y pe
Ð ¹
m ar
ĠC ou
c le
O n
el i
Ġev ents
Ġrequ ired
Ġorigi nal
Ġup d
ĠA frica
Ġar t
ĠCount y
e v
Ġ20 21
Ġrat h
Ġsim ilar
Ġrath e
Ġ- -
Ġrathe r
oo gle
h ic
Ġto tal
tern ational
Ġare as
z o
ti a
olog ical
ĠCh ar
H ow
Ġtry ing
Ġc am
ĠA g
Ġch eck
Ġsup e
Ġs ize
wh e
Ġany thing
Ġto ol
ti fic
n ese
Ġpoint s
Ġw rit
Ġsi x
Ġhel d
ĠR ec
Ġp ers
Ġli kely
it es
ĠB ri
Ð ¿
u a
ĠW est
Ġm ass
Ġtra ining
Ġsome one
Ġproper ty
o nes
ĠH ouse
p ri
ĠG l
ha nks
ĠC ent
ĠS y
ĠG ene
Ġm ee
ru ary
ful ly
Ġman agement
Ġmem ber
Ġprovid ed
b or
Ġimpro ve
n ame
i ed
Ġmea n
Ġper fect
Ġfi le
Ġfea tures
ĠR uss
Ġac hie
Ġpoli tical
Ġac t
Ġrec og
Ġhe art
ĠAug ust
Ġes pecially
** **
Ġm is
Ġfor mer
D o
el t
Ġof fe
Ġcontin ue
Ġ ave
S o
Ġp ack
H E
ĠC enter
ondo n
Ġfa t
Ġc oll
Ġag r
ta te
Ġadd ed
Ġma tch
ro duc
ri al
g s
ud e
ĠV e
Ġe lec
ber t
Ġs ent
Ġta ble
y a
Ġc red
à ¤
Ġbl ack
ou ch
n to
Ġb reak
Ġ anti
Ġqu ite
is ting
le b
s p
en a
ĠInd ia
Ġcons truc
i k
rs elf
Ġbe hind
en tion
Ġdi ffic
ad em
o id
Ġau to
ic o
# #
Ġ >
Ġeduc ation
os ts
Ġoffic ial
c ons
ĠA ustral
ĠP art
Ġli ving
engt h
Ġmin utes
Ġrece ived
Ġpol icy
Ġt urn
idd le
Ġf ront
Ġco de
d en
E T
Ġfam il
ĠH igh
Ġrec ent
Ġsh all
p ed
Ġas ked
Ġtra vel
hi ps
ro id
8 0
ou ps
Ġvi ol
z a
Ġcom ing
ra i
ĠO ur
Ġwa nted
Ġchang es
b it
ag ed
Ġf all
Ġsim ple
Ġma tter
le ft
le g
Ġd en
or ies
row n
Ġ2 1
Ġlead ers
v ar
Ġgl obal
Ġcom mon
Ġc ases
whe r
Ġmo n
ĠR a
ĠD ir
t his
Ġsec urity
ĠA p
wher e
Ġinter est
Ġneed ed
U S
$ .
Ġr ights
Ġinter national
ĠS ome
Ġfor ward
Ñ ħ
ĠU K
ĠL aw
ys tem
ti tion
Ġsys tems
Ġexp la
9 9
ha nk
Ġpr ice
u ge
ĠÐ ½
Ġsta ff
or ts
Ġma t
ap a
Ġvers ion
$ ,
it a
Ġprovid es
Ġd ate
ous ly
Ġb ad
A P
W ith
b ased
m od
2 7
r up
Ġcrea ted
Ġrec omm
n os
Ġe mb
Ġup o
tis h
Ġupo n
it ary
R es
Ġreg ard
Ġm ys
Ġartic le
Ġ2 3
R O
Ġlear n
is es
Ġword s
Ġpat h
Ġla ngu
ede ral
Ġwh ite
Ġ anim
Ġte m
em i
ition al
tai ned
Ġques tions
Ġris k
Ġter ms
Ġi ll
Ġpati ents
ĠIn ternational
ĠCo nt
Ġconce r
Ġfina ncial
Ġ201 1
Ġcer tain
or ed
Ġpot ential
as tic
ĠM r
c ome
Ġincre ase
ĠN ot
Ġpur ch
b um
id t
tr y
Ġbec ame
r as
ag ing
N ame
Ġn othing
ac ed
ide r
ul ly
ho od
Ġ201 0
u el
Ġcount ries
Ġpop ular
2 6
Ġr ate
Ġsub s
Ġre fer
ĠW as
Ġc ut
ĠA pp
ĠFeb ruary
Ġwri ting
Ġim m
Ġmom ent
Ġevery one
o il
Ġuse r
Ġproduc tion
Ġhigh e
ub s
Ġpart y
Ġhighe r
onde r
tai ns
ell ing
Ġf la
ĠS m
Ġe p
Ġrepres ent
Ġret ur
Ã ¶
Ġcan not
ĠPe r
Ġim age
b f
gr ound
ĠB ro
Ġw ays
Ġro ad
N ew
Ġc ra
Ġc y
Ġinclud es
Ã ¼
4 5
Ġprob ably
n ch
Ġcomple te
id a
ĠS w
ĠN a
h old
Ġb ur
ĠG ra
Ġseem s
Ġli ves
Ġ4 0
Ġcont act
Ġfri end
Ġv ar
ĠQ u
Ġli nk
li ed
Ġeng ine
Ġouts ide
a ult
cri ption
ut y
tric t
Ġcom bi
Ðµ ÑĢ
Ġta kes
Ġs ound
Ġcont ribu
Ġdefi ni
ĠE l
Ġ ur
ĠL ondon
d es
us ion
Ġoff ers
tw are
ĠF ri
es ter
al le
Ġe mail
Ġd am
Ġh or
2 8
tur ed
Ġs ense
A t
L E
ĠChi na
ĠO p
I d
Ġins tall
ic tion
Ġred uc
Ġna tural
f ety
fi eld
g en
Ġex per
el ess
nce r
al se
Ġf oot
ĠP ark
Ġl ay
Ġsta y
is ted
iv il
u x
Ġis n
Ġla unch
Ġd u
Ġv ia
Ġdec ision
idt h
z y
hi te
ĠE n
nc ip
l im
Ġp aper
n ic
Ġenc ou
Ġg en
Ġc ourt
ĠDep artment
Ġh ope
Ġsim ply
Ġapplic ation
Ġbe au
Ġwork ed
Ġh it
Ġbe gan
Ġv ic
for d
ĠS ha
d ing
ail y
2 9
Ġex ecu
Ġg irl
i nce
} )
Ġgrow t
ĠA ir
Ġpro te
Ġgrowt h
Ġcar eer
Ð ±
Ġmi x
ĠO f
Ġpr ec
A ll
Ġbu y
em a
Ġits elf
. )
n ary
um ents
Ġf it
ti ful
Ġproble ms
ĠChr ist
Ġst ri
Ġl oss
Ġl ate
Ġpro mo
osp ital
ĠM or
Ġimp act
Ġsa w
Ġtreat ment
ĠM ore
Ġcle a
titu te
Ġre v
3 3
ti t
Ġcurrent ly
e ase
ĠEu ro
u ce
e xt
Ġcol or
Ġuni que
Ġre ported
Ġb ooks
ĠA ng
Ð ³
nis ter
and e
Ġac com
Ġfav or
Ġp or
ĠH ol
op s
oci ation
Ġcont r
Ðµ Ð½
p ons
Ġpri or
is hing
, \
Ġs ens
ura nce
I ON
Ġ2 7
ĠO b
Co n
Ġtr ack
Ġde r
s elves
em b
Ġsec tion
O T
ĠI I
Ġdes crib
ĠV al
po n
gra ms
rai n
ĠA m
rid ge
L L
Ġplay ers
Ġknow ledge
ĠK ing
Ġgr oups
am ed
li es
Ġthem selves
ed s
Ġs oon
Ġs ource
it ter
Ġsty le
tia n
Ġnetw ork
Ġin j
ĠT a
por ting
math cal
Ġrec ently
ĊĠĠĠĠĠĠĠĠĠĠĠĠĠĠĠĠ ĠĠĠ
am i
Ġopportun ity
Ġ2 8
Ġinf lu
Ġthrough out
Ġsug ges
Ġd iv
Ġrespons e
ob ile
ref ore
r or
Ġhis tor
Ġde ep
Â ł
Ġt en
Ġinclud ed
Ġass ocia
ĠT V
ha vi
ali for
w i
im port
ĠEng lish
res h
Ġrun ning
Ġ2 6
or ge
Ġop e
Ġ2 2
Ġwrit ten
Ġh ol
b u
s pan
Ġme et
3 5
g t
Ġcond itions
Ġse x
Ġcl im
tm l
Ġprofession al
Ġrel ated
U R
Ġste p
ot t
} .
Ġlong e
== ==
erso n
Ġgr ound
Ġb ase
lo od
Ġlonge r
Ġleg al
ĠD ay
Ġp ort
ar ter
ĠTr ump
IN G
ĠY our
ĠÐ ¸
ra b
Ġfor e
Ġte xt
Ġlear ning
m ission
Ġj ud
Ġbu ilt
Ġexp ected
oc al
ĠT im
ĠM ark
ĠC ourt
equ ation
ĠN ow
us es
alifor nia
S e
u k
Ġsto p
P r
Ġve hic
Ġpol ice
C l
S tring
y es
or der
I s
ĠF rom
Ġeff ect
ti ves
Ġcommun ic
Ġcustom ers
ĠComm un
i ft
Ġe mer
i ting
Ġprac tice
sy ch
A D
t d
Ċ ĊĠĠĠĠĠĠĠ
Ġhim self
ag o
Ġse par
enc ed
rop ean
Ġp lease
ĠJ e
tic k
Ġ19 6
t temp
irt h
Ġre pl
Ġcond uc
Ġcam pa
a ttemp
cl ass
Ġinvol ved
Ġpub lished
i et
en ing
Ġpro duce
Ġins ide
ia nt
Ġres id
Ġdist ribu
ach e
Ġv ac
ĠBl ack
ĠSa n
Ġ ver
ĠD em
" )
Ġmed ical
h ttps
ĠP la
Ġhe ar
ĠW i
Ñ Ĩ
Ġre lease
Ġc ross
pr ession
ap s
Ġar ri
ĠÐ ¾
ty pe
co nt
Ġs ea
Ġdesig ned
un ction
all s
is tic
p m
Ġ attemp
Ġsta tes
Ġanal ysis
Ġbo ard
wo od
Ġex tra
ĠB u
Ġl ost
e as
Ġwee ks
Ġp ick
ke ting
Ġwor t
Ġens ure
Ġaddition al
l ation
Ġins tead
Ġle ave
ĠOff ice
Ġc ard
Ġcomple x
Ġlead ing
Ġpla t
Ġpr etty
Ġw oman
Ġl ed
B C
Ġtal k
Ġreg ular
Ġar ch
ven tion
d i
Ġfat h
ph e
i ety
l am
ĠPh il
hing ton
le v
Ġm achi
olu tions
Ġop tions
ra ng
iv ing
ha el
Ġs qu
w ide
P a
ĠAc t
han nel
b ar
ha ps
o na
Ġmee ting
it ation
b l
ti al
Ġs il
nd e
Ġdetail s
Ġdisc over
} (
ĠRes earch
ĠI m
ĠH o
ul ations
Ġh op
Ġbl og
0 1
bo x
Ġso n
Ġex act
Ġave rage
ad es
Ġstand ard
ĠCol lege
M y
Ġdel iver
Ġ oil
Ġd ie
p ite
ĠDav id
Ġce leb
Ġc and
Ġany one
Ġ200 9
Ġbe a
Ġd om
b ody
h ttp
ir it
is ions
ĠTra ns
Ġactiv ities
for t
ine r
u ns
Ġal bum
Ġint roduc
C ol
T ype
ĠH a
r ep
ar ies
tur ing
l ight
Ġ* /
Ġdr ug
ĠM il
Ġplay ed
b ur
Ġbeau tiful
Ġdoc ument
Ġcus to
ĠW hile
Ġbo x
Ġlangu age
Ġconside red
Ġwe b
Ġev idence
P e
use um
Ġfi x
Ġc enter
Ġstud ent
C O
n te
iv al
Ġca use
Ġus ers
ia nce
Ġentir e
t tr
ĠD a
Ġla test
Ġpro jects
Ġeconom ic
Ġrem ember
Ġrele ased
Ġplay ing
u fac
v y
ĠGr oup
Ġ20 22
Ð¾ ÑĢ
Ġsub ject
Ġb and
ĠC alifornia
ĠJ apa
i nf
} ^
Ġh ttps
Ġti tle
Ġlevel s
Ġtar get
Ġrece ive
Ġdiffic ult
9 0
Ġappe ar
Ð¾Ð ´
Ġm other
Ġread ing
Ġet c
3 2
Ġval ues
ren ch
ve y
Ġscr een
as ons
Ġequ ip
T hat
Ġmulti ple
Ġ200 8
tiv ity
O ne
Ċ ĊĠ
i no
nk ing
Ġl ower
le rs
ĠÐ º
Ġdis play
Ġse ri
ĠFi rst
Ġme r
ee k
ĠL ea
al a
ĠAc c
L ist
d om
Ġwas n
ĠEu ropean
ĠTh en
Ġto wn
Ġter m
O S
us tice
Ġman ufac
i ence
r ect
Ġcou ple
] .
Ġob serv
Ġnecess ary
ĠWill i
Ċ ĠĠ
Ġe lect
u te
mi nal
n na
Ġmode rn
a ttr
epend ent
ĠU p
em o
Ġim media
ill ing
Ġmen tion
Ġs old
Ġt ouch
ra w
la te
oc ra
ar es
ĠStr eet
Ġmov ie
ĠD i
Ġapp ly
. '
ab les
Ġas k
Ġgo al
Ġfath e
Ġconside r
l ier
Ġpro grams
Ġhand s
w ise
Ġh a
u it
Ġb ed
} _
ĠS im
Ġre ve
7 0
Ġfathe r
m as
Ġab ility
Ġ ...
Ġdra w
i fied
V al
Ġg e
ou l
L i
Ġpar ents
og raph
qu es
" :
ĠCou ncil
Ġsupe r
el ta
Ġr en
ce ption
h ous
te ra
Ġs olution
iti z
d is
h tml
li ke
ĠBri tish
Ġst ring
Ġbr and
Ġw onder
um n
Ġus ually
Ġh ttp
c ial
ec hn
Ġwri te
um ber
Ġ2 9
ord s
Ġloc ated
Ġf elt
tai ning
3 6
Ġf ast
ĠN et
ffe r
ĠC ap
to ne
Ġsof tware
ĠEuro pe
~ \
Ġw rong
e al
Ġph one
Ġsur pr
n ner
ĠE ast
ron ic
Ġg ave
Ġpla ns
Ġp le
V iew
Ð° Ð½
4 4
r d
E L
ne ction
Ġsp ea
ĊĠĠĠĠĠĠĠĠ Ġ
Ġex press
ĠI N
Ġbe havi
Ġs ales
ĠT w
Ġres ources
Ġeff ic
m iss
Ġad minist
Ġde ad
al pha
ad o
Ġna ture
es tern
ĠR ed
Ð¾Ð ¼
ĠCan ada
g ue
Ġannou nced
Ġun ivers
t ri
Ġsh own
Ġide as
Ġpart ners
Ġj oi
b ase
o nto
P ar
Ġloo ks
ag s
Co nt
ĠB ur
Ġinter view
v ille
Ġcul ture
ĠAr t
Ġpro gress
Ġv a
om ing
am ple
A n
Ġwort h
mer cial
Ġde g
Ġsh op
Ġinves tig
I G
ro te
Ġpri ncip
Ġrelations hip
Ġmor ning
1 00
Ġk ids
a im
Ġgo es
ĠWas hington
Ġatt ention
7 5
Ġs le
Ġdevelop ed
Ġquick ly
ĠPr of
Ġd ro
ĠO t
ĠB en
p hi
Ġdri ve
Ġal ter
ria n
es tiv
Ġwh ose
ĠS und
Ġdig ital
Ġmin im
Ã ¨
Ġcap ital
a f
Ġread y
o nt
rop ri
ai nt
Ġinteres ting
ĠRep ublic
Ð¾Ð »
Ġst ore
Ġk new
3 8
Ġcol lection
Ġ â
Ġstor ies
Ġbr ought
j a
no n
Ð° Ð»
Ġpar ts
Ġto wards
ec han
Ġc amp
Ġsa fety
y l
Ġst ren
Ġaw ard
m u
Ġh ous
ĠBe r
Ġm id
s um
r ound
Ġpos itive
ite c
ĠG o
Ġeffec tive
enc ies
Ñģ Ðº
e ement
Ġsa fe
f ig
Ġmil itary
ĠM ag
b and
Ġgra du
Ġes tima
e rc
Ġn orth
Ġc osts
Ġsum mer
Ġ )
Ġmess age
Ġpro m
O ur
ell ow
Ġno te
Ġsay ing
Ġsta ge
ĠPa ul
ĠIs ra
E O
ĠÐ ´
Ġdir ector
Ġh ar
3 4
Ġs mo
ess or
mit ted
ent y
z z
Ġs outh
Ġfl ow
Ġpres ident
Ġsh ip
Ġe yes
is tance
Ġatt ack
Ġw ide
A fter
Ġcho ose
Ġcho ice
Ġpop ulation
le m
ce r
Ġf air
eath e
Ġstren gt
oc ial
Ġdo or
Ġhe ard
Ġsk i
c ap
Ġgiv es
Ġsit uation
ĠĠĠĠ Ġ
Ġr ou
Ġac qu
Ġ6 0
D ata
igh ting
ul ated
5 5
Ġdec ided
ai rs
Ġans wer
g l
Ġdirect ly
ĠJ ames
ran ch
ĠB usiness
es ts
or ks
Ġb orn
Ġ aim
Ġloc ation
d ata
Ġte mp
en ior
Ġyou rself
Ġr ound
il s
ĠA N
d own
Ġcha nce
Ġ !
Ġrequ est
ĠHer e
Ġeffec ts
r ve
iv es
Ġn ation
] ,
ĠF ace
Ġorganiz ation
Ġb all
nde r
U T
ta ura
Ġhapp y
Ġsk ills
Ġsci enti
Ġm ic
Ġdev ice
3 7
pec tive
Ġtur ned
C a
n ion
Ġ ones
3 9
Ġallow s
Ġsch ed
Ġstud ies
Ġf ire
of t
I nd
tic es
pos ition
Ġdem ons
ĠGene ral
cri pt
Ġc as
ĠT echn
Ġassocia ted
Ġcond ition
for ce
n ally
Ġocc ur
ol der
ra tions
r eg
ĠF ound
Ġin no
Ġacce p
C C
Ġbl ock
Ġcomp o
ig ned
Ġfor ce
Ġne igh
Ġgiv ing
ĠL et
Ġprovid ing
Ġfr equ
amb da
Ġh um
ĠAd d
Ġb illion
ĠK a
Ġch urch
Ġfea ture
Ġcompo n
Ġex ci
m ore
Ġcon vers
Ġmea ning
Ġe rror
Ġschool s
Ġtyp es
eathe r
i ni
Ġplay e
n ate
Ġstruc ture
Ġsci ence
Ġdown load
Ġplaye r
l ow
cha nge
v is
Ġ ang
Ġb ri
bo ard
Ġstate ment
Ġam az
Ġl ic
ĠT ex
ab y
Ġbro ad
Ġg as
Ġu ns
ra nt
i nation
Ġ attr
s ec
Ġphys ical
p ond
us ive
Ġins titu
ĠU s
Ġs al
h ouse
ĠCh urch
4 8
ĠComp any
ĠC ong
ĠFri day
> </
Ġad j
av es
h row
tr e
ĠW hite
e h
Ġget s
rea ter
> <
I M
os ed
Ġass ess
Ġlim ited
ĠE duc
il es
ĠF lor
ĠR ich
Ġi l
ĠT HE
ld e
Ġhigh ly
ac tions
nta ge
Ġachie ve
em p
ĠG oogle
Ġb ud
Ġtra de
ĠÐ½ Ð°
Ġ une
ĠJ ack
Ġbegin ning
am ma
te g
Ġ `
Ġ= >
Ġrequ ire
Ġeas ily
.. /
ti ne
Ġop tion
Ġ200 7
Ð¾Ð ³
I P
land s
al ed
de f
o ke
ĠP ublic
Ġb ot
om b
tur day
y nam
Ġvari ety
ĠW al
ter nal
e rt
Ġtri ed
Ġincre asing
Ġrecog niz
Ġfir m
Ġlook ed
ĠSci ence
Ġsuccess ful
Ċĉĉ ĉĉ
Ġs ign
ĠY ear
Ġfamil ies
Ġcred it
ĠRe view
ce ed
Ġresp ond
Ġcons um
ĠN or
Ġno vel
! "
ing e
0 5
Ġw rote
Ġsl ow
ĠB el
u be
Ġphoto graph
y ond
Ġrecomm end
Ġsur v
ĠIns titute
ec ause
ĠCa t
ac tive
Ġcent ury
Ġcampa ign
ĠAustral ia
Ġactiv ity
Ġincre ased
us ing
ri te
ĠS ur
ĠI S
Ġfra me
Ġdiffer ence
os ing
Ġh uge
Ġdem and
h ead
Ġv ir
$ \
Ġd ark
w ith
os ted
mb ol
Ġt as
ot es
Ġcompu ter
nc ing
ĠR et
Ġfi ne
Ġb lood
Ġindividual s
Ġdeg ree
ĠC r
ĠT ur
d ate
Ġp ull
Ġ= =
6 4
ĠDe velop
Ġdis ease
Ġne arly
Ġvo id
un k
ĠAss ociation
ĠServ ice
U N
O b
Ġexp l
p ect
Ġex ist
ĠBo ard
ese rv
) \
Ġparticular ly
und red
V ID
Ġgrow ing
C H
Ġw ood
Ġr ace
Ġn amed
f a
I L
te x
le ar
ee p
Ġbe yond
u ght
Ġ3 1
Ġthink ing
Ġdeter mi
Ġbenef its
Ġpr edic
W h
Ġi tems
Ġmod els
Ġcand id
Ġexp ect
Ġsome times
ib ly
Ġl ack
ĠSt ar
He r
u i
ĠF a
lud e
ĠIt al
Ġwi fe
o le
Ġear lier
c ast
Ġcomple tely
Ġt hous
I V
Ġcom ment
ÑĢ Ðµ
n ight
Ġn ar
et ch
to wn
Ġc lin
Ġunderstand ing
Ġf ully
ac ing
ĠV ol
= \
ur rent
ra ft
Ġco ach
Ġgr een
ĠP ress
Ġpi ece
Ġw ish
Ġca teg
ĠJ ew
Ġexc ell
ĠSund ay
ĠS pec
Ġb us
Ġcli ents
Ġinte gra
Ġlar gest
id ing
ra ble
ig a
ig e
ond ay
Ġs ave
Ġsp ent
Ġmys elf
Ġsoc iety
Ġtrad itional
Ġf alse
en ed
Ġse ven
Ġpl aces
Ġconf ir
n ar
Sh e
ĠÂ £
' .
ra m
and a
Ġstar ting
p es
ĠF rench
Ġemploy ees
ĠEng land
Ġli nes
Ġb irth
ĠMic hael
Ġbas is
E M
Ġgene r
ĠK e
Ġnum bers
Ñ Ī
Ġd est
ba n
Ġb al
tai nly
Ġlaw s
m ine
Ñ İ
P h
Ġallow ed
Ġim ages
Ġc ivil
Ġcusto mer
19 9
Ġstrate g
Ġcol lec
i j
I ns
3 1
ĠFace book
F rom
ĠF e
ĠW ed
h reat
Ġtem pera
ĠJ ournal
or ing
ĠW ind
Ġfin ally
Ġcar ry
ur al
Ġcomp ared
ol f
ĠH all
P S
Ġj ournal
Ġnor mal
and o
ĠH ome
ĠTh om
Ġre ports
ĠGr een
pp ing
Ġdi ed
it ar
Ġvo ice
Ġus es
ven ue
li z
Ġpur pose
ĠM ac
Ġf resh
ti nc
Ġresp ect
Ġdescrib ed
Ġn ull
l ay
att le
ĠG overnment
h us
ugh ter
Ġconstruc tion
Ġchang ed
v o
4 9
ĠLi fe
ĠCom mit
EN T
Ġserv ed
v ation
Ġw el
Ġinvest ment
Ġope ration
Ġreg ister
ĠDir ector
Ġco py
Ġcontin u
Ġmo ved
ber g
Ġg old
ande r
o ta
Ġf ear
Ġac tive
ep s
ati ves
ve rage
Ġlo ad
Ġe mo
c el
Ġho n
Ġav oid
4 7
od d
estiv al
tic ally
Ġr ules
I I
it able
ac ity
ig ma
Ġp en
Ġf ederal
Ġwor kers
ĠAr ch
ĠC al
Ġob ject
Ġmo ving
Ġd aily
Ġev al
math bb
ol a
Ġpr em
Ġbro t
Ġpa id
G et
Ġbusiness es
ĠF il
Ġbrot h
Ġmaterial s
Ġfe ed
Ġind ic
Ġ\ \
Ġs olutions
ra p
ĠâĢ ¦
h es
iz ing
ha te
m ark
Ċĉĉ ĉ
Ġe ight
Ġdir ec
T r
ll ig
Ġcor por
Ġrel ative
am ily
g u
Ġcrea ting
Ġcor rect
Ġplat form
6 5
Ġdr eam
Ġcoll abor
Ġapp ropri
Ġs end
Ġwe ight
Ġcharac ters
Ġcons tant
Ġal though
od ay
Ġmachi ne
ĠB i
Ġim ag
Ġgr and
Ġ ?
ul ate
Ġimp ress
i ation
Ġv ill
c ode
ĠServ ices
ÑĢ Ð¸
ĠS ee
Ġpa tter
ĠG et
Ġh ot
The y
Ġn ice
ĠG old
h as
Ġestab lished
Ġfollow ed
Ġsur face
Ġeff ort
ĠM al
p ter
ĠSa turday
Ġsta tus
ĠS ystem
Ġcell s
op h
ĠPro gram
res pond
Ġm echan
for ms
Ġep is
Ġspe ed
Å Ĥ
oi nted
Ġcom mercial
b ut
Ġteam s
Ġ| |
Ġopportun ities
Ġstr ug
cri p
Ġplan ning
oy al
_ \
ot or
Ġt rea
ĠM ost
Ġwal k
Ġexact ly
ÑĤ Ð°
Ġamaz ing
Ġmil es
Ġt hrow
ĠR ead
en ess
ret urn
Ġdou b
ĠÃ ł
D es
Ġins urance
ĠB ra
Ġdel i
ĠGe orge
Ġins truc
al ing
Ġeff orts
por ary
ĠD ef
tr eam
ir ing
un c
ĠMus ic
il o
Ġtrans fer
ĠB est
Ġf ans
ric ul
pec ts
ĠAng el
Ġsp ot
g ment
h s
r ry
Ġco ol
Ġw all
ĠE very
Ġw ea
Ġtool s
Ġ200 6
Ðµ Ð»
Ġdou ble
Ġt hreat
we et
p la
D A
Ġmar keting
Ġf arm
bo n
ĠE ven
Ġw ai
ĠOt h
op y
Ġfe et
ĠPl ay
Ġdi ag
Ġinteres ted
Ġorga nis
' )
ty le
Ġh undred
to s
Ġg a
ĠTex as
Ġexp and
ĠCl ass
inge r
od es
Ġal one
oo king
ĠG reat
ĠD ata
ĠL ou
Ġsp irit
Ġmethod s
s ide
p oint
Ġva n
Ġmove ment
Ġski n
ard en
Ġho tel
ĠS oci
ĠO ut
Ġcons ist
h ea
ĠM ary
Ġsa tis
Ġres taura
ĠChris tian
ĠO ver
M S
ĠC e
Ġbenef it
Ġstr eam
Ġcol lege
Ġro ck
Ġ %
ite m
Ġn ames
Ġex hi
rea te
or es
Ġtech ni
Ð¾ Ð½
Ġm ap
Ġad op
Ġm iddle
Ġp sych
Ġfavor ite
ene r
ze r
Ġro ll
Ġcontin ued
h era
Ġcon text
ĠF r
Ġcommun ities
Ġoffe ring
Ġg reater
4 6
B e
" );
Ġapplic ations
Ġb ound
ĠEduc ation
ĠInd ian
ra tive
Ġh om
0 8
i nter
av en
Ġequip ment
B u
ĠL eg
ĠFra nc
} ^{
ĠM onday
A G
Ġcer tainly
ĠO F
n own
Ġhappen ed
Ð ¶
Ġins p
} _{
Ġh air
Ġh ospital
ĠÐ ·
Ġpress ure
w idth
Ġpo or
Ġr ap
ĠS T
Ġcent ral
mp ions
Ġrequir ements
Ġm obile
ta tions
Ġqu arter
ma ny
M ar
N A
Ġiniti al
am ent
cri be
Ã© s
Ġele ments
Ġba t
ĠP en
r est
h or
il ed
- \
Ġpro ced
Ġba nk
T ra
em ic
eed om
Ġser ve
Ġclea n
g or
Ġwant s
Ġma xim
Ġsc ene
il ing
Ġpass ed
Ġh our
Ġimp lement
7 8
Ġcri tical
o te
le a
Ġsh ot
urs day
ĠP ort
0 4
Ġco ok
Ġcal c
S c
ĠCommit tee
Ġ ah
ter m
Ġover all
Ġop i
Ġex isting
ĠJ os
O L
Ġca ncer
Ġsto ck
ĠD el
J o
as ion
e refore
ues day
t ar
ra tor
ed ia
l ist
Ġpri mary
Ġra tes
Ġpe ace
ac ts
Ġann ual
Ġcon ven
olog ies
Ġmed ic
D e
h erefore
and om
ter y
ĠR el
ĠS am
Ġchar ge
0 7
ĠÐ ¼
Ġsit es
Ġhelp ed
Ġpurch ase
Ġset ting
Ġind ust
__ __
Ġrec over
ĠP M
A B
ĠRo ad
d y
ĠL ib
ĠK en
Ġproduc ed
0 2
ver t
Ġextr em
ta ge
ĠMan agement
r ew
Ġeconom y
ad y
Ġflo or
0 6
n tic
Ġse qu
Ġf ight
Ġsp read
ĠP ost
ĠH am
Ġimmedia tely
Ġalter na
Ġst uff
Ġseri ous
Ġnum e
Ġun it
Ġopera tions
Ġb ill
I R
ĠChi nese
C ha
Ġle ader
Ġlim it
ra ting
Ġt herefore
Ġclim ate
phe r
Ġpro s
Ġ19 5
ef ul
-------- --------
Ġrema i
Ġper haps
Ġremai n
od el
0 9
ash ion
Ġelec tric
c ape
Ġpic ture
Ġsup ply
ĠA nn
Ġpres ented
ĠCong ress
u ro
Ġcon nection
Ġrema ins
h le
i en
our ney
S S
I m
ul ty
k o
A pp
ol i
ĠÐ ³
Ġrespons ible
Ġle tter
Ġp ush
e ast
w ord
Ġpar ame
Ġs ale
Ġred uce
Ġele ment
c y
ou ble
W hile
ro y
ĠUS A
Ġtri p
ĠT ri
Ġcli ent
nes day
sta te
Ad d
Ġback ground
ĠB ay
Ġc itiz
ĠS ing
li nes
ĠA M
Ġc ry
N ow
ĠG ood
Ġsh ared
Ġf em
C T
oc ation
Ġinc ome
f ra
ĠDem ocra
\\ \\
Ġstrate gy
el ine
Ġw arm
Ġs ort
ĠIsra el
Ġex erc
e k
Ġtal king
ĠW ell
ĠJ ust
ĊĠĠĠĠĠĠĠĠĠĠĠĠĠĠĠĠ ĠĠĠĠĠĠĠĠ
Ġsig nal
8 8
ĠQ ue
ĠA P
L a
ul f
ĠCh ild
Ġcontr act
hate ver
Ġcould n
ĠE s
Ġpla nt
ga tive
s ub
C A
h ns
ĠR ob
Ġst ress
ye r
Ġl ength
Ġmay be
ĠChrist mas
Ġfun c
âĢ ¢
Ġt hus
wi n
Ġgo als
Ġlar ger
Ġca tch
ĠDo n
ĠV ir
Ġhel ps
Ġchallen ge
par am
g ency
ĠS ea
ĠDevelop ment
0 3
Ã³ n
Ġcl ub
ĠFra nce
Ġd oll
Ġfeel ing
is tant
Ġh ost
Ġen ha
ina ted
t led
r em
Ġ20 00
Ġs un
Ġabs olu
ĠHis tory
Ġli f
Ġbl ue
Ġt hera
ĠA lex
Ġch em
Ġexp ec
val ue
Ġj oin
Ġfore ign
Ġstra ight
u to
ĠM et
Ġbas ic
Ġin form
ma te
Ġvehic le
ĠW il
vi n
ume r
Ġow ners
Ġoffe red
Ġprotec t
Ġc hannel
w are
ĠB ill
Ġind ependent
Ġsc en
Ġf igure
Ġm ission
ĠPe ople
] ;
Ġre asons
Ġah ead
^ {\
Ġm ill
i ar
enti ally
Ġ200 5
Ma n
ĠS al
Ġr ule
Ġpower ful
ho n
ĠS ocial
Ġleg is
Ġac adem
na ted
li fe
nal d
Ġh ref
ĠSoci ety
pec ted
ĠM iss
Ġs ports
p les
Ġsta tion
l ambda
Ġg one
Ġgra ph
Ġr ich
Ġtr uth
Ġd edic
Ġcons ul
Ġsur round
Ġbud get
Ġw ild
irt ual
en ting
ĠSup e
iz es
ĠP hoto
ra tes
ac ted
ly ing
Ġpre fer
Ġvo te
tr ess
Ġwa it
Ġopen ing
Ġl ands
Ġcor respond
S et
ia te
ĠFlor ida
Ġorganiz ations
zo n
tai nment
Ġhigh est
ĠSm ith
Ġcom ments
Ġexcell ent
ĠS ince
Ġe r
Ġcompe ti
Ġmem ory
s tring
Ġpa nel
Ġpati ent
Ġins tance
Ġpur s
Ġexp lor
Ġdir ection
pa t
Ġent ry
ĠBa nk
ĠF ree
Ġob vious
min ation
li p
Ġs ell
O ver
ĠAl so
et te
v ant
Ġto ward
ĠCO VID
Ġcont rac
ĠL o
Ġp ages
Ġpol ic
a tor
s ee
Ġh us
ru it
ti fied
ĠFound ation
truc ture
ĠS to
Ġchallen ges
Ġagr eement
ĠD en
Ġm aster
i nes
Ġcomple ted
Ġe lection
Ġf ig
c d
ĠS tring
ir es
Ġsec tor
itch en
G r
Ġs av
Val ue
ur r
Ġe ye
ĠE v
Ġspec ies
ĠB ig
p ublic
ver tis
Ġl es
c are
I A
ĠM em
r ary
Ġm ur
Ġpl us
Ġappro xim
ĠM ich
is tan
ĠM ex
Ġno tice
Ġcomp r
Ġ3 5
9 5
Ġact ual
b ility
ĠK or
a ut
ec es
e ory
Ġdefi ned
h eory
n ting
as c
O M
Ġad ap
Ġ{ \
ĠE m
S E
ĠTh ursday
( $
Ġclaim s
Ġwind ow
ĠT ime
ĠU N
Ġqu al
ĠT uesday
ĠB ook
Ġg over
Ġconce pt
Ġjob s
i nary
Ġdev ices
Ġsm art
Ġapp rec
nu te
igi ous
ive rse
Ġdep end
Ġsle ep
Ġarch itec
ÑĤ Ð¸
S ome
R A
Ġe a
if y
Ġn om
6 6
Ġpar ties
Ġres ul
ess age
Ġatt end
oun tain
Ġfac tors
Ġc lick
Ġsy mp
ĠTim es
Ġsp end
Ġreal ity
Ġprote ction
Ġregard ing
e ation
S P
Ġl ab
ĠPe ter
ĠW hy
Ġpr ices
ĠMi nister
Ġag ree
........ ........
Ġappropri ate
Ġval id
ĠP o
Ġanal y
Ġshow ed
Ġpre vent
Ġcou nter
ea u
i i
ic ago
ĠLea gue
D is
Ġi g
Ġgl ass
Ġlo ved
Ġd im
com ing
Ġ tick
Ġke pt
ĠUn ion
ĠT op
B A
el a
Ġrest ric
o vers
ĠV is
w ell
az ine
7 7
ĠDis trict
E d
Ġbec omes
ĠR iver
Ġgener ally
Ġre ti
j o
Ġproper ties
ĠM useum
p ace
Ġaud ience
ĠS en
it ness
f o
al ler
Ġsec ret
**** ****
i eld
ĠMo n
Ġopen ed
ĠCl ub
Ġli br
w or
ĠT om
Ġda ughter
Ġg ar
Ġrecord s
Ġs ources
d f
ĠA ward
Ñ Ħ
gi ns
ĠPr e
Ġste ps
as y
ag ue
ĠS pr
ic t
math bf
Ġt heory
Ġpri nt
? ?
Ġtra ffic
Ġinflu ence
ĠIs land
Ġview s
Ġfor ms
Ġfa ith
4 2
b les
ĠOth e
ĠT or
ĠWed nesday
Ġprevious ly
ĠOthe r
el le
Ġcr is
z en
ĠAfrica n
Ġob jec
Ġartis t
ĠJa n
Ġe c
Ġh eat
Ġch e
es us
Ġmon itor
Ġtr uly
ĠV ic
Ġdefini tely
Ġpro posed
f rom
r ous
Her e
ap ers
ĠTw itter
Ġdistribu tion
B l
Ġgu ide
P ri
ĠV a
ĠP lease
5 00
ĠÐ ±
Ġc row
Ġsta tic
pr of
lev ision
Ġk illed
4 3
Ġrequir es
Ġsol id
Ġdec l
Ġdam age
ã ģ
ĠRo bert
Ġfund ing
ĠGer man
ĠH ill
Ac c
Ġfil es
Ġmajor ity
u ration
Ġtr ust
Ġpres ence
Ġbig gest
Ġ anc
ĠComm ission
Ġ est
ĠE conom
Ġcall s
Ġclos ed
ĠP lan
Ġcon tains
oc ks
ĠM any
Ð½ Ð°
Ġestab lish
Ġsl ight
. [
Ġs n
Ġc ast
O D
Ġm ine
Ġofficial s
ĠPart y
Ġcontin ues
ĠWilli am
Ġar ray
Ġse lected
ĠE mp
d ed
Ġda nger
i us
os ure
Ġupd ate
ific ation
Ġsp eak
ĠF ina
Ġtri al
O P
Ġcap acity
n ne
Ġre ference
Ġc ash
Ġfac tor
g ers
Ġleaders hip
C E
Ġt hank
E n
ĠB al
Ġv s
Ġgu id
A b
uc tion
Ġsc ale
or row
U p
or ial
g ar
Ġde tec
Ġdes pite
w ar
Ġga t
ĊĠĠĠĠĠĠĠĠĠĠĠĠĠĠĠĠ ĠĠĠĠĠĠĠ
Ġlear ned
i ps
l s
Ġf ish
Ġb oy
Ġ onto
ti ll
I F
Ġsee ing
ill a
Ġus eful
ĠGer many
Ġ8 0
c ell
ecu tive
ĠCent ral
ilo n
ĠP al
Ġadv ice
ĠCar ol
Ġhus band
ĠJo hns
Ġcons t
Ġfoot ball
ĠFranc is
W hy
ar io
Ġstor age
Ġp m
per ty
4 1
ĠR ock
es ted
Ġ200 4
C ons
Ġd ynam
lic ation
f ri
Ġrele vant
f ying
ri age
Ġgat h
ĠJ ud
pr e
ĠM ad
Ġfin ish
f unction
l li
ĠD iv
Ġh omes
Ġsus tain
ĠA ma
Ġdevelop ing
Ġconf ig
n it
j s
al ign
O r
ĠFra nk
Ġj ourney
Ġbehavi or
i os
8 5
ĠAc adem
ĠD oc
nc y
Ġres erv
ch ar
ea ted
Ġphoto s
b ig
M ore
ĠH el
Ġra ised
h and
Ġappe ars
Ġsong s
O p
ra nce
io ne
v est
Ġca used
Ġg ri
n om
Ġrad io
Ġd ress
ĠC ri
Ġac tions
20 19
Ġpos ted
vers e
Ã §
Th ese
wh ich
Ġfor ces
Ġin put
c over
Ġli ter
Ġar en
Ġperform ed
ĠRuss ia
ĠS ub
ĠMed ia
Ġind ica
P A
Ġseem ed
Ġhelp ing
Ġess ential
Ġdeter mine
Ġcle arly
Ġartis ts
as ts
L et
ĠInter net
Ġweek end
Ġdo g
ĠA ny
O W
Ġro w
e ro
S ta
Ġcomm and
// //
Ġsw itch
Ġfam ous
Ġbot tom
ĠS um
d ers
ĠP i
Ġfollow s
tific ation
ĠW omen
ens es
T S
Ġpro pos
off ee
" ;
ul ed
Ġstand ards
ĠC lin
Ġfor t
Ġsp i
B S
Ġf ant
ĠJapa n
Ġtes ting
li nk
Ġhea vy
Ġretur ned
Ġreach ed
Ġcon ference
Ġpart ner
li ent
Ex ception
Ġh ab
Ġ9 0
Ġcom for
ph one
ĠÂ »
Ġgene ration
Ġmention ed
ĠL os
Ġexperi ences
Ġother wise
Ġb rain
ni vers
Ġch ec
Ġ ulti
te i
Ġcul tural
ĠCommun ity
O f
Ġwould n
ĠI mp
ĠSec ret
Ġs enior
Ġdis tance
Ġjoi ned
ourt h
N ot
Ġhol id
Ġfunc tions
ep h
ĠâĢ ¢
Ġhealth y
ĠEng ine
ĠC D
ro ad
Ġcomp la
Ġcommunic ation
ar o
Ġi tem
ef ore
ig ration
ĠJ ul
ĠL y
Ġconf lic
ĠR ad
K ey
ĠS ol
tor ney
Ġn ine
v ate
ribu te
equ est
Ġ Ã©
Ġt hanks
R ec
Ġe arth
Ðµ ÑĤ
ĠS et
ĠM ass
ning s
Ġfund s
ĠI D
ut ri
ĠW ho
ĠL ove
Ġresid ents
F L
Â »
ĠS il
ĠOp en
Ġind ex
le vel
ĠThom as
ree k
Ġ older
i ency
ind e
Ġinc red
Ġaff ord
, '
T ime
Ġenvironment al
a ntic
Ð½ Ð¾
Ġi ng
Ġcompe tition
Ġw id
Ġb ra
tic le
Ġexperi enced
us ter
b eta
ĠO h
Ġextrem ely
Ġt ask
ki n
pro duc
Ġpl aced
Ġn uc
p ass
Ġadminist ration
ĠL ord
est y
S tate
Ġser ver
ĠC y
Ġpolic ies
ĠSec urity
Ġse lection
ĠM edic
p x
ĠE arth
Ġfind ing
Ġ Ñĥ
ĠAr e
Ġp oll
se rt
Ġex cl
Ġwh om
ol es
Ġencou ra
} {\
Ġcrea tive
Ġc old
m l
Ġins tr
ĠH y
ĠF und
Ġdri ving
Ġsup p
s igma
Ġmeas ures
Ġe rr
ens ity
or por
Ġr uns
Ġwonder ful
8 6
ĠÂ «
Ġsus p
Ġconc ent
ĠCh icago
Ġcons erv
ĠĠĠĠ ĠĠ
h m
to ms
ĠT eam
Ġthous ands
O C
Ġknow s
u nt
ad ian
( ).
R ead
ĠPro duc
eps ilon
r ough
Ġsur ge
ab led
Ġw ww
Ġtempera ture
llig ence
ĠRuss ian
Ġb en
Ġr ise
Ġcover ed
Ġeas ier
or a
Ġb row
Ġappe ared
ros oft
ĠAl though
^{ -
ĠJ esus
Ġop tim
Ġsepar ate
Ġc ore
Ġsp ring
Ġviol ence
Ġb reat
Ġs ession
Ġbri ef
Ġfin ished
Ġ overs
un ately
Ġill ust
Ġcha i
Ġinter net
rie r
Ġfil ms
e ach
Ġbec oming
Ġset s
Ġsp l
Ġtr ee
M o
Ġm ental
In ter
Ġsu ffe
ĠIn formation
Ð½ Ñĭ
Ġow ner
Ġ200 3
ĠG ar
Ġvis ion
a uth
b ed
) );
M L
Ġstr eet
pl ace
Ġl abor
ur ies
Ð» Ð°
ĠP ower
am ing
a ts
ĠB os
ĠV i
ĠK ar
k nown
ter ia
Ġtechn ical
de red
Ġadva ntage
a id
ĠT our
tei n
Ġ7 0
miss ions
ĠSc ot
d ro
ĠVir gin
id ential
Ġd ry
Ġph il
Ġwri ter
M A
os en
Ġf ol
ĠRe v
og ue
as ting
Ġneigh bor
Ġshow ing
ĠAmerica ns
Ġex pression
un ic
u rate
ĠVe r
Ġclass es
Ġapp lied
Ġpass ion
ta ke
Ġstrengt h
ĠThe ir
Ġocc up
Ġp ow
Ġad vertis
ail s
Ġch ea
ĠGl obal
ĠPro ject
ĠH en
ow ns
ĠTechn ology
ĠE U
ĠAp ple
Ġend ed
Ġsc ore
Ġc ities
h op
Ġsig ned
idd en
Ġ( \
Ġt end
Ġout put
a ke
Ġman ager
b ition
Ġopera ting
ĠI T
Ġdeli very
Ġw eather
ĠWe b
Cl ass
ĠW estern
ra t
Ġdis tinc
Ġcame ra
H ome
Ġar m
ner gy
Ġfocus ed
Ġteach ing
S A
ĠLa ke
Ġsha pe
ol ars
Ġprac tices
ab ilities
h ar
Ġinter nal
ĠPa t
Ġvis ual
Ġfac ilities
Ġsup ported
Ġli nks
titu tion
ĠW ood
Ġ4 5
ĠE nd
ce a
P R
Ġb attle
../ ../
Ġp as
ĠU nder
Ġne t
Ð» Ð¸
ĠAr ts
ni te
ĠC EO
Ð¾Ð ¹
Ġexce ption
ri ve
Ġconnec ted
[ '
Ġfor mat
ffic ient
Ġhapp ens
20 18
S erv
Ġt hea
et ry
la ng
la h
H is
Ġd rop
Ġsex ual
ĠRich ard
ue r
roll ed
Ġfail ed
it z
ĠSe r
matic ally
Ġn av
Ġsm aller
Ġp ool
ni es
Ġag ency
C L
Ġcitiz ens
il a
od ies
b our
ĠT wo
s ection
j i
Ġmin or
ĠI ran
Ġsit u
Ġcirc um
Ġcl oud
+ \
Ġdis trict
Ġcomp ar
Ġcri minal
G e
Ġw hatever
Ġidenti fy
Ca n
Ġdiscuss ion
ĠSupe r
Ġw ed
Ġfem ale
ĠLi ke
ĠB ecause
ĠSe ries
ĠW eek
ĠL and
ĠAN D
Ġf ell
Ġle aving
up s
Ġpi eces
Ġb aby
Ġpar k
ĠL ong
e i
l usion
Ġcar s
S a
bur g
h ow
Ġman age
ac ement
mat hr
Ġfa n
8 9
Ġu ti
ĠS un
ra nge
Ġtra i
Ġprocess es
ĠSh ow
rom e
ĠMa tt
ĠF amily
Ġbal ance
Ġno ted
Ġapp ar
ĠE ach
ĠAngel es
ni tion
Ġattemp t
ĠWa ter
Ã ¥
te ction
ĠLou is
tand ing
va n
Ġfield s
Ġho nor
Ġadva nce
Ġtrai n
ĠPol icy
. _
r ich
Ġbat h
Ġh aven
Ġdec isions
7 6
Ġb ul
Ġanim als
d oc
ar ily
ide os
ti e
ĠL ist
Ġdetermi ned
ĠPar is
Ġdep artment
Ġro b
Ġcha ir
Ġremo ve
ese rve
Ġspe ech
ĠB rit
pos es
ĠC as
pons e
Ġadd ing
ĠMa t
il der
Ġr ac
Ġdemons tra
Ġrel igious
Ġintroduc ed
Ġ ze
Ġte x
ya n
ĠBl ue
Ġal le
Ġcon ta
ti lde
M P
Ġmea nt
Ġman aged
ri x
ion al
te en
ĠT en
Ġse lect
Ġdedic ated
Ġch ief
A merica
Ġc ab
ĠS u
ĠP C
f ree
Ġar rang
Ġdec ades
Ġdri ver
ĠIs lam
Ġmic ro
5 9
Ġbroth e
Ġsub sta
Ġbrothe r
Ġopi nion
Ġgu ess
Ġor g
Ġne gative
l ig
ar r
Ġprep ared
Ð¾Ð³ Ð¾
Ðº Ð°
Ġchang ing
Ġmeas ure
Ġeven ing
Ġba tter
k now
k ins
Ġk itchen
Ġba n
p ack
Ġgu ara
s ize
mathr m
Ġevent ually
Ġfr eedom
Ġc our
e tic
ĠR em
) (
ild ing
Ġma ni
inc lude
Ġexce pt
rea king
tra ns
D F
ĠAcc ording
ess ions
Ġnume rous
Ġf ashion
Ġn one
Ġco ord
ĠC up
ĠH uman
Ð² Ð°
ĠD own
ĠT al
Ġimpor tance
la w
e red
rel ated
Ġass um
Ġ aut
it ure
Ġcris is
Ġexpl ore
Ġres pec
Ġmain tain
un ning
uck y
Ġdoc uments
ĠF l
ĠCent r
Ġed ge
Ġsof t
Ġcons equ
Ġpol y
ce p
a na
i ents
ĠOb ama
Ġmark ets
i nate
Ġpic tures
l ishing
Ġli ved
7 9
Ġf ab
T H
Ġgu y
Ġaw are
omes tic
o ing
Ġun its
all ed
Ġdec r
use r
Ġp ray
D r
Ġe m
ate g
ĠMed ical
g amma
Ġgirl s
ens ions
ĠWind ows
w hat
Ġconcer ns
r ene
Ġdiag nos
Ġpay ment
5 6
n ity
ĠSpec ial
¿ ½
Ġyou t
ĠD uring
Ġ200 2
Ġter ror
Ġ( "
os es
gor ith
Ġmet al
Ġoffice r
Ġle a
ĠS i
Ġalterna tive
Ġ200 1
Ġob tained
ï ¿½
fic ation
ĠGr and
Ġ ;
==== ====
ĠCh ief
ĠChar les
Ob ject
Ġed itor
Ġwai ting
] {
us ted
Ġmar ried
ĠJ im
Ġidenti fied
Ġcent r
go n
Ġfl u
ĠA rab
Ġsc ri
Ġr andom
che r
Ġca t
S p
Ġi ce
Ġmost ly
ĊĠĠĠĠĠĠĠĠĠĠĠĠĠĠĠĠ ĠĠĠĠĠĠĠĠĠĠĠĠĠĠĠĠ
ĠCentr e
m et
h eta
Ġsh aring
ĠT O
Ġsta ted
S C
ĠS us
Ġeval u
ec ts
Ġartic les
tem porary
Ġes tate
Ġpr oud
Ġlot s
wa ter
rac y
T ext
e te
ĠH or
pri nt
b ra
Ġcommit ted
Ġj oint
t hle
hol ic
Ġvo n
Ġcon ver
Ġequ al
S te
Ġf urn
se qu
ĠAs ia
ĠP ac
Ġbe ach
* }
Ġwatch ing
Ġsy mbol
00 00
Ġ// /
Ġexperi ment
Ġatt ach
H owever
Ġtrans form
ai ned
ĠI ts
Ġg ain
Ġclin ical
alle ry
t hat
f ile
A A
Ġt ro
ĠTh ea
ud den
Ġco p
us tin
Ġexecu tive
Ġcombi nation
Ġcomp os
ch es
ind ex
Ġw ine
p et
Ġhand le
ĠL ear
ĠN Y
Ġph ase
Ġpl ays
h al
nis try
Ġf lex
Ġvol un
Fi rst
Ġvol ume
is tics
ivers ity
s m
Ġ ÑĤ
ĠT y
iga n
Ġb order
ĠR E
ar ation
j e
Ġkeep ing
es is
lea n
Ġpla nts
Ġ5 00
Ġdef ault
Ġb ow
Ġide al
z ing
r ish
Ġgu ys
amp les
Ġset tle
Ġbut ton
Ġlaunch ed
va tive
ĠC amp
ĠD ie
' :
Ġnot es
ĠB rown
F ile
ĠVal ley
Ġadva nced
Ġlead s
Ġepis ode
ĠR ights
D E
Ġmaxim um
c enter
Ġhe aring
t heta
ĠP ub
Ġcol le
Ġl abel
Ġea t
Ġinj ury
w hile
ĠC ul
ĠB as
ĠA ff
graph y
ric s
Ġlist en
p art
til ity
20 17
Ġb es
Ġhe ight
ĠD ra
Ġm otor
Ġst ars
Ġdoub t
Ġiss ued
Ġstar ts
Ġob tain
ĠAma zon
Ġinteres ts
Ġsur vey
c ar
Ġwas te
E W
ĠWh e
tit ude
ES T
Ġwill ing
h ire
Ġex change
ĠF ac
ĠMar tin
Ġidenti ty
ĠHe ad
Ġhistor ical
f l
N ext
Ġsc a
ĠDa n
r ho
Ġl ose
ĠE nter
L e
Ġte levision
Ġmiss ing
t han
f igure
Ġl isted
Ġclass ic
ĠJohns o
Ġbring s
Ġsta tis
ĠJohnso n
g ene
Ġpa ir
Ġad vent
Ġra ise
ga niz
Ġf uel
d elta
$ $
p ers
ers ey
ĠS k
^ \
Ġcar ried
ĠM el
Ġacadem ic
Ġs ample
i ke
Ġrap id
ĠL ee
c raft
ri or
L C
Ġcri me
rel and
ĠO nce
Ġminim um
Ġr id
ind ing
and emic
Ġrecord ed
Ġexper ts
id en
ig ital
g g
l en
f ol
ĠF ood
20 20
Ġapproxim ately
Ġs ounds
ca n
Ġres ource
Ġocc asion
Ġinvestig ation
Ġrelations hips
inde r
pat h
D ef
Ġda nce
oo ting
s i
Ġdef end
ĠT oday
Ġco ng
z ed
Ġwel come
Ġ Î
' ]
o ted
emb ly
ĠAb out
Ġun less
a tory
pher e
w ers
ĠA nal
8 7
ĠF ederal
en ni
Ġco verage
' );
ach el
Ġ ours
U s
ĠAustral ian
Ġunivers ity
ĠN av
og a
Ġb ird
Ð¸ ÑĤ
ri de
Ġfor ced
F ra
Ġfac ility
Ġhold s
l ength
Ġpar ent
Ġreview s
Ġra nk
d s
ĠT hanks
en ance
Ġexerc ise
Ġcompr eh
ĠRe al
ĠCor por
cea n
Ġwin ning
c ount
Ġcorpor ate
ĠH ous
tr act
Ġrespons ibility
Ġyout h
Ġannou nce
Ġ! =
Pr e
ic ks
ĠC are
o ch
Ġ( $
Ġ3 2
fri end
EC T
por tation
ĠSt and
n us
Ġrel i
ur l
Ġqu anti
ĠAd minist
Ġst ro
Ġwi nter
Ġhe ro
Ġdoc tor
ĠG ame
ĠL u
Ġd ial
ti se
t hr
E E
) }
Ġsp ending
6 9
ta u
Ġj ustice
Ġman ner
ĠF estival
ĠU se
Ġand roid
Ġcall ing
Ġhous ing
P osted
ĠSte p
os ter
ĠR oyal
ba t
R eg
ĠB ud
p age
a no
U L
li ament
Ġinf ras
S up
e ri
ol ve
ĠS ection
Ġcompon ents
le q
Ġk id
Ġbel ong
jec ted
ĠMi n
Ġexci ted
ĠM iddle
Ġprocess ing
Ġexpla i
Ġexplai n
ĠDes ign
ig ion
Ġprotec ted
Ġteach e
ĠM ur
to l
Ġteache r
enc ing
C ar
ell o
Ðµ Ð½Ð¸
Ġf ourth
ĠT H
Ġs or
ĠCan adian
Ġpur poses
ĠMex ico
Ġacce pt
s q
c m
() );
ĠJapa nese
Ġsh ut
ĠB ack
Ġcentr e
n x
Ġg ift
cont ent
Ðº Ð¸
ok en
Pa t
Ð¾ Ñģ
5 7
ĠI nt
Ġsignificant ly
i nal
Ġg un
ea h
um s
Ġsec ure
Ġfail ure
Ġcri tic
r eme
Ġp od
ĠÐ °
lic ations
Ġpoli tics
Ġsh o
Ġdec or
ĠE nergy
Ġm ort
Ġc offee
e ets
ns el
ĠCe r
ĠD u
ĠM en
w ri
d raw
Ġhe rself
Ġw itness
ues ts
x y
Ġsh ares
Ġfix ed
Ġj ump
Acc ording
Ġauthor ity
te ch
Ġmov ies
Ġpro to
a ne
Ġmass ive
s ts
Ġcombi ned
R o
$ -
Ġsug gest
ou ts
Ġreve aled
6 7
ch o
Ġp p
S ec
. ;
20 16
ĠS tor
Ġscienti fic
Ġagr eed
eli nes
um ps
"> <
M ay
Ġstrug g
und e
is try
Ġp al
Ġreduc ed
ĠG al
do or
Ġslight ly
D ec
n z
a thle
Ġteach ers
Ġtechni ques
Ġle aves
igh ted
Ġdata base
f s
ĠA uthor
ci ous
R I
Ġv en
ĠAcadem y
bs p
Ġallow ing
k et
Ġpack age
Ġbuild ings
qu ad
ĠO ld
ond s
ho nes
Ġinstitu tions
Ġdef ense
Ġanal ys
Ġcomfor table
Ġple as
lud ing
Ġr ain
Ġadv oc
x i
v ir
ĠV iew
ig en
Ġpos ts
ĠJo e
ĠRe port
Ġexcl usive
Ġoffic ers
Co nf
us hing
li nd
i ers
L ast
Ġvehic les
Ġobserv ed
Ġhold ing
l ong
ĠL ab
Ġco ast
5 8
ĠJ ustice
Ġwe ar
ly mp
G B
Ġtes ts
Ġto t
ĠG en
hen tic
Ġdec ide
+ +
Ġc ards
j ava
ĠTe r
ĠW ay
Ġregister ed
Ġmed ium
ar row
Ġob jects
ock et
r een
ĠS and
Ġcateg ory
Ġext ensive
Ġas pects
ĠW ork
ĠLib rary
ul s
Ġphil os
Ġs emi
ĠVirgin ia
u tation
ist ration
Ġf illed
li ned
Ġthough ts
Ġ rom
ic ious
S ee
Ġtr ees
c c
gr oup
Ġf ill
Ġfor get
Ġfamil iar
Ġpl enty
Ġput ting
Ġw eak
I nt
Ġremo ved
Ġis land
w est
ol ved
t as
Ġ$ (
s up
Ġe ra
ĠB et
ĠI reland
Ġint ended
ĠCol or
Ġthem e
Ġaff ected
Ġexpla ined
ĠÐ ¡
Ġlibr ary
AT ION
Ġdiscover ed
ĠH aw
Ġacc urate
6 8
Ġk ing
Ġ/ >
v ity
Ġsup posed
Ġta g
t hon
ĠS hi
ĠI P
Ġappro ved
ĠA v
Ġspecific ally
fort unately
Ġsup porting
ĠM aster
ĠPol ice
U n
Ġ/ **
ch i
ĠW all
ia na
ĠC ard
T est
ĠL ast
Ġanim al
ĠH ospital
Ðµ Ð¼
ĠL im
ys tems
id ents
b el
Ġretur ns
Ġap art
E rror
loy ment
Ġ20 23
ĠG a
Ġs and
app ing
Ġas king
Ġinfras tructure
Ġexam ples
Ġfl ight
Ġ auth
Ġt ough
Ġsmo oth
Ġpro ceed
pr et
Ġs weet
Ġfe els
ĠE p
ĠE t
ĠJo nes
i pe
ti fy
Ġsqu are
op era
H S
ĠSec ond
a nge
d ir
Ġaff ect
Ġ& &
F A
Ġrestaura nt
Ġp itch
ĠVic tor
Ġexp ans
ĠBe ach
ĠJew ish
Ġcol umn
Ġserv ing
Ġhigh l
Ġexper t
Ġsched ule
Ġb ranch
Ġpers pective
h ed
Ġtrans ition
Ġacc ident
ĠCha mpions
Ġdis s
ĠMc C
Ġtell s
ĠAr my
Ġde ri
Â °
Ġpub lish
Ġh ang
pr ise
ĠB ob
ĠCon ference
il ler
ĠC am
g na
Ġchem ical
Ġrel ax
Ġmus ical
N e
Ġconcer ned
ĠFil m
ĠNet work
Ġrespec tively
Ġemp has
20 15
ol ar
col or
Ġinc orpor
Ġconvers ation
oss ible
ant h
Ġv ideos
Ñ ī
Ġtechn ologies
Ġemer gency
Ġindust rial
ĠIn te
Ġra n
Ġass istance
Ġd ivid
Ġmi nute
W a
Ġvill age
rep rene
ag ers
P lease
n bsp
Â ®
Ġconduc ted
Ġde le
Ġcou rs
Ð° ÑĤ
D S
Ġparticip ants
Ġb right
r ete
go ti
Ġcompon ent
Ġarg ument
Ġr ail
Ġupd ated
5 3
ĠO nline
Ġexci ting
pi ration
Ġs oul
ĠO ri
Ġread ers
S ince
Ġmat ters
Ġbring ing
Ġloc ations
Ġfor med
Ġre pa
Ġv irtual
en te
end a
ra q
ĠMus lim
Ġs udden
ile r
Ġh os
n no
Ġs eat
Ġb io
G ene
} (\
ad s
pon ent
Ġdetail ed
os c
i nts
Ġw ave
Ġcor ner
Ġm ale
Ġmo tion
AT E
Ġmar riage
Ġabsolu tely
el la
Ġpro p
ĠA ud
Ġb ag
Ġgreat est
Ġs ac
ut or
ĠC us
Ġcon v
Ġnuc lear
ĠProf essor
ho ny
ell s
Ġtyp ically
par tial
5 4
Ġaccom pl
Ġlo a
ian o
ĠE qu
ĠMi ke
ĠJe ff
Ġstand ing
Ġbea uty
Ġprofession als
Ġag ent
rup t
u able
sta nces
B I
Ġvisit ors
Ġpromo te
Ġenjoy ed
Ġg arden
ĠS ports
Ġarri ved
ĠB oth
Ġpatter n
ear t
Tra ns
Ã £
ĠPhil ip
Ġd omestic
Ġcommit ment
Ġel im
Ġp andemic
Ġsee k
oun ting
h ost
ĠSen ate
Ġwal king
en ters
inf ty
ER S
Ġchar ges
ĠEn vironment
f ast
Ġ* *
F F
Ġcr eation
Ġconnec t
Ġs ides
Ġprof ile
ord ers
Ġad ults
Ġro of
Ġresearch ers
ĠSecret ary
( ),
ig ns
Ġtrea ted
ĠStud ies
u ing
ĠK ey
Ġam b
Ġholid ay
l ie
Ð° ÑĢ
Ġtop ic
rie ved
R ep
ĠCarol ina
Ġaccount s
E very
ome ga
r un
op hy
Ġregion al
Ġapp oint
ĠD et
Ġre venue
Ġauthor ities
n ab
p aper
D ir
ĠL ead
ĠSc ott
s k
ĠGe org
Ã© e
Ġfla t
og y
Ġrema ining
Y es
ĠNo v
ly wood
ĠYou ng
ri n
c ks
Ġf le
Ġc os
Q ue
Ġrou te
ĠA T
ok es
Ġpro of
Ġm al
il it
e per
Ġ af
Ġca ught
Ġ199 0
ra nts
Ġm ir
ĠA nt
ĠMic rosoft
pan ish
owe red
5 2
Ġ athle
Ġen em
P C
ã ĥ
Ġrelative ly
E X
ĠD ani
force ment
ĠWilli ams
ar p
5 1
Ġ3 6
Ġdeb t
truc tion
ĠPol i
ve c
Ġaccom mod
Ġsee king
N S
Ġs now
ĠO lymp
ĠC A
s im
lud ed
Ġren ew
Ġrec ip
Ġcommit tee
a tm
Ġinsp ired
Ġbe gins
Ã ±
Ġchai n
az z
Ġra ng
ĠCha ir
ĠC ode
tt le
c or
Ġtrad ition
ny m
Ġcon tain
n as
Ġpro ve
ĠY es
' '
Ġsp ons
sp ace
Ġconce rn
Ġwe alth
eq ref
m ap
Ġdiscuss ed
ĠCont rol
Ġp our
es ting
Ġdest roy
ĠC H
tic ed
c ase
Ġ aid
ĠF ort
20 14
ph p
com es
Ġass ets
Ġwed ding
P hoto
Ġres olution
Th en
à ¥
Ġ199 9
Ġs elling
s ubs
ĠB ow
Ġroom s
vi nce
Ġhundred s
Ġca uses
Ġb ought
Ġdeliver ed
Ġdiffer ences
A ss
Ġauth ors
r eal
Ġfor g
ut ter
p ts
Ġsu it
ed y
Ġp il
Ġgr ew
ĠA wards
Ġpl ot
Ġconf idence
h ick
E vent
erso nal
Ġdefini tion
Ġatt acks
R C
Ġsol ar
n oon
Ġaud io
Ġposs ibly
Ġdes cription
ti ga
Ġemploy ee
}$ .
ag a
T e
s pec
Ġop pos
ĠHo tel
Ġen able
Ġdoll ars
ĠU k
Ġpos itions
U M
em s
Ð¾ ÑĤ
Ġinvol ve
Ġparame ters
Ġr are
Ġtur ns
ac i
Ġs ister
Ġcandid ate
v ia
Ġk ill
Ġne goti
m ic
i ness
ĠP op
Ġsecond s
}$ ,
} ;
Ġfla v
lic it
Ġentir ely
Ġstrateg ies
Ġdrug s
Ċ ĊĠĠĠĠĠĠĠĠĠĠĠ
Ġup per
ã Ĥ
por ters
l us
Ġind eed
Ġimplement ation
Ġ odd
Ġexp ensive
Ġcr ew
om i
Ġad ult
Ġanc ient
s ter
h alf
Ġeduc ational
Ġconflic t
W ell
Ġcircum stances
ĠMedic ine
d d
Ġh arm
## ##
ĠChild ren
Ġimpro ved
ĠV o
M r
Ġed ition
anc y
atm os
L A
Ġr ide
ĠEx ecutive
Ġappear ance
Y our
ĠC rea
ÃŃ a
Ġi con
ĠBos ton
Ġgood s
Ġconfir med
n um
unde r
or i
Ġla ugh
Ġal gorith
Ġsto pped
ai ne
Ġpr ed
Ġdes tin
ar ks
Ġun f
Ġli qu
ami n
ĠÐ· Ð°
Ġsit ting
w al
et t
ĠAnd rew
s tr
Ġt un
ĠMa ke
Ġag encies
v id
Ġf ee
o h
Ġac know
por ter
C D
Ġqu iet
Ġsub sequ
Ab out
Ġv ul
Ġch osen
= '
D elta
b ing
ĠP ay
Ġ3 00
z il
Ġun a
Ġto w
ĠItal y
Ġlay e
C hr
ĠJ un
Ġstud io
Ġlaye r
Ġbelie ved
ĠF ar
Serv ice
Ð¾Ð º
Ġext ended
ĠCat holic
Ġna tive
Ġob lig
Ġfil ter
Ã£ o
Ġg uests
Ġpla ne
ĠR os
Ã ł
Ġcons umer
Ġbea t
ĠTh us
Ġcol our
Ġsig ns
8 4
Ġze ro
Ġaccep ted
leg al
w orth
Ġengine ering
m ond
ta gram
ch en
Ġwor se
I tem
Ġemploy ment
te ll
Ġl y
Ġwor ry
ase r
Ġdisc ip
Ġrecogniz ed
ĠWhe r
ĠO k
Ġ atmos
ĠFrancis co
Ġin h
ia ted
Ġhon est
T C
cha ng
| \
Ġmai nt
ĠI raq
Pe r
Ġdec ade
Ġinf o
Ġste el
P E
T able
Ġours elves
ĠP ak
ĠO N
Ġp hen
tis t
ĠO nly
B ar
Ġin ten
Ġp ra
Ġmur der
Ġcandid ates
ĠDiv ision
T ER
b al
Ġdom ain
Ġtrans port
Ġfe es
f g
Ġco o
ĠL uc
ĠG ames
Ġinvest ors
Ġf o
Ġspea king
Ġper man
ĠI d
Ġrem ind
ap pe
ĠL ive
mer ce
Ġfil ed
Ġl os
V e
Ġeffic ient
Ġend s
ĠL ar
ĠBrit ain
Pat h
Ġstor es
co hol
e ff
Ġproper ly
Ġthera py
ĠMo nt
com m
ĠP ic
ss ue
Ġequ ival
' ;
Ġr ing
ĠP ass
Ġdes ire
Ġin vi
i nk
Ġy es
ĠMark et
Ġfig ures
Ġestima ted
Ġli tera
room s
oc king
el ly
America n
ÑĨ Ð¸
n ning
ĠL ight
ow a
Ġneighbor hood
Ġ ox
Ġconside ring
ay lor
Ġk m
ester day
T R
Ġrepres ents
ha d
ĠPh ys
Ġpla i
Ġenter ed
Ġplan ned
it t
Ġconsum ers
Ġstate ments
9 7
uc ks
M ap
Ġr ough
ĠCh eck
Ġcar bon
ep t
ĠCol umb
ĠÐ Ĵ
it ors
Ġg ender
e ens
Ġter ri
Ġclose r
Ġchar ged
Ġcours es
Ġm outh
rib utes
el ler
Ġass ist
ĠWa tch
ual ity
Ġp et
or m
ĠE gy
Ġbro ken
Ġloa n
6 3
Ġex ternal
ĠC ra
c les
ĠO pera
Ġcol o
Ġup gra
F C
Ġsugges ted
ise r
Ġnetw orks
A ny
O ut
ol ate
ac ting
r ence
T A
ĠFor ce
Ġrece iving
Fi eld
ĠS panish
y n
A m
Im age
Ġdel ay
ES S
rup tion
Ġhouse hold
Ġworld wide
Ġm ent
Ġtw ice
Ġter rit
Ġd iverse
um i
Ġprote i
Ġenha nce
ĠM ode
Ġli ber
Ðµ Ð´
Ġ à¤
f il
Ġown ed
Ġprotei n
Ġcompreh ensive
Ġmaint enance
Ġcl oth
l ock
Jo hn
Ġar res
Ġtas te
Ġde pt
Ġsto ne
hem a
Ġf ighting
Ġpartners hip
ĠL ang
8 3
ĠA S
Ġab use
or em
e ases
Ġsubsta nti
ut ch
il ly
Ġra tio
Ġj e
Ġshop ping
v ie
n ations
is ta
Ġprac tical
Ġsp oke
com p
l ot
Ġve get
u ter
i ter
ĠJack son
ĠD C
Ġmeas ur
Ġdeb ate
Ġti m
Ġassess ment
Ġdes cribe
es ome
Ġar ms
ĠC all
man n
Ġb la
20 13
Ġpor tion
C omm
un ting
ti tle
ĠKing dom
ul ating
Ġr iver
ab eth
p li
Ġ ong
% )
Ġdanger ous
Ġ ok
Ä į
Ġc up
ĠF urther
ĠR oman
Ġnor m
ar ray
W or
Ġmom ents
Con text
Ġm useum
as ters
eg o
ĠC ross
Ġtell ing
ĠB la
ĠItal ian
Ġsch olars
Ġappe al
Ġor ders
T op
Ġfriend ly
Ġg ro
Ġref lec
Ġmo tiv
Ġconduc t
y ou
ica n
ib ilities
Ġbreat h
Ġgene rated
Ġsp aces
a nno
Ġex ists
Ġw est
Ġresul ting
Ġrecomm ended
Ġelect ronic
ad or
Ġlitera ture
ĠA uto
ĠA D
Ġc ru
ans as
R equest
O t
ĠT hank
Ġre porting
Ġet h
tr ical
Ġw idth
O h
ac c
ac o
ĠThe refore
uc cess
Ð¼ Ð¸
l ace
Ġt hick
Ġs la
H T
s a
na ting
Ġdi nner
Ġreg ions
Ġset tings
Ch ar
Ġ199 8
ul p
Ġeffec tively
f low
Ġn utri
ef t
Ġencou rage
7 3
Ġafter noon
Ġinte lligence
Ġorigi nally
Ġalle ged
Ġse lec
ĠC ur
Ġbu ying
Ġfea tured
ĠT able
Ġ3 3
Ġstr etch
Ġreg ula
Ġgu ard
Ġf ellow
y m
Ġinno vative
Ġcha pter
6 1
Ġcon temporary
Ġ} ,
Ġm u
ash ed
ĠG ri
Ġvic tory
Ġris ks
Wh e
fer ences
Ġprovide r
e ight
Ġthr ead
Ġfort h
ĠSup reme
Ġrecover y
Ġst ands
is a
J ust
Ġl ux
ch ild
ar ian
Ġsub mit
Ġ Ñĩ
C S
Ġti ps
Cont rol
ĠHen ry
7 2
Ġpla net
g ic
Ġong oing
Ġcy cle
ti ms
ĠT own
Ġemo tional
Ġy ield
Q u
" ).
ĠN ight
Ġhappen ing
ĠT ha
J a
M i
ĠTh rough
S ource
Ġdi et
Ġdep ending
Ġdir ected
Ġexpress ed
Ġ} );
ĠM id
B ig
r us
U P
ĠSouth ern
jec tion
Ġhous es
9 8
tur ally
Ġconsist ent
el o
ĠA ri
ĠZ eal
Ġve ri
res ent
ay a
Ġdisc l
M ic
b orn
] [
ĠL td
opy right
Ġing red
Ġl as
Ġgu itar
L og
Ġsch eme
ne a
n ode
Ġprogram me
if ts
Ġrefer red
ĠC ivil
Ġinter face
Ġs ad
n ions
Ġpre gna
Ġf aster
nt y
Ġte le
Ġpl astic
Ġreg ulations
Ġcount y
ĠM od
Ġlegis lation
Ġmill ions
ĠH ave
im ent
E qu
Ġmen u
ours e
7 1
h ew
Ġjud ge
Ġhy p
Ġinno vation
Ñ ĺ
ĠM A
red it
Ġserv es
ÑĢ Ñĥ
ĠE r
gr ees
f ts
Ġdo ors
âĢ ĭ
ris o
al o
ĠPri me
Ġf ly
ick en
Ġv ent
Ġcamp us
hold ers
Ġn ode
Ġsp ect
n put
Ġinc ident
Ġbus y
c ing
7 4
T hanks
Ġig nor
Ġfac ing
Ph one
ĠK im
Ġpr ison
S ub
Ġcons titu
ĠOc t
ou nted
am il
Ġar ts
le ts
Ä Ļ
y o
Ġtal ent
Ġinstall ed
F il
Ġcomp ens
is ation
ĠÂ ·
Ġus ual
ma tely
ĠAc cess
Ġsp a
ĠSp ace
Ġj us
Do n
Ġta ught
Ø §
Ġcol ors
Ġsuccess fully
W ill
In fo
ĠJ ac
Ġproced ure
Ġhelp ful
ĠS ara
Ġf ro
ĠKor ea
Ġknow ing
i nput
Ġrec ep
ar eness
to ns
Ġimag ine
ĠÐ Ł
Ġac id
ĠZeal and
Ġv ast
6 2
i ary
Ġext ent
/ >
Ġfac ts
Ġsurround ing
iv en
8 1
Ġupd ates
ĠRepublic a
ĠL og
ĠM P
Ġcomp l
Ġsymp toms
Ġspl it
ĠF air
Ġpar a
Ġmanufac turing
\ ,
Ġ198 0
Ġro les
z i
Ġte en
ĠIns tead
ĠMich igan
ĠCo ast
ĠÐ ļ
ĠN OT
Ġdef ine
ĠEngine ering
Ġframe work
Ġsh ift
Ġtri g
Ġprep are
Ġp un
all eng
Ġsurpr ise
tr ue
Ġinter pret
ĠL ittle
od ing
Ġincre ases
par ent
Ġemp ty
A nother
Ġear ned
h eless
ĠD igital
Ñģ Ñı
ĠG over
Ġev olution
ograph y
ĠW ri
Ġtot ally
Ġremo te
qu i
Ġreal ize
Ġlic ense
ĠPac ific
Ġpers ons
vir us
Ġimp ossible
cd ot
un a
ĠRepublica n
Ġsup ports
Ġdep art
ĠSci ences
u til
Ġrem ark
Ġgrow n
ĠC irc
Ġrepl ace
Ġtrad ing
qu are
ĠF ore
Ġcr uc
ra ine
ĠN ige
ob s
Ġrema ined
8 2
s tyle
Ġcollabor ation
20 12
ell ed
D ate
"> </
Ġinstr ument
Ġass ume
Ġposs ibility
Ġsh ooting
ĠNo te
Ġstruc tures
ĠJos eph
âĢ ī
ens us
Ġdri nk
ft h
ĠGu ide
ĠJ r
Ġbig ger
ĠWher e
am ental
Ġbo ys
end ar
Ġ antic
ĠB io
Ġfound ed
Ġb odies
Ġparticip ate
Ġpl ug
P ub
ĠJ ersey
Ġrel ation
Ġsugges ts
ĠB rad
nam ent
ĠA R
ĠSte ve
Ġba nks
pro of
ĠD eb
Ã º
L o
ul ous
Ġdeb ut
mar ily
Ġv ary
Ġde grees
Ġeffic iency
Ġj ava
Ġreason able
Ä ħ
ad ing
Ġtar ge
ĠAnd roid
Ġl unch
ĠG irl
Ġchea p
` `
ĠH and
ign ment
Ġco vers
ĠO R
Ġfant astic
Ġhealth care
ĠP age
s l
ma x
Ġtop ics
P ol
Ġexpans ion
Ġnav ig
Ġdes k
ĠII I
ua n
Ġr ub
Ġmix ed
P M
\\\\ \\\\
T V
ĠDo nald
g ely
Ð¸ Ð½
C ount
c r
H and
ed ing
p to
ĠE lec
Ġdis app
ĠPri nce
ĠTh ose
ĠB ru
Ġle ague
Ġtr ouble
Ġany where
Ġfeed back
9 6
tant s
t hy
Ġve c
oc racy
ĠFor m
ĠM S
Ġrel igion
ĠD ar
Ġmess ages
B O
sum mary
Whe r
ot al
ed ge
Ġpay ing
Ġvul ne
Ġtal ks
Ġpriv acy
Ġbo a
Ġwor st
y ers
Ġt or
ear s
Ġachie ved
ul ing
Ġvac ci
Ġwin ner
ĠB ooks
Ġenter tainment
Ġpass ing
Ġsequ ence
Ġas t
Ġgra nt
Ġag ricul
Ġexper tise
Ġadvertis ing
v oid
} [
Ġgene rate
l ook
Ġret ail
Ġel ig
Ġtw enty
Ġur ban
b il
Ġwind ows
Ġclaim ed
to od
g ent
Ġcou ncil
S ch
ĠMe r
ph y
ĠO s
Ġhistor ic
Ġpar king
ĠP sych
Ġexist ence
alleng ing
Ġauto matically
M e
ĠNorth ern
ne tic
i ra
Ġun able
ch ester
Ġcol lected
Ġag ents
Ġro ot
Ġsurge ry
liz abeth
Ġsw im
Ġsto od
f oot
du ate
Ġval uable
ĊĠĠĠĠĠĠĠĠ ĠĠĠĠĠ
a nx
Ġclos ely
new s
Ġw alls
Ġprovid ers
Ot h
ub a
prof it
ĠGeorg ia
ollow ing
Ñ Ĺ
Ġk ick
lic ated
ound ed
Ġe ating
x ic
Ġulti mately
Ġac ts
ord a
Ġdemons t
ope ration
Ġ ĊĠ
B a
Ġaw areness
ĠA nother
im a
ĠQue en
Ar e
L O
au gh
Ġcr eam
e ver
Ġmee tings
v as
ĠFina ncial
Ġ3 4
N et
ĠW ild
ĠD ub
me ga
Ġf ruit
Ġmag azine
Ġde pos
Ġcho ices
M any
ĠAss ocia
Ġhum ans
ĠE as
Ġ199 7
Ġstrateg ic
Ġwid ely
T ube
ĠK now
Ġcom fort
ĠMa x
Ġac ting
Ġincreasing ly
h ur
ĠÐ¿ ÑĢ
Ġfind s
Ġh all
Ġbr ands
Ġtyp ical
Ġcap able
Ġun cer
Ġco al
Ġe ast
op en
Ġtur ning
Ġvari able
ĠMan ager
ĠPr em
Ġla tter
r ement
Ġpen al
tel lect
Ġincred ible
Ġproced ures
h igh
Ġfrequ ently
sc ale
Ġpatter ns
> >
ting u
Ġto m
Ġdis p
st ar
ĠI rish
ĠC amb
tific ate
Ġadv is
Ġf ulf
Ġ7 5
ma kers
ĠF ind
E P
Ġind epend
Ġaward ed
as p
unic ip
ĠCon f
Ġim port
() )
i rs
ĠR ef
Ġcompeti tive
lde r
AL L
Ġlar gely
Ġkind s
Ġsustain able
Ġacc ord
t torney
Ġsc ra
ir y
ĠFi eld
p ol
Ġair craft
a ttorney
id ers
Ġcom b
Ġbas ket
l ar
Ġadj ust
ĠS tory
ag ues
)$ .
ĠNe xt
ĠTa ke
Ġimpress ive
u tion
Ġoccur red
um es
om o
Ġstr eets
M ost
Â Ń
st and
ĠOh io
cons t
ĠT est
W ho
ame ter
Ġsk y
No te
nivers ary
S im
ers ion
ĠSpr ing
Ġdesig ns
ic ian
eserv ed
no is
Ġ4 8
gi nal
g un
Ġcrow d
Ġcompar ison
Ġpresent ation
Ġs port
Ġrec ording
Ġup coming
Ġli e
Ġboa t
ĠF ire
Ġgu est
% .
Ġi rr
Conf ig
Ġscienti sts
Ġent reprene
p ay
Ġl ap
ĠAdminist ration
Ġtr end
Ð¾Ð ±
Ġbatter y
ĠD aily
ĠDe v
ĠS P
Ar ray
Ġmiss ed
Ġlink ed
D P
ĠP ales
ap i
ess ed
ĠDis ney
Ġmai nly
R S
Ġform al
Ġess ay
ĠT em
Â ©
Ġmedic ine
na n
Ġ attorney
Ġcomm ission
G u
Ġext ension
Ġd uty
c ore
Ġpri me
Ġvir us
ti ble
Ġrep eated
Ġfurn iture
ĠA ction
Ġrev olution
ple te
ĠHis tor
tr um
g age
Ġlands cape
Ġreduc tion
ĠA nti
ĠC ho
ĠW ord
ĠDemocra tic
Ġv ital
9 3
to o
ĠC la
Ġc hat
A tt
ad el
ti le
ro vers
Ġvic tims
Ġso le
Ġwea pons
C ode
Ġprincip les
ĠSa nta
Ġrepres ented
esty le
tr ick
ĠL abor
Ġpoli tic
Å ¡
mp ion
Ġg lo
ĠIn f
Ġre action
ĠH ard
ĠB efore
Ġans wers
Ġ199 6
Ġcorrespond ing
Ġ );
Ġprof essor
ĠBra zil
Ġ1 50
ĠThea tre
h ir
Ġpro tes
ĠU r
AN D
end o
Ind ex
Ġcontr ast
Ġj u
Ġex cess
g ate
ĠAs h
a a
Ġ anx
C lick
ĠF OR
ĠCommun ic
Ġ ax
ug s
Ġac tor
Ġta il
ine t
Ġdiv ision
Ġaw ards
l ich
Ġ197 0
ĠRet rieved
Ġis ol
Ġsu itable
ĠSta n
ĠF ig
is k
Ġsug ar
na ture
Ġarchitec ture
Ġch allenging
Ã¼ r
Ġfind ings
Ġlet ters
ta nces
Ġp u
Ġdri vers
br e
es h
Ġpri marily
Ġyou nger
Ġhy dro
s cript
V D
Ġgradu ate
og en
ple ment
Ġtes ted
ĠR ight
" "
ema n
Ġsever e
ĠT aylor
) {
n oc
Ġsched uled
20 11
Ġpro mp
Ġprof it
Ġbe e
ĠP oint
d im
Ġt ack
Ġor dered
Ġdro pped
B ack
b ro
as ci
I ST
aro n
Ġe lected
ent h
ĠK o
Ġbelie ves
one r
ĠSp ain
Ġrepa ir
Al so
Ġdynam ic
Ġexp osure
Ġstud ied
U LL
Ġte a
Ġca tal
ina nt
ec tive
Ġvis iting
[ ]
ĠU l
Ġatt ended
Ñģ ÑĮ
ĠT ech
v ol
Ġstrug gle
Ġuti liz
Ġas sert
ĠA li
ĠFa t
Ġd Ã©
Ġpla te
Ġmanufac ture
Ġres istance
D uring
Ġref lect
Ġregular ly
Ġde als
d ec
Ġcer emo
ĠR en
Ġpr ic
ĠD ou
V ER
Ġno ise
Ġj oy
ĠA L
pe ed
ona virus
Ġpick ed
ĠRad io
S ize
Ġs amples
Ġre b
H O
ea ns
Ġins piration
Al though
vers ion
Ġin ner
Q L
Wher e
Ġperfect ly
ak ed
b ury
Ġaut hentic
ĠIns tagram
Ġwri ters
Ġapp s
it als
Ġrel ief
Ġtra ve
Ġlic ens
}} \
n en
3 00
sq rt
Ġas pect
li te
T O
Ġre ader
Ġrecog nition
ĠF ox
E lement
ĠN i
ograph ic
ĠC os
ma king
Ġeng age
Ġexpla ins
M C
Ġhea v
it le
we ight
d ium
pl ing
ol s
ĠO x
Ġgra de
ac le
Ġimprove ment
or ation
Ġm ig
Ġguid ance
20 10
ico n
c reate
pl it
ul i
Ġfea turing
I O
Ġrestaura nts
N a
Ġti ght
Ġz one
Ġtra ined
Ġcur r
Ġreal ized
Ġ os
ĠP R
Ġear n
ser ver
Ġl osing
ĠV ideo
oun tains
ĠF red
U ser
Ġ3 7
Ġn ur
n tee
Ġta bles
ĉĉ ĉĉ
Ġal cohol
Ġbro ke
Ġimmedia te
wa n
Ġconfir m
Ġencou nter
Ġperform ing
ack ing
Ġmo lec
ĠIn vest
Ġc ro
Ġfor est
p erson
ĠMay be
Ġwe aring
d b
tic a
ap ore
Ġent h
ĠOr ganiz
ĠR ay
ĠBa t
ar c
Ġpow ers
Ġsol ve
ĠCorpor ation
V E
ĠL ine
ti f
Ġdept h
Ġ ÑĢÐ°
con fig
Ġappro val
Ġdo gs
ĠĠĠĠĠĠĠĠĠĠĠĠĠĠĠĠ ĠĠĠĠĠĠĠĠĠĠĠĠĠĠĠĠ
Ġsti m
Ġcou nsel
Ġtas ks
Ġtick ets
ĠC ond
Ġfound ation
Ġl ights
oo lean
Ġm ountain
20 21
va nia
Ġm el
ĊĠĠĠĠĠĠĠĠĠĠĠĠĠĠĠĠĠĠĠĠĠĠĠĠ ĠĠĠ
Ġ om
Ġcon taining
own ed
c ine
Ġscri pt
f it
ar ters
ĠTh ree
E l
ĠÂ ©
ĠCon nec
Ġcontribu te
Ġope rate
i ently
Ġalong side
ĠSe ason
Ġapprec iate
Ġh idden
Ġsup erv
9 4
Ġfund amental
ĠOr der
end ment
b ec
Oth e
T hank
Ġ ~
Othe r
h u
Ġinter ior
Ġsy nth
ĠM u
9 2
Ġinstall ation
Ġcut ting
d ated
Ġspec ified
n ie
il ton
Ġcontribu tions
ĠT ax
Ġli es
Ġwal ked
Ġsta ke
ĠVa n
b en
Ġlegis la
ĠC ast
ex p
St ar
Ġ199 5
Ġrepl aced
inf o
ali fied
Ġp aint
Ġpr is
ĠOffice r
Ġequival ent
ps i
ĠM ill
Ġy esterday
x x
ĠD ate
Ġs ick
s te
ag raph
ĠH as
ĠS ystems
h ro
t hm
Ġp ip
ene ver
Ġf rac
Ġpay ments
Ġwebs ites
Ġint ro
ĠS ky
h el
to ck
Ġpublic ation
Ġloc k
Ġbe ar
Ġantic ip
Ġaccess ible
Ġpull ed
Ġt hor
Man ager
M odel
Ġintegra ted
ar ia
Ġparame ter
D oc
Ġinform ed
ÑģÐº Ð¸
T wo
M essage
E A
ĠAs ian
Chr is
Ġacce le
Ġdis pl
C all
ition ally
fra me
Ġ4 00
C P
âĢ¦ âĢ¦
cl ing
Ġ3 8
Ġout door
Ġeng aged
r equ
Ġlist ening
orda n
Ġar my
iet nam
ĠN S
fol io
ĠP et
ĠY et
Ġrecogniz e
Ġw onde
Ġsa t
Ġadd s
Ġsitu ations
Ġp apers
T oday
S pec
Ġti t
ĠM rs
Ġtr acks
Ġun ion
ĠF oot
ĠL ew
tis m
N ode
ĠGu ard
ĠTr ust
ĠSt rate
Ġfe r
Ġpurch ased
ĠUs ing
ĠDani el
Ġcontribu tion
en ger
Ġcap ture
ul ta
fic ial
igh ter
Ðµ Ð¹
ĠBro ad
a ug
ĠÐ ľ
bur gh
Ġfac ilit
Ġnear by
AR T
Ġins tant
Ġorganiz ed
Ġg od
a e
O nce
ĠK ong
Ġh i
is ters
s ch
tellect ual
Ġdra ma
Ġmonitor ing
Ġspirit ual
Ġr ural
ĠB oy
Ġmi nister
Ġsh or
New s
ĠMi nistry
Ġf estival
9 1
it ory
Ġopera tor
Ġd iversity
Ġapproach es
ĠD ri
Ġatmos phere
Ġpain ting
k u
Ġ um
ĠDe r
Ġi r
E ven
ĠA rea
ateg ory
Ġb ridge
Ġwhe el
Ġafford able
ĠLe o
Ġre form
em ble
ine rs
Ġsc ope
N N
Ġpot entially
Ġreg istration
s ha
ud i
Ġass ociation
over ty
Ġeng agement
ic ians
b rid
mo ny
ĠA tt
_ .
ic ide
Ġmo ves
Ġarres ted
Ġen forcement
Ġb ond
Ġplat forms
ĠYou Tube
ch est
Ġfab ric
li b
Ġpropos al
ĠG reek
R L
D av
Ġtax es
Ġpercent age
Ġhead s
Ġ4 2
yl vania
Ġcrea tes
ac ter
ol id
Ġexpec tations
p ost
i ff
Ġda ns
Ġoppos ite
Ġkeep s
en i
Ġconstant ly
Ġm ob
Ġnecess arily
Col or
c ul
Ġno ticed
p df
ĠCap ital
Ġcare fully
Ġcruc ial
Ġmod ule
om s
Ġvis ited
wor ld
ven ess
c ond
ĠL ocal
Ġphen omen
Ġr ent
Ġfrequ ency
lli nois
ta g
ĠF ord
Ġne ck
Ġrepresent ation
ĠHol lywood
Ġcommunic ations
ĠEx peri
ĠLa tin
Ġsome what
ob by
Ġsuc ceed
c os
Ġd ensity
Ġre ar
Ġsuffe ring
oc ated
ai ning
Ġnar row
ĠCons erv
Ġreli able
Ġapp ointed
ĠR od
Ġmonth ly
Ġouts tanding
Ġslow ly
ĠAg ency
ĠP ers
} _{\
ins o
ach ing
ri g
Ġda tes
Ġfac es
ine ma
ĠW is
ĠB ea
E ng
R ef
Ġg al
Ġ ÑģÑĤ
Ġtechni que
ĠDo es
ĠS of
ĠM ain
Ġthi n
min ent
Ġhor se
ize r
R el
Ġp ed
Ġinvol ving
s ource
ĠBl og
Ġinves tiga
p g
i as
Ġne ither
Ġt um
Ġi ron
Ġsh ock
Ġseri ously
Ġobvious ly
Ä Ľ
Ġph arm
Ġgra nted
Ġadop ted
Ä ĥ
ĠCar l
na nce
ne ll
ĠColor ado
Ġsurpr ising
Ġill ness
ou nta
ĠN ick
Ġunders tood
Ġcha mpions
ĠScot land
end ers
ur is
Ġliqu id
S y
Ġenth usi
I mp
Ġun known
gr eg
Ġvers ions
ĠP or
m ers
e ased
app ed
Ð» ÑĮ
Ġacqu is
Ġcontinu ing
Ġh ate
Ġm eat
Ġy ards
Ġceleb rate
ĠC hem
Ã ª
Ġnew ly
ĠPak istan
ĠR am
ĠV ill
Ġelec tions
Ġli ked
Ġsurpr ised
Com p
Ġfac ulty
Ġlim its
Ġti ll
ĠP rac
Ġsil ver
a tors
p ool
Ġ- >
Ġfor ec
F ac
la ted
inso n
ĠM ethod
w ind
Ġsc ored
E nd
ab s
Ġbe half
ĠS ong
O mega
Ġcont rolled
zo na
Ġdeal ing
Ġil legal
d ri
Ġ 00
Ġcr ash
ĠSta ff
ar ity
Ġfina nce
Ġout comes
Ġdis appe
Ġair port
ab a
ail ed
% ,
Ġinj uries
Ġaw esome
ita n
ni al
Ġvic tim
Ġfair ly
Ġ q
Ġdep ends
ĠO w
Ð½ Ñı
Ġsub jects
ĠWor ks
Ġv ib
Ġabs or
Ġgl ad
R et
Ġdra wn
Ġi Phone
ly n
____ ____
Ġ ÑĢ
Ġinvi ted
ĠB ible
ĠPro v
Ġref uge
Ġexhi bition
con nec
Ġre i
Ġcon tained
Ġque ry
gress ive
Ġso il
ill iant
G A
M od
ĠB ul
ĠB ang
lo n
Ġprom ise
ĠCount ry
Ġsk ill
Ġfl ag
b old
V is
ĠS uch
. </
uc ed
!! !
fg han
H A
M M
tee r
ĠAd va
Ġmark ed
ir eless
Ġerr ors
T P
Ġs alt
Ġd ies
Ġlo op
Ġres c
ns ylvania
C R
ma i
Pre vious
ĠSw ed
Ġdeath s
ĠE lizabeth
Ġass istant
Ġr ig
Ġg ap
Ġperman ent
Ġal ive
ĠEas tern
we b
Ġfav ou
Ð² Ð¸
St ud
Ġcont rovers
Ġ199 4
Ġf asci
Ġdri ven
O U
ĠS aint
Ġle c
Ġprov ision
ĠHar ry
Ġpres ents
Ġout come
Ġre ward
Ġda ting
ĠM odel
) =
b ot
ĠAd am
ĠB or
ol o
Ġconsequ ences
^ *
ĠS l
tima te
)$ ,
Ġextr eme
Ġcons ists
Ġsub mitted
lan tic
Ġhy per
Ġmani f
ĠK ent
ob ject
Ġprincip al
ĠR ome
nar ray
ĠA ge
Ġintroduc tion
B o
ĠW ars
forma nces
Ġtrans portation
oc olate
Ġcontrol s
Ġm it
G l
ti veness
Ġinter action
eq narray
Ġlove ly
lem ented
ni ti
ic ted
Ġs essions
Ġsu fficient
Ġsa nc
Ð» Ñı
Ġingred ients
Ġimpro ving
iss io
rit ten
Ġp up
ĠWil son
Ġg ear
Ġscen es
im age
O K
Ġbrow ser
Ġleg end
ĠF ile
b as
rea ks
Ġf iction
il st
P L
Ġm ac
r ey
Ġ Å
Ġform ation
ĠD NA
Ġgovernment s
Ġstri ke
rea ts
Ġcons tra
Ġp ure
Ġcateg ories
ĠF ull
ci ence
Ġfir ms
Ġindic ate
Ġaff il
Ġvis ible
ĠI mm
Ġs ought
Ġwatch ed
Ġ6 5
ĠD id
ĠR yan
ou b
Ġstr ict
u ine
ĠN one
Ġag es
T ags
res ult
z es
ĠL ind
Ġtr ends
ĠCom mon
ur ities
f ted
Ġman aging
ol is
ne ys
Ġcol lect
ĠEconom ic
Ġris ing
Ġop position
ĠC lick
//// ////
ĠPl us
Ð ¡
Ġstrengt hen
ĠDav is
Ġinstruc tions
Ġend ing
S m
ĠP rom
Ġdi ning
ĠH D
ession al
ĠB ush
e rror
ĠM D
Ġhop es
A F
ĠC ON
pr ec
Ġdestin ation
ri ers
Ġexp lan
G amma
et es
Ġn urs
ĠF ish
Ġoffic es
Ġjoi ning
Ġorga nic
Ġmat rix
Ġwor s
v acy
ĠTor onto
Pr of
im al
g oogle
ĠJ en
go v
Ġrep utation
Ġconside ration
Ġclea ning
Ð¾ ÑģÑĤ
c uss
Ġtr uck
ak a
pl ed
Ġma il
Ġ: =
B N
A Y
ĠA I
Ã Ł
Ġdisc ount
ĠÐ³ Ð¾Ð´
Ġspi n
Ġ ol
Ġb ou
Ġ5 5
Ġthous and
ĠBo x
******** ********
d ra
ĠSup port
ĠV ietnam
ra py
ef ully
Ġfr e
Ġsing e
Ġadvent ure
ĠA gr
Ġiniti ative
ĠStep hen
ede r
Ġcomp are
Ġmil k
li ns
ĠH op
O ff
b m
ĠLi ber
ĠH ong
d t
Ġap artment
ĠA u
inc luding
Ġapplic able
b its
ĠD eath
Ġdis eases
fi rst
ĠGr e
Ġbr ead
ow ing
te ro
w s
Ġguara ntee
ĠBu ilding
ph ia
Ġ19 60
Ġtal ked
achi ne
Ġsold iers
Ġbas ically
p ic
Ġmachi nes
ce pt
Ġsinge r
id o
ant um
Ĥ ¬
Ġy ellow
/ **
Ġes cape
M E
ĠI llinois
r ace
Ġv it
Ġsav ed
Ġfr ust
ĠP y
ĠT ar
Ġstrong ly
ad ed
if ying
ĠA venue
op a
ĠM ari
M ed
Ġbi ke
Ġhas n
Ġdisc ri
ur d
Ġcom mo
ĊĠĠĠĠ ĠĠ
S ha
ĠR un
Ġpro por
ĠE ff
ĠPar liament
ĠV ice
w ing
U E
ĠN ations
Ġvac cine
Ġfra ud
que ry
ers hip
C or
Ġch ose
ĠL es
ick et
Ġmag ic
ale r
Ġshe et
Ġp ointed
Ġti ny
ean while
Ġcharacter istics
Ġstra nge
le tter
ĠG ro
Ġsur ve
Ġattach ed
Ġb omb
ud a
Ġsol o
te ers
200 9
li x
Ġse es
ĠAr ticle
Ġp ump
S ystem
Ġ3 9
Ġsouth ern
Ġdraw ing
ĠPart ners
ĠN eed
ĠCha nge
Ġrequ ests
Ġgr ass
la t
Ġstor ed
ĠH u
/ *
Ġsta ble
Ġdistinc t
Ġcompl iance
Ġper mission
Ġappar ently
text bf
Ġh urt
Ġamount s
Ġprior ity
Ġdra ft
Ġproto col
f all
ĠS earch
no te
Ġrou tine
Ġel s
r g
ĠT ype
ĠO li
] )
F O
ob ody
ent le
ail ability
os a
Ġh its
Ġiniti ally
c us
adel phia
Ġlo ves
mod el
Ġfac ed
Ġmeas ured
nes ota
ĠN FL
Ġconnec tions
ot ten
ĠAir port
ĊĊ ĊĊ
Ġad mi
bl ock
ra tors
T ag
Ġlaw yer
Ġmatch es
Ġparticip ation
Ġbirth day
ĠSing apore
Ġg iant
ard o
ĠSto ck
ish op
y ard
Ġas ide
Ġab ando
ĠPl ace
el come
w ich
h ers
Ġconsum ption
st art
We b
achel or
Ġsome where
C hi
Ġins pec
Ġv ess
L ay
~ ~
P res
b reak
Ġprem ium
ti ans
n ap
Ðµ Ðº
ĠN ame
cap tion
Ġ( )
ud es
ĠColumb ia
ed u
ĠStud ents
bu ild
wh el
Ġme al
Ġeval uation
Ġsec tions
ĠE vent
ĠS till
Ġans we
AS S
Ġfun ny
Ġev il
ĠLi nk
Ġenti tled
Ġrei n
ĠMil ler
ĠL A
Ġfunction al
ab e
Ġretur ning
ĠI l
Ġsudden ly
Ġindic ated
ð Ł
fac es
ĠC ro
ĠD ead
Ġindust ries
Ġli kes
" />
is ms
ĠP S
Ġimp lemented
Ch eck
alle l
ĊĊ ĉ
Ġobjec tive
ina ting
tur ers
Ġob s
Ġs tick
Ġchannel s
Ġple ased
Ġr aw
ĠFi nal
lo a
Ġm ul
Ġproduce r
graph ics
Ġca using
olog ist
ĠC L
B r
Ġsent ence
Ġproduc ing
Ġperson ally
Ġconc rete
Ġor di
Ġfeel ings
ĠA fghan
ress ion
4 00
ĠMe rc
ĠE X
Ġacc used
Ġcarry ing
Ġn ations
ur acy
Ġk ne
ĠB all
W ind
ĠM s
Ġt ac
Ġtemp late
Ġcover ing
ir m
d oi
ĠTh ough
Ġcri teria
ch em
g ments
ĠB and
Ġune x
Ġk illing
ĠS enior
ĠH T
} =
Ġf old
ĠPen nsylvania
Ġreduc ing
ie ties
Ġcr ush
Ġsm ile
P oint
Ġcook ies
ĠL ic
Ġor ig
ut ral
Ġexp osed
Ġf inger
Ġguid elines
ĠAff airs
Ġun us
ER E
bs ite
Ġsecond ary
ur ns
ĠS S
ĠM ember
ĠRec ords
Ġtick et
Ġappoint ment
Ġw ins
ĠS ir
Ġestima te
Ġhop ing
Ġflow ers
Ġper formances
ĠM ap
ĠMag azine
il arly
Ġmor al
Ġorigi n
Ġcour ts
b io
ĠJew s
ĠWh ether
ĠS C
Ġpro ven
Ġvo ters
? '
Ġthor ough
Ġb rown
Ġaim s
D T
d ney
ĠGr eg
Ġ199 2
ack ed
Ġfol ks
Ġb ac
Ġp hr
as ta
Ġdistribu ted
f ies
ame r
Ġwrit es
Ġrecommend ations
Ġe g
Ġc m
D own
Ġsta t
as m
Ġsuffe red
right arrow
ĠB rian
Ġelig ible
! --
ĠM ulti
Ġdoc tors
Ġaccord ance
se x
Ġfound e
Ġfounde r
ma ns
Ġ199 3
ĠD E
L ine
Ġs ending
Ġdest r
ĠP ra
il ty
Ġins ight
d r
eg as
" ),
ĠD O
Ġmembers hip
Ġwer en
Ã¡ s
Ġext ends
ĠClin ton
Ġdeep ly
Ġhard ware
Ġb lind
ĠDemocra ts
ĠE ll
Ġinvol ves
e z
ap ache
ĠE ar
ĠDir ec
Ġbath room
âĢ¦ .
Ġocc urs
Ġsta tions
Ġ6 4
ĠHol y
ĠS ite
ope r
Ġro se
ĠWi n
Ġdecl ared
tic les
la nta
b ul
pi n
ĠSum mer
G o
ĠO S
Ġv ice
na v
hol der
ast y
Ġb le
Ġconfig uration
et ts
ax y
ĠTra vel
ut ors
op tion
Ġext end
e o
Ġb reaking
Ġless ons
p son
Ġpre ven
Ġtra il
ess e
Ġfood s
Ġdep loy
Ġw et
ĠF our
st al
Ġinf ection
K E
ĠCon tin
Ġvari ables
Ġdescrib es
ĠUk raine
o or
te es
w orks
n h
Ġf ranch
Ġacqu ired
Ġ4 4
Ġabsolu te
Ġsea ts
e rr
Ġc u
Ġcolle agues
Ġben ch
Ġcas ino
ĠC ame
Ġho le
Ġcons cious
Ġsh arp
Ġe i
ia nts
ch eck
be ing
and roid
Ġany way
P lay
Ġattemp ts
Ġdis miss
ĠHous ton
Ġ anno
Ġbo ost
I nc
200 8
c t
A uthor
d ow
ĠC ru
Ġship ping
Ġt hir
Ġrequir ement
c op
P art
ĠK y
H el
Ġbee r
Ġnorth ern
ĠB ad
t z
Ġ4 9
ur g
B efore
G O
Ġpro ved
tera ns
ach us
ĠE nt
Ġconcer ning
Ġnews paper
ĠF ea
Ġcloth es
ma tch
Ġrepresent ative
H ar
U ni
ĠR om
Ġmar ks
Ð Ł
ĠR h
ĠB ol
Ġelectric ity
c s
}^ {\
ars h
ĠAri zona
B L
fi nal
Ġwar ning
r ical
b es
Ġacknow led
Ġqu alified
Ġsupp lies
Ġs tic
Ġf u
A p
Ġprincip le
ist ent
ĠSp irit
ĠTra de
Ġbl ocks
Ġlangu ages
ĠE ss
Ġbed room
Ġ> >
Ġnar rative
en to
Ġchild hood
Ġintegra tion
Ġrec ipe
Ġbut ter
Ġreserv ed
Ġsubs id
D a
Ġprogram ming
ĠC P
osp itals
Ġnorm ally
ĠJ ean
l ocal
Ġcap abilities
Ġlux ury
Ġhor iz
ĠE xt
Ġrepl acement
ĠT es
Ġinstitu tion
Ġt all
ĠF uture
ĠSa fety
Ġpro hi
Ġha t
Ġp y
Ġmem ories
ĠW ales
Ġfi f
Ġg olf
B M
sy mbol
c irc
tor al
ar g
Ġconf ident
em ph
Ġelect ro
am ond
F I
Ġse asons
or al
S tream
Ġconc lusion
Ġexp lo
pe ration
ĠSta tion
bi ted
ĠD un
ĠLew is
os h
Ġrespons es
ĠF igure
Ġta b
ĠE mer
Ġla id
ĠC urrent
Ġfi fth
ina tes
ĠC ook
Ġtrans mission
Ġgen uine
pa tch
Ġline ar
y al
ĠCh e
h ome
ĠRo om
m its
Ġbr illiant
Ġac tors
de v
Ġbelie f
Ġweek ly
Ġdis tingu
Ġcon vi
Ġimm ig
ĠH eart
T E
w ords
C lient
Ġflo od
Ð¾Ð ·
le te
ĠIslam ic
Ġtit les
Ġreg ime
Ġs ight
ode r
Ġresid ential
Ġfore ver
pon ents
ĠN AS
ĠF arm
ĠKe vin
Ġc hi
rang le
nor mal
Ġk il
---------------- ----------------
ol ly
Ġcommo nly
all as
tai nty
itar ian
ĠBro t
Ġper mit
ĠB ase
Ġj ew
u ted
var epsilon
ina tor
B est
Ġconce rt
un ter
nti ff
F igure
ĠDes pite
Gr oup
ĠB BC
Ġexp enses
bi n
ĠStud y
R em
ĠÐ Ĳ
Ġdra g
M T
Ġop ens
Ġt rib
ĠNo n
to mer
pr ing
ĠBe rn
ĠSh op
um ns
Ġelect ron
men ting
ĠP A
Ġenem y
ĠMar keting
ĠCha pter
Ġcontinu ous
ĠK i
Ġs ter
mai n
ra id
^{ (
Ġe missions
ĠÐ »
Pe ople
ĠY a
u age
ension al
Ġinj ured
Ġfavou rite
ing ly
ĠC ab
Ð° Ð²
ĠCa ncer
o cean
Ġcoo king
Ġv oc
od ge
achus etts
Ġdes ired
Ġcompens ation
Ñ ĳ
Ġsta ges
ĠL as
ific ations
om y
Ġstor m
Ġs am
t hi
Ġch ronic
Ġg ate
ĠGold en
Ġpro c
m essage
F ig
aw n
Ch ild
tific ial
Ġprov isions
Ġmechan ism
ee ting
w art
fa t
ir ect
Ġ( !
Ġarg uments
p op
ĠCul ture
Ã ¢
Ġ_ _
ti ous
Ġ vel
Ġevery day
ab ol
Ð° Ð½Ð¸
Ġbreak fast
B ox
Ġet hn
ĠOx ford
ec o
Ġform ula
Ġregard less
Ġdevelop ers
Dav id
Pro perty
iss a
Ġrestric tions
( (
Ġfl ash
c alled
ard ens
Ġsi n
Que ry
Ġperson nel
ĠJ ordan
Ġs izes
ĠL ady
ish ment
Ġm m
ĠPro cess
Ġtom orrow
al y
Ġc enters
Ġphilos ophy
Ġmer ely
ĠRes ources
ĠL ow
ĠC S
ĠWh ich
Ġintro duce
Ġalgorith m
l t
Ġl ighting
ord o
Ġne uro
L S
r ist
Ġbehavi our
Ġ1 20
Ġvec tor
M ethod
Ġ199 1
Ġ$ {\
Ġpar ti
B ook
Ġfarm ers
roll ing
P ress
Ġass igned
Over ride
ĠP RO
Ġdi ff
Ġv end
ĠCont act
ĠS tone
Ġ0 1
-- -
ĠMa jor
ĠSt ra
ri nt
E ach
ĠD ark
ter al
Ġover whel
( {
Ġshould n
Ġ\ ,
Ġp eak
Ġg ained
Ġse gment
ib l
Ġcra zy
Ġrapid ly
Ġfall ing
Ġar bit
Ġin ches
Ġra ting
oin ting
ĠTur key
R ed
ta ng
Ġemploy ed
but ton
ĠP ot
Ġs rc
Ġw estern
ĠSara h
Â ·
Ġstro nger
G ood
ĠG allery
U I
riso n
Ġenti ty
ĠL LC
Ġ ]
Ðµ ÑģÑĤ
Ġg rid
Ġdem ands
ĠInd ust
Ġj ack
Ġj un
Ġm aps
ena tor
n niversary
ĠFor est
a nniversary
Ġliter ally
Ġe ase
ou te
Ġmi ning
Ġp overty
Ġtarget s
ĠMin nesota
R a
Ġtrans action
Ġpriv ile
ĠEd ward
Ġguara nte
e le
d em
F T
ĠTo ny
Ġlo ans
Ġ4 1
ĠLa ur
D ep
ĠD am
Ġcom bat
Ġtr ick
Ġequ ity
Ġmy t
ĠTra ining
Ġequ ation
ed ed
D R
Ġport folio
U nivers
ĠB iden
Ġ4 3
Ġbasket ball
le ep
and y
Ġun iverse
ew h
Ġl ists
Ġc able
Ġt hro
serv ice
â Ĩ
Ġcomp licated
ĠEd itor
Ġsc ores
or able
Ġqu i
Ġcons ent
it zer
Ġl uck
n ore
Ġd ura
r eb
ĠSh ould
ver al
Ġinten tion
A g
Ġsens itive
ĠCol lection
. }
Ġc lic
ĠA C
8 00
Ġ- ->
Ġst d
Ġch art
f ting
app a
m ade
ewh e
ĠB ell
ĠFore ign
b ell
oc key
Ġmis ta
include graphics
Ġtrans formation
f ound
ĠDr eam
ĠH ea
Ġimp le
Ġceremo ny
ĠIn no
und le
h ri
h ou
ĠF all
ĠO ffic
igen ous
ĠPhil adelphia
ĠPr ice
T Y
Ġess entially
ache r
Ġin tellectual
ĠAr g
ĠP ersonal
ow ed
Ġspec trum
Ġp ace
Ġd ust
ĠMi ami
app y
Ġ anniversary
Ġde fic
Ġexp licit
D i
ewhe r
Ġdi pl
ĠL ook
Ġimm un
ewher e
Ġm as
Ġf ishing
G E
Ġbird s
Ġte eth
Ġman ual
P O
Ä ģ
Ġregula tory
Ġtour nament
Ġjud gment
Ġwa ters
Ġg la
Ġ ÑĦ
Ġad mitted
ĠR ose
h etic
Ġf lying
Ġresul ted
Ġdes c
Pro v
IN E
ĠH ay
Ġcor rel
Ġfew e
Ġfewe r
ĠE N
Ġp uts
Ġvo ting
pe rate
Ġ9 5
ecu tion
f alse
ĠH al
Ġc ot
Ġsp okes
Ġdri nking
H igh
ĠS quare
ĠFi nally
ĠT am
as ka
ĠT R
Ġdemonst rate
Ġdel icious
ĠPales tin
Ġclos ing
ĠM ountain
ĠDie go
pa ni
Ġreve al
Ġevery where
ĠLear ning
Ġsac ri
ĠDown load
Ġcons ole
' ).
ber ry
nk a
ĠAnal ysis
ĠMem bers
Ġst uck
ĠH im
Ġsubstanti al
Ġ/ *
Ġemer ging
is cal
Ġdesig ner
ass ert
Ġequ ally
ĠC R
aw a
old s
Ġ ocean
Ġsa f
................ ................
Li ke
Ġs ed
Ġexpand ed
ma tes
M us
Ġti e
ĠIsra eli
ĠAnn ual
Ġpleas ure
Ġbr east
b ound
Ġc uts
Ġencoura ged
b ooks
ti va
ab etes
tes y
Ġh ors
Ġsty les
ĠBro ok
D C
Ġhand ling
Ġad equ
o tic
Ġb ands
ĠEd ition
ĠStud ent
Ġinv ent
cons i
Ġsubsequ ent
Ġsho es
Ġr ush
as i
Ġr um
consi n
ribu tion
Ġto ne
tab ly
Ġlif estyle
ĠB ridge
ĠFi n
Ġpil ot
ĠBer lin
ĠAP I
ĠE ver
Ġdisplay ed
ĠIm age
ĠSm all
Ġfocus es
ĠR ail
p ng
Ġpa n
Ðµ Ð²
p ur
Ġprep aration
Ġaf raid
M ark
ã Ģ
H L
ĠSy ria
wa tch
une ral
ĠJ am
Ġad mit
ĠFina nce
ĠMatt hew
E mp
Ġm and
Ġn i
C ap
Ġsearch ing
Ġs em
Ġin hi
Ġinvest ments
Ġh osted
Ġsh el
g ie
Ġabs ence
Ġstatis tics
Ġw ra
RE E
Ġsh ots
Ġarri ve
S ep
vi et
Ġdream s
s ing
Ġconce pts
H P
ĠEgy pt
Ã¡ n
nis hing
Ġinf ec
Ġmar gin
b et
Ġdivid ed
Ġe cho
il i
j ust
ĠÐ µ
nt ario
ĠA z
Ġst unning
200 7
ĠÐ¾ Ð±
Ġrepres enting
Ġcontrac ts
w ho
al k
Ġ1 000
Ġreg ulation
Ġh ell
Ġus age
U D
ĠMode rn
Ġma x
Ġestima tes
u ous
ea king
ĠMore over
Ġincred ibly
Ġop posed
u ta
Ġl ad
Ġb att
Res ponse
ia h
ĠNav y
T y
Ġulti mate
ut en
Ġman agers
Ġpri nted
Ġacc uracy
Ġdiscover y
Ġm ari
Ġdec line
Ġcom edy
Ġhad n
t n
Ġinh e
ĠP as
ĠPro tection
im b
ĠEnvironment al
ĠJa ne
ĠN O
q l
Ġb ars
V I
ne ous
os is
Ġroad s
Ġunivers ities
Ġfac tory
ĠAgr eement
fi ned
Ġne rv
uris d
Ġstud ying
ĠÐ¾ ÑĤ
Ġrequ ested
Ġevery body
Ġsupe rior
Res ult
Ġch icken
la tes
Ġleg s
var phi
Ġprem ier
Ñ į
o a
ord inary
ĠV en
Ġinterview s
Ġ ..
oc a
ap se
ter na
ĠV egas
ĠC ase
w as
Ġcl uster
eng ers
f unc
ir k
ĠÐ ĳ
r ick
ĠSt art
ĠC li
Ġsatis fac
Ġtro ops
Ġdemonstra ted
c up
A pr
Ġpersonal ity
ĠGover nor
ĠBar b
mo nth
Ġprefer red
ĠFoot ball
Ñĸ Ð²
unicip al
Ġmain tained
f lix
Ġp ill
Ġ4 6
RO M
em ed
ti ny
Ġche ese
ge q
for mer
Ġcirc le
ĠSy dney
Ġme ets
Ġsh oot
Ġs ke
w ick
ĠVictor ia
IT Y
Ġreach ing
ro t
Ã¶ r
Ġtem porary
OR E
P age
per ties
im ate
e ements
qu a
ĠG arden
Ġflex ible
ĠMass achusetts
ĠE lect
g ies
ar ely
Ġthink s
Ġass et
ĠÐ¿ ÑĢÐ¸
nis m
B ecause
ate lli
Ġcirc uit
truc t
Ġheav ily
ĠAt torney
ol ving
ie ve
u its
nc ol
ĠT i
Ġorganis ation
Ġenter prise
) ^
Ġd as
o z
Ġpa tch
f ind
oo ns
AM E
ĠD og
ĠS E
h eri
Ġd ic
ĠChampions hip
tw ork
Ġfall s
sta tic
ĠRo ber
Ġi P
ter ed
S ON
ĠR ap
Ġstr uck
ĠDef ense
Ġ198 9
aci Ã³n
ĠE ric
cont rol
Ġenter ing
Ġrel y
nta ges
rt h
do n
ti que
Ġview ed
Ġsettle ment
Ġuni form
ĠR oss
Ġh az
Ġpres idential
Ġpre v
ou ri
Ġna turally
ĠC redit
Ġre produc
ys t
Ġreti rement
lay out
Ġ5 2
Ġb oss
Ġexpl os
l as
Ġ< <
Ġd ese
Ġterrit ory
to es
Ġrec y
Ġup load
Ġdem ocracy
ĠI V
Cont ent
Ġv otes
Ġm ons
ĠT ai
Ġwh enever
val id
ĠMem orial
ĠCo nc
qu ality
enti als
C urrent
ĠSt ore
Ġh ire
Ġsta bility
Ġoffic ially
thr ough
ta king
te enth
lud es
Ġiniti atives
. -
g ence
2 000
Ġse ed
U se
ĠÐ¿ Ð¾
Ġpr et
Ġb one
el ve
na nt
Ġacquis ition
à ¸
Ġt u
ch ed
IC E
Ġsus pect
Ġs om
Ġwith draw
ĠP DF
Ġsurv ive
M s
Ġl ucky
Ġg aming
ĠA ust
Ġsurv ival
Ġw is
atelli te
l ooking
et ric
Wor ld
Ġ4 7
Ġindica tes
M O
Ġens uring
Ġh ip
Ġr Ã©
Ġaim ed
Ġpush ed
Ġ od
Ġau tom
ip edia
ĠAt lantic
Ġsome how
Ġelec trical
ĠRe qu
k m
Ġtri als
ĠAuthor ity
v ard
Ġra ising
ĠGra nt
ĠInd ustry
ĠFat h
Ġhead ed
M en
ĠAss embly
li kely
A ction
Ġimm igration
Ġperiod s
Ġs aving
Ġti ssue
Ġ ant
Ġal leg
ĠO ak
ĠRel ations
B en
Å ¾
crip tions
Ġrec all
Ġgu ilty
h eight
Ġsav ings
200 6
Ġannounce ment
ĠPa trick
Ġaddress ed
en ame
g al
ä ¸
Ġcompos ition
Ġd ad
os ition
Ġowners hip
ors hip
elf are
ĠIm ages
Ste p
Ġdec ent
Ġdiscuss ions
Ġmi ni
nym ous
Ġmat hema
ĠS ig
ak i
Ġconta iner
Ġloss es
Ġtow ns
lo om
Ġvers us
Ġcl othing
ĠM ir
Ġcon j
Ġderi ved
C reate
Ġgreat ly
ĠC oll
Ġwhere as
Ġspea ker
h et
Ð¾Ð ¶
ĊĊ Ċ
ĠU ser
Ġcomp ris
Ð¾Ð ¿
Ġc la
c ip
w rite
Ġmod ified
ĠAd vis
ego n
Ġn il
r ets
ĠCamb ridge
ĠC hen
Ġcare ful
Å Ļ
Ġconcent ration
ĠEx pl
ĠC ry
ĠJos h
O UR
Ġob ser
Ġpro test
Ġb ass
ich e
Ġde eper
Ġminim al
Ġrel ating
B R
ĠD rive
ith ub
ur i
Ġimprove ments
gr ity
ĠN umber
Ġfocus ing
Ġrec o
ĠS av
ĠMar sh
Ġdestroy ed
| |
Ġvulne rable
mo nt
f ront
Ġ och
Ġm ut
ĠAlex ander
Ġmus cle
ĠNa tural
ĠPer haps
) -
Ġapply ing
Ñģ Ð¸
Ġemb od
ĠMan chester
it ting
Ġcha mpion
Ġav ailability
Ġepis odes
}, \
Ġdis h
Ġsu ffer
Ġhos ting
ĠTh ings
a us
Ġemploy e
p el
fi n
Ġgath ering
Ã© r
ĠK ansas
Ġcollec tive
Ġany more
G oogle
S outh
Ġal s
ur b
ĠH i
ro it
ma ker
Ġcor onavirus
Ġro ots
laim ed
Ġpar agraph
aw ay
Ġordi nary
S earch
ĠW y
Ġag ed
Ġco operation
el and
Ġg ay
Ã ½
Ġopera tors
Ġref used
Ġemploye r
ĠH ind
Ġres ident
N umber
bour ne
c all
Ġunder lying
A ug
ĠÂ §
ĠNige ria
ĠB ry
Ġemb ed
Ġb unch
. ~\
p uts
is ode
ĠSim o
ĠWith out
iction ary
l usive
ĠCons titution
Ġvolun teers
ĠT ro
Ġm g
g ame
F ind
Ġunus ual
I LL
Ġexperi ments
Ġqu ote
ter ior
over line
ĠFath e
F R
ha w
nn ie
ĠE c
ĠFathe r
Ġphotograph y
ĠM oon
Ġanx iety
Ġequip ped
Ġcap tured
Ġgr ounds
1 50
Ġl oyal
crip ts
Ġarri val
ĠJ ava
m outh
Ġen ables
ĠPrem ier
ĠF A
P ost
ĠS ales
ĠJ ay
Ġl oud
Ġtarge ted
Ġto le
tig ation
Ġsum mary
ĠRev olution
ĠG row
ĠD VD
ple x
Ġcommunic ate
ĠHar ris
nu x
Ġcri mes
Ġm ile
Ġmain taining
Ġmanufacture r
] (
[ \
Ġcontribu ted
e vent
Ġbase ball
Ġunex pected
â Ħ
Ġ2 50
im p
Ġde tection
ari ous
ĠAll en
ĠN az
Ġsh ops
X X
Ġtrans actions
Ġremo val
ĠMa nu
Ġg entle
a nch
Li nk
Ġattr active
ĠTr ue
Ġ19 50
ĠO ntario
ĠLim ited
ĠPri vacy
d ep
ĠS ound
ĠSea ttle
Ġexplan ation
Ġorganis ations
Ġmix ture
f ire
Ġcop ies
Ġcomple tion
Ġeng aging
Ġang le
add ing
Ġhead ing
Ġent rance
al em
Ġcho osing
loa t
Ġs op
ĠR ub
ĠK elly
pro to
Ġbroth ers
Ġch ocolate
Ġb id
ĠAnd erson
c lient
Ġset up
ua na
ĠIn ves
Ġab or
Ġmanufac turers
Ġher it
ĠAn ne
l ia
j son
or p
Ġh am
Ġgene tic
issio ner
F S
H ave
Ġla t
Ġconstruc ted
Ġgene rations
Ġdown town
Ġhard e
ĠSome times
ĠG i
Ġk it
l n
Ġmove ments
c urrent
ĠNa ture
Ġr u
Ġharde r
ĠE T
OR T
gra duate
Ġpe p
ĠHo n
Ġsing ing
Ġcorrect ly
Ġbla nk
Ġexperiment al
Ġrec ons
Ġvo ted
ti na
Ġper ce
ne ously
Ġro yal
ĠÐ ł
ĠIns urance
ĠHam ilton
Ġtempera tures
Ã¨ r
Ġleg iti
! )
Bu ilder
ĠP it
ĠA mb
Ù Ħ
ĠAn ton
Ġti p
ĠEnter tainment
ĠH IV
Ġad s
Ġvis its
ĠA k
subs ection
Ġres pective
R un
t titude
Ġinter actions
Ġhigh light
ir ts
t heless
ĠArch itec
Ġhor ror
wri ter
def ault
Ġinvestig ate
Ġwe igh
Ġg rate
Î ±
ĠQ ues
ĠF L
a ttitude
Ġtreat ments
ĠMo nth
ad i
c ut
un es
Ġcl ock
ĠCom ments
Ġscen ario
to pher
ĠEmp ire
Ġpro minent
Ġhighl ights
G L
Ġ} ;
out es
Ġwar rant
Ġret ai
und ers
ĠI ss
Ġphotograph s
ha i
te t
Ġw ur
ĠCha ng
Ġco g
Ġden ied
Ġsa uce
& \
Å ¼
Ġwors hip
te ran
h reats
Ð´ Ð°
Ġpass word
Ġde pression
ĠOr egon
Ġleg acy
Ġwa ke
ne tt
ts o
s ome
Ġadminist rative
h our
Ġwor ker
Ġj urisd
Ġmis take
ĠT ry
oga n
ing ers
ni k
Ġbr eed
Ġas y
xt h
C ON
Ġels ewhere
Ġsig nature
Ī Ĵ
ĠA ustin
IV E
Ġre ven
ĠW W
} ).
win ning
Ġfl our
Ġprob ability
ĠD ave
ĠÐ Ŀ
ic ial
St art
ĠPh D
Ġthrow s
Ġarg ue
ach ed
m ir
crib ed
ĠJ ason
ral d
Ġd ual
bold symbol
F ree
ĠSimo n
ness ee
ĠU nc
ik ipedia
Ġins ights
ĠCh allen
Ġsp ark
Ġevalu ate
Ġmani p
T im
Ġbow l
ĠS O
ha ve
Ġclass ical
Ġ attitude
ĠSof tware
Ã¨r e
Ġdiv or
Ġe ine
ĠWis consin
Ġf oo
Ġuti li
rit age
Ġ ÑĤÐ°
Ġherit age
Ġlea t
d ays
Ġsh ips
fra k
Ġinter ven
ĠRepublic ans
ĠP ack
Ġag enda
or ous
Ġcra ft
L ear
Ġmag netic
pri vate
Ġsor ry
m ethod
ede ration
ĠAm ong
T HE
Ġdocument ary
Ġbr each
Ġinter vention
Ġr acing
Ġke ys
ĠÐ½ Ðµ
Ġcal endar
ĠStand ard
u tic
Ġdecr ease
Ġma ins
ast ro
tic ip
b ac
ĠB ed
ta h
M D
Ġconven tional
Ġau f
ĠAg ain
ĠCl oud
Ð°Ð» ÑĮ
f ier
app ro
qu arters
Ġstrugg ling
ou ver
Ġt hreats
ĠRep resent
ĠPort ug
p ub
ha ng
Ġas ks
Ġta nk
Ġtrack ing
ĠH ot
ĠSh ort
x ml
Ġcl ubs
Ġconserv ation
ĠP u
Ġwh ilst
6 00
Ġex ha
Ġdirec tors
ĠK ings
ra it
rab ly
Ġcalc ulated
Ġsc ulp
lec tions
ens or
Ġmine ral
ĠRa t
Ġbo nus
ed uc
Ġr ental
ĠFr e
Ġthem es
Ġprep aring
Ġh ospitals
ĠYear s
ĠW H
Ġcha nces
Ġreve als
ĠFurther more
row s
g ant
Ġrec ru
ĠWi nter
Ġremark able
em bers
Ġlay ers
Ġpr eserv
Ġdevelop ments
to log
Ċĉĉĉĉ ĉ
Ġdoll ar
d ie
Ġpromo ting
F ri
eas ure
ĠHaw ai
Ġcomp rom
ĠM ess
Ġinstr uments
ĠReg ional
ti mal
Ġ5 1
Ġh ide
Ġab road
n ames
ose r
ĠCl ark
Ġcurr ency
Ġ198 8
Ġh ung
ĠPe ace
Ġfit ness
Se r
ateg ories
Ġâ Ĥ¬
G R
Ġlow est
Ġp ounds
im g
ula tor
Ġapp lies
h l
Ġcompe te
Ġw ireless
ĠSo n
ex it
Ġ` `
ĠUn fortunately
ĠS D
Ġab und
ac ious
Ġstay ed
Ġg ifts
ĠB it
Ġworks h
ĠI de
Ġter minal
Ġtes ti
Ġviol ent
Ġexecu tion
ĠSo viet
======== ========
ocra tic
Ġdiagnos is
Ġint ense
P D
Ġpurs ue
Ġchar ity
Ċ ĊĠĠĠĠĠ
and al
Ġworks hop
Ġh ur
Bl ack
qu is
W S
ĠI owa
Ġleat h
ew s
ĠR oy
ĠD allas
Ġdis aster
Ġpo etry
Ġcry pto
Ġshould e
ĠStud io
Ġshoulde r
ÐµÐ» ÑĮ
hi ne
ĠD or
pack age
ĠY outh
ter ing
Ġw ider
Ġethn ic
Ġm ad
ĠS U
ic tions
AC K
Ġsh ower
ĠE arly
Ġposs ess
ĠR oll
ĠEx change
roduc tion
Ġh ence
Ġopi nions
Ġd il
Ġrad ical
Ġtrans lation
Ġleath e
c oin
Ġdocument ation
ri ff
Ġgu ns
Ġg allery
ĠT ok
ĠC hannel
tso n
ĠBud d
am o
ĠSa udi
Ġreti red
Ġrepresent atives
Ġpri ze
Ġr uling
ĠAnt hony
Ġtravel ing
Ġceleb ration
Ġlife time
B ase
Ġun cle
L ea
h line
C al
ricul um
N Y
ĠM ount
ĠSchool s
Ġcer tified
Ġli ability
iti vity
pr ead
Ġr ice
Ġsl ot
Ġinterpret ation
nc ess
ĠB C
ĠH old
ĠF le
âĦ ¢
ĠLi ncol
less ly
Ġaddress es
ĠKor ean
c ard
Ġtem por
200 5
Ġsim ulta
i ences
ni tive
ig ar
ĠSil ver
r man
Ġsup porters
mi na
r equest
Ġgen r
u ters
Ġdial ogue
Ġb ills
ĠD ise
Ġr hy
N ational
Ġgenr e
nti es
ĠA st
Ġbot tle
Ġoperation al
O ri
ĠAt lanta
cha i
ĠAp pe
Ġto night
B D
L ab
Ġcom o
t Ã©
But ton
Ġexplor ing
ĠSm art
ĠChair man
Op en
el son
Ġdo i
Ġpe tition
ĠC reek
s ite
Ġsy nd
In put
T D
friend ly
owe ring
Ġbroad cast
b us
Ġrefer ences
Ġmind s
Ġsec tors
Ġconc luded
Ġ0 9
ĠO cean
ig s
Des pite
ĠAfghan istan
iti s
Ġdra matic
B ri
Ġstream ing
Ġbox es
Ġcer tificate
ea ting
Ġinvolve ment
Ġconserv ative
ĠN ULL
D id
e ader
app end
Ð½ Ñĸ
Ġac tress
I E
ĠEt h
ĠM obile
Ġpass es
con tin
Ġcompla int
Ġd owns
Ġla ke
ac ular
Wa tch
ĠAdd itionally
Ġaccompl ish
ĠS ex
de ring
Ġpar allel
Ġimp acts
Ġw aves
Ġpop ulations
Control ler
ĠI ll
Ġar med
ĠBe ing
e rve
Ġsubs tance
sh ow
cha e
ĠA bs
u ros
a j
Ġemploy ers
Ġleathe r
Ġun likely
ĠLeg al
b ow
ĠAss istant
Ġres idence
Ġneigh b
Ġcent uries
Ġchec ked
Ñĸ Ð´
ĠS H
ĠF ro
press ed
m ad
ĠÐ Ķ
Ġlog o
Ġspecial ist
Ġint ent
Ġpe e
i ology
ordo n
Ġne utral
ĠP ur
u z
P P
Ġtra uma
U r
M et
AC T
ret t
ĠH aving
Ġenvironment s
Ġg ang
ĠChris tians
Ġco des
Ġmys ter
Ġref ers
ĠAr c
olog ists
Ġ9 9
Ġemo tion
Ġlaw yers
Ġfranch ise
V A
Ġti ed
ĠBur eau
peri al
Ġopera ted
Ġqu antum
Ġrob ust
ĠMary land
ĠN ation
ĠL iving
ĠK eep
U C
ĠMc G
Ġin equ
aco n
au ra
Ġflu id
ĠM ove
M c
N orth
U K
Ġr arely
Ġdu ties
Ġgot ten
Ac cess
ol as
Ġag gressive
ĠĠĠĠĠĠĠĠ ĠĠĠ
ĠB attle
em ail
ĠM achine
} );
n ist
Ġass embly
ĠJo na
ab ama
Ġmo od
Ġf Ã¼r
Ġterri ble
ĠD utch
Ã© n
Ġ5 4
niz ed
Ġex it
U ST
Ġrele ases
w ill
ĠDoc tor
ĠL O
ĠG il
Ġatt ending
Ġz u
ĠS ar
Ġen orm
Ġhy brid
Å Ľ
Ġsta ying
Ġcomp et
Ġr ende
ĠPri ze
Tr ue
ang le
20 22
Ġcont est
ĠR i
ĠIs lands
ĠSy mp
Ġres olve
Sta tus
Ġcomp ati
ve ra
e ore
ĠPri vate
B E
d et
ĠJud ge
w eek
n j
Ġar rest
ĠM other
ĠB E
Ġven ue
Ġpolitic ians
ĠB es
ti ent
one t
Ġca ke
Ġexam ine
Ġwe ird
Ġn ights
Ġspea kers
ĠMo ore
es hold
Ġco h
ti r
ĠP ho
S I
d am
Ġpromo tion
l ast
Ġl it
chai n
ic ate
j pg
Ġpub lishing
Ġsignal s
i nn
heri ne
N C
> (
ĠMo vie
ether lands
Ġda tas
ĠWor king
c ss
Ġobserv ations
" ]
Ġexception al
ĠP aper
d rop
Ġd ose
ĠVill age
Ġunivers al
Ġsh if
M I
s f
math frak
ĠC ome
h eore
Ġb orrow
Ġne g
fer red
Ġacc ounting
M ode
Ð´ Ð¸
Ġm oon
Ġlog ic
pl ier
ams ung
Ġor ient
Ġpro vince
i nch
Ġdis order
gh ten
Ġappar ent
anth rop
Ġset tled
Ġcon vert
Ġclass room
load s
Ġoff ensive
M ax
Ġp hones
Ġt ut
ĠFor um
Ġgath ered
od a
ol y
ĠI niti
ĠB ir
Ġkn ock
Ġacc um
Ġthea tre
Ġpublic ly
Ġvac ation
olu nt
ip pi
Ġamong st
Ġrough ly
Ġrespond ed
ĠMar ia
F eb
ĠM ind
t ly
C ell
Ġ6 00
Ġcontrol ler
ĠLear n
h t
ĠCl imate
Ġcor r
enti ty
Ġemo tions
ĠPro perty
ĠSci enti
Ġpi n
ĠR est
Ġprop ag
pa nies
Ġch est
ad ata
ĠPlan ning
ĠLeo n
Ġconven ient
Ġcomp a
Ġplai n
ri m
Ġhe aling
ĠU RL
ĠS ource
Ġdis ag
ag en
Ġco ck
Ġdec k
ĠHel p
ned y
Ġcompu ters
ke e
Å ĳ
Ä ĩ
Ġextra ordinary
li ers
o ir
sta tus
S U
Ġt rop
E xt
Ġpenal ty
Ġ198 6
Ġacc ounta
Ġl ung
qu iry
g ithub
Ġf ired
con f
is c
ĠP ow
Ġpass age
ĠC le
ĠCommunic ations
Ġdeliver ing
Ġexam ination
Ġliber al
ok ed
ac tor
ĠTe xt
Ġassum ed
Ġgrate ful
Ġover come
Ġenjoy ing
Ġpri de
ÑĤ Ð¾
ĠOlymp ic
Ġpanel s
les h
g ral
ĠEx press
ur ious
il and
Ġarg ued
p rop
ĠIndia na
con text
OR D
Ġsp ots
F l
ĠInd ones
Ġis t
b log
Ġm ountains
enni fer
v als
Ġmusic ians
Ġ8 5
Ġcont ents
Ġeg gs
ala nced
d ot
w p
AG E
s tream
H i
Ġu tility
Ġprogress ive
Ġ5 6
ĠMor gan
Ġconvers ion
R ight
go ing
ĠCo nce
ĠN ic
up id
âĢ ħ
Ġmeaning ful
Ġmys tery
H a
lang le
Ġpray e
Ġ198 7
G reat
Ġtal ented
cent ury
Ġpraye r
Ġsup plement
t ro
Ġparticip ating
Ġ Ø
Ġvolun teer
Ġless o
Ġass ault
P N
ĠS ab
v able
Ġec os
pani ed
asc ular
Ġtrave ll
Ġ5 3
g ement
Ġlesso n
e tion
Ġcal m
Ġw ire
Ġdim ension
Ma ke
Gene ral
ĠReg ister
Ġestablish ment
Ġdirec tions
Ġas ser
Ġanswe red
Ð¸ Ñģ
Ġ( @
Ġsatis fied
A bs
ĠF ive
el im
ĠB aby
ĠH art
Ġfor ma
Ġwea pon
ĠVe ry
200 4
S um
ĊĠĠĠĠĠĠĠĠ ĠĠĠĠ
Ġcas ual
Ġl ens
ĠLab our
Ġb old
urr ica
ĠR s
Ġlo ving
W ar
ld ots
Ġ198 4
Ġdiffic ulty
Ġba nking
ĠAll iance
ĠF ir
S w
Ġok ay
Ġd ar
}} $
Ġp iano
ul ties
ĠMa terial
x ed
H o
Ġpass engers
Ġli ft
ER T
Ġrank ed
ĠMal ays
Ġhard ly
Ġac tively
Ġtr em
Ġin noc
Ġex em
Ã¨ s
Ġ0 8
ass e
L P
Ġse aso
Ġre ply
ĠO K
off s
ĠHa n
Ġfund ed
un i
ca t
Ġvent ure
ĠLe vel
Hand ler
Ġceleb rated
ĠPoli tics
ĠSep t
Ġdu ration
Ġ7 2
sp ect
ina nce
h ard
Ġcampa igns
Ġwa nting
chest ra
ĠA G
Ġfant asy
ĠTen nessee
ĠInd ex
Ġe lder
pro cess
Ġsmo ke
ui n
Ġf iscal
Ġme als
get s
ĠÐ¸ Ð·
U nder
Ġimm une
Ġdirec tory
gra d
Ġs enti
w hite
Mic hael
Ġ Ñĸ
Ġmeasur ement
AN T
n umber
ĠNet flix
v it
Ġp ushing
Ġcomb ine
Ġwor ried
Ġsig ning
vious ly
az a
Ġen abled
ĠOrganiz ation
lic a
Ð° Ðº
L ambda
vent h
aw are
Ġwh is
Ð Ĵ
ab out
GB T
ul se
ĠSh are
one rs
em en
for ward
Ġb uck
. \
ear ing
ĠAg ricul
Ġnur se
Ġper f
Ġsta mp
ĠApp lication
Ġhotel s
Ins tance
Ġmir ror
la v
Fi nally
hr en
m ented
Ġâ Ĩ
2 50
ĠHe ritage
Ġgover nor
Ġb ags
Ġt ries
Ġsome body
G en
ĠM otor
p en
C e
ĠC ris
P T
rup ted
Ġun com
Ð² Ð¾
Ġyou rs
ach es
Ġlay out
ĠL am
Ġdynam ics
ai nts
is ely
ĠS ix
un ate
ĠLang uage
M B
= {
ud o
Ġhuman ity
b n
Ġchec king
Ġal ign
Ġgradu ated
s uch
Ġdef ensive
Ġmechan isms
Ġc ow
D I
" ,"
ĠO il
pl us
Ġspea ks
ĠHow ard
Ġwin ners
Ġindepend ence
Ġdis pos
Ġtele phone
ĠMar ine
E nt
ab ies
ĠD ean
Ġbl ow
Ġconsul tation
Ġsp ir
Do nald
ĠH ope
Ġrang ing
ĠCo vid
Ġentreprene urs
Ġinter pre
C opyright
ill o
Ġb reaks
Ġ ì
Ġdevelop e
ĠCap tain
Ġvo ices
Ġdestr uction
) ]
Ġbr ush
Ġinter active
def ine
r b
ĠLincol n
Ġin fi
Ġ aus
h rown
Ġur l
ri ne
ĠTh ird
Ġexpand ing
ĠP ier
Ġcur ve
orge ous
Ġmeasur ements
D ay
Ġcom ic
b ie
Ġaff airs
Ġl ady
Ġre verse
Ġfasci nating
ip ped
UR L
Ġcan cell
Ġloc ally
ha na
e it
ĠB Y
ĠAd vent
Ġfl ights
ema t
Ġh et
Ġartis tic
ni ne
ĠK n
Ġdevelope r
; &
Ġdepend ent
Ġproduc es
Ġv ocal
Ġr ational
F P
Ġold est
Ġver tical
m ember
Ġti red
ĠMay or
ĠCons ul
Ġcan cel
Ġwonde ring
ĠProf essional
Ġdef eat
l ad
us a
iz za
ĠG as
Ġh ook
p ot
ĠN etherlands
us ting
Ġimpress ion
ĠÐ ĵ
Ġemphas is
nd ers
Ġin vention
ĠScot tish
Ġwas h
Ġathle tes
M arch
j uana
p hones
osp el
Ġfor um
ĠS or
Ġconvers ations
lah oma
Ġreview ed
spec ific
ĠD om
Ġme rc
ĠN ich
Ġe gg
ĠR ick
ĠS elf
ĠS ri
ĠMc K
oc ity
ĠB row
Ġupgra de
Ġpre vention
n ull
o e
ĠM om
fat h
Ġconsist ently
Ġb ool
tom ic
ke ep
Ġidenti fication
igh ters
L ong
ĠHe ro
his tic
ĠM ission
tit utes
ĠCent ury
ĠReview s
Ġpar ad
Ġgr ace
ĠHar vard
h ot
r each
ĠEv ents
Ġ0 4
Ġswim ming
ĠE ag
ĠUn it
ĠS ac
Ñ Ĭ
ac les
Ġpri nting
ĠM as
ĠT rib
ĠB ey
ĠDel hi
Ġjournal ist
For m
ja n
Ġr aces
ap olis
f ish
Ġwood en
j u
Ġ ons
Ġear nings
dim ensional
ĠN BA
rea ted
Ġcame ras
ĠM art
Ġ198 5
ĠT ool
Fac tory
S O
Ġdipl oma
ĠL or
tric ts
Ġattemp ted
Ġbur den
Ġglo be
ri o
Ġsur ely
ĠĠĠĠĠĠĠĠ Ġ
Ġh osts
ĠS ubs
Ġle ts
Ġdeter mination
Ġpro vi
Ġsugges tions
ĠO sc
ĠPer formance
back s
Ġdes perate
P hi
Ġinte grity
D B
sh e
Ġun like
ĠÐ ŀ
Ġorga n
Ġlicens ed
Ġcollec tions
a nger
Ġ8 00
Ġcomp osed
ĠL eb
ige r
Ġ oc
Ġinc om
zz le
Ġobjec tives
o is
ol k
Ġf emi
L ocal
Ġsal ary
Ġagr eements
II I
p apers
Ġpod cast
ÑģÑĤ Ð¸
Ġexhi bit
og ether
ĠDet roit
Ġsu icide
Lay out
ĠM itch
ell ows
Ġhor ri
Ġicon ic
lo or
P RO
Ġscreen ing
Ġbl ess
Ġal um
Ġor al
Ġdel la
Ġenha nced
Ġpassion ate
tex ts
Ġthir ty
Ġprom ised
Ġin ev
ont al
ĠEconom ics
ĠSte ven
ĠSta dium
em es
Ġbound ary
AS E
Ð¾Ð» ÑĮ
ĠAd v
Ġtransfer red
Ġsurround ed
tr ack
Ġta p
ĠWe bsite
Ġcopy right
ĠI ng
Ġt heore
Ġt ale
Ġres ort
ac ent
Ġinstruc tion
Ġge omet
Ġs tem
vi ation
For mat
ec ting
Ġto xic
Ġgl ob
Ġf ont
Ġposs ession
Ġflav or
le i
Ð¼ Ð°
ĠN EW
L ocation
ĠC reate
ne xt
Ġ ano
id ad
ĠS A
ĠTur k
Ġrec ruit
W as
. :
[ "
ĠR ound
ĠFe r
Ġassocia te
Ġpr ef
T ake
ĠB ased
ass ion
k appa
Ġcul tures
llig ent
i nte
gi nes
ug i
Ġdem o
Ġin ser
nti l
Ġimp lications
r etion
ĠE state
ĠCa tal
Ġthr eshold
Ġproduce rs
Ġauto matic
Ġmyt h
Ġ0 7
Ġgra nts
Ðº Ð¾
ond a
ĠInd eed
Ġ ut
Ġ ÑĢÐµ
Ġstruc tural
Ġoff ense
ĠG ab
ing ton
Ġpack ages
Ġgen es
Ġf oster
ri nk
Ġn am
ĠApp ro
ĠBow l
e ve
Ġsqu ad
Ġm es
z ie
Ġtri ps
Ñĩ Ðµ
i nit
ĠComp uter
form ed
ab ling
Ġt ub
ny l
Ġr iding
ot y
p c
gra de
ac cess
t hey
Ġthea ter
ig ning
ĠM oney
part y
ĠA na
ĠW ould
Ġy ard
Ġpublic ations
rib utor
ĠRec ord
Ġto ns
Ġed ited
Ġaud iences
Ġwork place
ĠCast le
ail ing
Ġcritic ism
rid ges
ita t
Ġm ask
Ġsp oken
Ġbe gun
D et
Ġint ri
ÑĤ ÑĮ
F a
Ċĉĉĉĉ ĉĉ
Ġinte gral
Ġmechan ical
ĠM ul
ĠD ance
Q U
ĠN C
ent ry
Ð½ Ð¾Ð³Ð¾
Ġfrequ ent
ĠC uba
uc t
lin ary
Ġfol k
. ),
He alth
ĠTem ple
Pub lished
j ud
ĠP od
Ġent r
Ġemail s
Ġpartic les
Ġfav our
Ġar tificial
ap h
m aster
Ġdesig nated
ĠH ills
Ġ0 2
ĠSta tis
Ġmi nistry
Ġhors es
ĠN ar
ment al
en ix
jec tive
Ġsignific ance
J une
ra ys
Ġe en
Ġvir tually
Ġbelie fs
ĠE P
gi ous
Ġconside rable
Ġmo ist
ill ance
ĠT el
b id
ĠÐ ¢
ĠJ ess
Pa ul
Fra me
Ġscr eens
Ġ5 7
Ġprotec ting
ĠB ris
P ublic
Ð¸ Ð»
ĠGre ece
ĠCor p
view s
ĠM O
Ġrom antic
ĠT ag
Ġox y
Ġex port
Ġgar age
Ġdele te
c opy
ime r
ĠÐ¿ ÐµÑĢ
Ġbo ards
ol ves
ĠC ell
ribu ted
ĠH it
Ġf ru
ĠDu ke
ĠKen nedy
ĠJac ob
Ġinv al
Ġp ione
ĠCon vention
Ġthera p
O c
ĠC ore
Ġ anch
tom y
Ġne l
Ġei n
ens ur
ĠPoli tical
mat rix
oo ter
ĠC T
emat h
od ed
ĠMar s
m d
Ġou ter
ew e
D O
Ġh es
Ġed ges
is i
Ġlab our
z ens
Ġsca tter
Ġdispl ays
Ġre porter
Ġsu ns
Ġdr um
Ġam id
Ġpregna ncy
Ġflex ibility
ĠK ids
os ta
ĠH ans
Ġcur ious
ish es
Ġsens or
Ġliter ary
rus alem
pe tition
Ġrad iation
P G
Ġagricul tural
âĢ¦ ]
Ġb inding
tor neys
Ġsca n
Ġhear ts
t wo
AB LE
Ġins tances
Ġfl ags
ĠL E
men te
for mat
mi nute
Ġpack ed
Ġno tion
Ġbi ological
Ġshort ly
Apr il
Ġchec ks
Up date
Ġfa ke
Ġd ivers
Ġdam aged
ĠAl abama
} ),
Ġmort gage
Ġt hrown
O nly
Ġj ury
Ã ²
Ġf ought
Ġalbum s
ĠFri ends
H z
ensur emath
ĠR oma
Ġcor ruption
Ġarrang ements
ĊĠĠĠĠĠĠĠĠĠĠĠĠĠĠĠĠĠĠĠĠĠĠĠĠ ĠĠĠĠĠĠĠ
ĠMiss ouri
Ġpi x
Ġune mp
Ġal ert
Ġcomp act
ĠMic ro
Ġta pe
Ġre med
m us
Ġimportant ly
ĠI L
ÑĨ Ñĸ
Ġwild life
Ġdi abetes
Ġcrea tivity
o be
Ġgold en
ite ra
Ġbar ely
Ġrac ial
ri k
am ous
pi ece
Ġen gines
Ġdis tr
ĠUp date
Ġinves ting
ĠPh ill
Ġd os
K e
Ã ´
ĠI C
ago n
ul us
Ġve teran
Cont act
ĠS om
Ġse rial
osc ow
Pro duc
Ġdiscri mination
Ġdo zen
ĠBu y
ĠH R
Ġ ul
Ġcred its
Ġrep eat
ĠKa t
Ġscra tch
Ġ1 10
ĠCont ent
=" #
Ġfunction ality
Ġflo a
ĠPat h
Ġu nt
/ \
Ġinc lusion
ĠWh it
Ġsh ell
ol itan
ĠPri ncip
Ġent ries
S D
Ja nuary
Ġsc oring
Ġexp ense
Ġb or
Ġj ail
Ġse eds
Ġ= ==
a is
Ġdeli be
Ġsee ks
ĠCl ar
Ġ+ =
or igi
m ode
B el
Ġpar liament
Ġcl ari
ĠB uff
Ġdel ight
Ġadop tion
Ġpi nk
A rt
200 3
uc king
Ġig nore
Ġ ĊĠĠĠ
tex tit
Ġtra iler
ĠMil itary
ĠS pe
ĠEmp loy
ĠAr k
Ġenti ties
Ġn obody
E s
Ġre jected
Ġj azz
Ġlimit ations
} )$
G ra
Ġmatch ing
o ved
ĠWal ker
Ġsti r
ĠEvery thing
Ġhol es
ea ker
ĠElec tric
ro ve
Ġw age
Ġ6 6
Ġ5 8
or ious
nti ty
W i
Ġhang ing
Ġ0 3
U G
T oken
un it
M R
se lect
Ġmoment um
200 1
cite p
nab la
S tyle
ĠPri or
Ġsc al
ha ble
ĠK han
p ir
g ation
Ġgraph ics
a est
ĠReg ion
Ġoff set
Ġper mitted
s hi
s or
ĠPhilip pi
Ġfa ult
Ġexplor ation
Ġ( +
Do es
ati le
ĠAv ailable
Ġsatisfac tion
ĠD y
Ġsy mm
Ġ ae
} -
and ra
Ñ Ķ
ĠF BI
Ġpos ting
ac ker
a to
S H
e orem
Ġh ired
Ġattr act
s w
ĠM ade
nis ed
tim ore
Ġgath e
Ġmode rate
\\\\\\\\ \\\\\\\\
Ġl isting
Ġresc ue
ĠL ie
Ġgathe r
ĠPh arm
ĠP ear
ud d
l ass
ta il
Ġb ooking
Ġcomplex ity
Ġr ib
Ġwis dom
ĠRead ing
List ener
el ing
m box
S tr
Ġ0 6
Ġaccom panied
ĠA ns
Ġf its
ri p
ĠC op
Ġto n
gl as
ĠLi ver
Univers ity
Ġin ch
ich t
Ġsu ff
tis ts
loy d
i am
Ġp ocket
Ġdri ves
Ġmet abol
o ven
niz ation
Ġsys te
Ġchair man
itzer land
Ðµ Ñģ
Ġgo nna
Ġrece ives
Ġb ott
ĠGl en
ĠR ey
Ġhyp oth
fath e
h eorem
Ġport ray
Ġfi ber
Ã ¸
fathe r
ĠH ad
Ġk ni
ĠD J
Ð°Ð» Ð¸
Ġpar tial
iss ance
Ġass ign
Ġposs ibilities
br ity
ĠB ird
Ġholid ays
f its
Ġbur ning
lot te
child ren
Ġpain ted
form ing
ĠBru ce
ĠTe rr
Ġpropor tion
ĠQ uality
arch y
Ġf ingers
Ġab ilities
ĠB ou
Add ress
ĠOb ject
o times
R uss
Ġsop histic
Ġi o
ĠFr eedom
ĠW olf
Ġbene ficial
ĠC ape
ĠBr and
f ill
Ġs atellite
Ġtrad em
Ġfacilit ate
Ġsustain ability
Ġdri nks
ps y
Ġprec isely
Ġsil ence
ed es
om as
ĠI ron
Ã§ Ã£o
ĠG P
mod ule
Ġdis ability
Ġbl ame
Ġdis orders
EN D
bi tions
Ġproceed ings
ĠM ys
it ual
s pring
T a
Ġc inema
Ġphr ase
ĠC ari
Ġg ym
ĠQue ens
l oc
N O
Ġview ing
ĠEx p
IT H
sc rib
ia ng
Ġgene ric
Ġpric ing
L ove
Ġuncer tainty
ag h
Ġd ys
ĠLead ership
Ġwur de
P ort
le ans
\ |
ĠPhilippi nes
ĠM ine
tab ility
t hen
e ven
ĠE mb
ph ic
oi nter
ĠCom ment
ĠAn na
ĠSer ver
s earch
Ġso ns
pro perty
E v
Ġme ters
Ġin ha
Ġenorm ous
Ġload ed
y r
Res earch
por tant
Ġphilos oph
Ġn ose
ĠC C
c urr
J uly
Ġl aser
Li fe
Ġlet ting
media te
Ġsup pose
ĠJona than
d el
ag u
ĠH om
Ġchurch es
ick ets
T w
Ġeas tern
Ġ aest
Ġl ying
Ġfloa t
ĠS olutions
ni n
v ies
ĠH ung
Ġcol umns
ĠS oc
Ġti tled
Ġop timal
Ġpregna nt
Ġm ouse
res ponse
Ġroll ing
hes is
ĠVal ue
Ġsto ps
Th rough
ĠR id
ha b
ĠSus a
V ol
Ġconnec ting
S igma
ĠDis cover
Ġtrig ger
ĠChris topher
Ġs na
v s
Ġlaws uit
Ġemer ged
Ġanc est
i ac
st rong
Ġpain tings
Ġmista kes
Ġcon temp
ĠA lan
Ġcou rage
anc ouver
Us ing
ĠC ould
rn ame
Ġf allen
Ġti es
Ġtour ism
Ġz o
gr een
Ġpsych ological
Ġb urn
his m
W est
Ġcoach ing
tor ies
ĠCus tom
Ġhea ven
ĠÃ ¤
Ġe y
ĠBu ild
sc reen
Ġtrem end
Ġf older
AR D
Ġed it
Ġinflu enced
}} {
tie r
r mal
ound ing
( -
ĠD al
Ġren ov
Ġ198 3
B ased
a it
ffe rent
Ġbuy ers
Ġr ival
Ġobser ve
Ġacqu ire
Ġhea ting
Ġev ident
Ġw ing
ta ted
Fil ter
Ġf ool
ĠRe lease
Ġdis char
Ġreflec ts
Ġdefend ant
Ġmains tream
Ġpopular ity
P i
Ġal arm
ĠS ale
ad os
as is
J ames
Ġfail s
Ġb ub
ĠInte lligence
ĠKent ucky
othe rapy
g ood
Ġadva ntages
Ġ ×
b oy
Ġ0 5
um ented
umps ter
ĠS ul
ĠAnd y
M W
Ġplai ntiff
U til
Ġeffec tiveness
00 1
ĠArt hur
ass ador
ed a
Ġsp h
Ġpl as
ÑĢ Ð¾Ð²
Ġsaf ely
Ġpar ks
Ġpro n
Ġor ange
Ġstri king
Ġid en
Ġimp lies
I ES
ĠCrea tive
ĠN E
ĠG ib
S L
Ġ197 9
e im
ĠF ollowing
Ġf illing
ĠSwed en
ĠD ick
Ġang ry
R ich
g iving
ĠH ai
Ġobserv ation
Ġb oolean
ĠCo le
Ġres erve
Ġdim ensions
Ġt ort
IN T
Ġ ought
P l
e rmal
ti z
Ġb ug
I B
Cha ng
ble m
sm all
Ġb ull
Ġcan nab
bu ilding
B oth
ĠArch ives
as ions
over e
i est
ro ns
Ġb lo
Ġcitiz en
Ġd up
ĠL em
Ġadmi nister
Ġ5 9
Ġprof its
ĠJo n
ĠE le
ĠF ant
ÑĪ Ð¸
nna h
Ġopera tes
Ġfina ncing
pec tives
Ġaccommod ation
ĠE C
: \
Ġc ler
bb ed
Ġbound aries
A ng
un ity
Ġele gant
Ġ198 2
Ġexperi encing
d ots
ĠRuss ell
v ens
Ġdiffer enti
ce eds
Ġpat ent
ĠMel bourne
Ġta ng
ĠL GBT
ĠStor ies
Ġcompu ting
ial s
Ġworksh ops
ĠD ays
op les
ĠN ative
e alth
h ermal
hat tan
tar get
Ġad mission
ay e
ari os
Ġrec r
Ġg ross
Ġsw ing
Ġf t
Ġviol ation
ĠG ulf
Ġh ill
s u
Ġh ub
w hen
Ġass emb
ĠAd ams
Ġequ ality
om ed
Ġdetec ted
e rm
ul ates
s rc
Ġisol ated
level and
li est
Ġw elfare
ĠOk lahoma
Ġpr eserve
Sec ond
U RE
O k
Ġsurv iv
Ġnurs ing
H R
ĠK ate
Ġparticip ated
ard ing
Ġphys ics
iss ippi
Ġgraph ic
!! !!
k g
ĠInno vation
Ġg orgeous
ĠMuslim s
v ision
M ag
ĠT itle
Ġquanti ty
Wh ich
ĠY OU
Ġfi nite
Ġtr ace
par ency
Ġspa n
Ġpee r
Ġdifferent ly
Ġc art
Ġjud ges
ĠJe rusalem
Ġb ol
Ġr outes
Ġsecret ary
Ġgra d
Ġencoura ging
c ia
Ġbo ot
amb ling
Ġpow der
M ENT
ĠE li
Ġi OS
lem ma
Def ault
Ġh u
Ġadequ ate
ĠE R
Ġprac tition
ma ted
ĠR eserve
Ġint ensity
Ġave ra
Ġsepar ated
à¤ ¾
Ġapprec iated
Ġread s
ĠArg enti
Ġtack le
Ġmar ine
Ġst upid
Ġrest ore
Ġcer tification
In te
ĠMex ican
Ġchampions hip
ou nced
Ġbl end
ĠSur vey
Ġpropos als
e ories
Ġdam ages
Ġv ig
H ead
Pres ident
h eories
Ġrecep tion
ĠCus tomer
ĠPa n
Ġes cap
Ġatt ribute
Ġcur riculum
ĠU tah
Ġr ug
Ġland ing
ĠJ u
Ġagricul ture
Ġper pet
Ġrequir ing
Ġc ute
lim ited
ĠL ED
as ted
N ull
F ollow
Ġscr eam
Ġc hip
Ġdis co
ĠF u
ĠM eeting
Ġexecu ted
ft en
ĠLa ne
Ġ6 2
tic ing
Ġdepos it
< ?
ĠAcc ount
ĠProduc ts
Ġphys ically
Ġproduc tivity
Ġw rap
Ġpurch asing
Ġh al
Ġgover nance
Ġdro ve
Ġin ven
AC E
ĠL en
ĠThom pson
ĠR O
Ġpol ar
Ġsph e
Ġengine ers
opera tive
ĠP erson
ĠN ash
ĠE V
/ .
Ġveget ables
im o
Ġreal istic
Ġrep lied
Ġto ile
ĠNe ver
Ġac res
Ã¤ r
Ðµ Ð·
Ġfund ra
ĠF C
Ġspect acular
ĠT ree
Ġre vers
s ur
Ġprom ises
ĠBrook lyn
Ġachieve ment
a thy
Ġlabor atory
Ġlo ose
op tions
ĠRes ults
b ol
Ġdiffic ulties
Ġsk illed
ĠC opyright
Ġop tical
ni um
ĠB ull
ept h
Ġt ours
ĠLeg is
1 10
Ġres ume
ĠChar lie
Ġbul k
h ealth
Ġ ĊĊ
Ġguarante ed
ĠA LL
m ind
Ġtemp le
o nia
ĠÐ¿ ÑĢÐµ
bl ack
ĠMar vel
Ġoxy gen
=" ../../
Ġwal ks
Ġ19 30
ey e
ĠS tu
ĠBl ock
Ġsc ar
Res ource
Ġc ited
Ġaff ects
ĠPr ep
ĠL ess
Ġenem ies
Ġvari ation
Ġdesig ners
Ġpoll ution
Ġ ðŁ
Ġdepart ments
Ġgra b
Ġco inc
R ow
200 2
ĠSe lect
ĠAnton io
ĠG ordon
ĠG ary
tu ne
Ġsto cks
Ġinf lation
ĠA BC
Ġ6 3
ame ters
Ġes ta
Ġexclusive ly
Ġd ental
P ass
Ġsimulta neously
c ra
Ġb its
ĠN ik
Ġelim inate
ĠS hip
Ġsole ly
t form
Ġbr ut
C us
ĠTer ms
it ate
ri ge
Ġextr act
ides pread
ĠClin ical
ÑĤ Ñĥ
Ġb eds
g ian
Ġwar ned
Ġhom eless
Ġnerv ous
Ġe ager
Ġengine e
Ġfollow ers
Ġt heories
ĠIS BN
ĠPrac tice
Ġreported ly
Ġed iting
ĠG iven
u tical
Ġenginee r
ĠTok yo
Ġcons olid
Ġex chang
ĠPalestin ian
ĠJo a
ĠLaw rence
Ġr uled
Ġabs tract
Ġimpress ed
Ġto wer
Ð½ Ð¾Ð¹
li ning
Ġprote ins
D ev
Ġoverwhel ming
Ġregard ed
Ġjun ior
ge bra
Ġuncer tain
ĠS port
au x
ick ed
o nc
ĠS ide
Ġrespons ibilities
Ġs li
pri me
Ġsi xth
Ġdis hes
Ġp unch
Ġdisp ute
Ġpleas ant
e reb
ĠH ugh
Ġto ken
Ġpredic ted
Ġidenti fying
Ġ198 1
or king
le e
ĠÐ± Ñĭ
Î ¿
Ġser vers
pr ises
A V
ĠInvest ment
Ġsha dow
ĠV ene
Ġjournal ists
p lic
non umber
Ġk iss
sh ot
ra g
Ġinf lam
ĠAm endment
gar et
ĠB reak
ea v
Ġh unting
Ġpres ti
it Ã©
Des cription
ĠS M
Th ree
Ġpo ta
Ġm igration
Ġremo ving
Ġn odes
is to
Ġdetec t
wri ting
ĠW oman
Ġdis tricts
Ġinter act
ĠC el
ĠProduc t
Ġpass enger
ĠM uch
Ġarrang ement
Ġdis k
h ereb
ĠTra il
tain able
Ġconvi nced
au to
Ġview ers
ĠOr leans
Ġg ains
ĠM oscow
ĠS now
ĠM C
is te
Ġabando ned
ie wer
ic ker
Ġsil ent
Ġau ton
az e
ĠDr ug
el lers
Ġ ult
r uc
Ġthreat ened
m id
c lick
Ġbur ied
tr ee
p ired
Ġdis abled
ĠEvery one
Ġp it
ar ma
Ġhapp iness
F ea
Op tions
m ay
Ġman us
Ðº Ð¾Ð²
Ġpath s
ĠR ace
ĠB us
ka n
Chi na
{ {
Ġnovel s
Ġcha p
emp late
H D
Ġt ension
ĠPol y
Ġexc ite
eme tery
as hing
ĠJ i
hed ral
Ġatt ributes
ij ing
Ġref lected
Ġd ying
1 20
Ð° Ñģ
Ġforg otten
Ġcr ack
ĠN othing
Ġmat h
, -
ĠC ow
cuss ion
Ġprec ise
Ġcomp ly
ac tic
ĠWri ting
id get
S N
Ġlab els
ad va
Ġsubs cription
f ood
Ã³ w
wor king
ie val
Ġsum mar
ara nces
ĠK it
. ).
Ġdr ew
Ġconver ted
Ġwork force
L Y
hereb y
s en
Ġhit ting
m t
Ġminor ity
ĠB ody
og s
ĠNAS A
it ations
ĠM L
Ġ anger
uth e
ne cess
ĠK u
Ġovers eas
Ġce iling
ĠCha mber
Ġcond em
p ower
Ġprotes ts
lus ions
ĠH ell
Ġremember ed
av as
ĠP ut
Ġres il
ĠA h
? )
Ġsim pli
ĠJ ose
ĠB O
ĠW orth
ng ers
Ġauthor ized
Ġh iring
ĠC our
u um
ĠF ollow
Ġaddress ing
la nt
Att ribute
Ġs orts
Ġqu otes
k h
ĠPol and
sh ould
ist ence
ĠAnd r
ĠT oy
Ġl ou
Ġad h
ĠRa j
n v
ĠE sta
le brity
Ġti ming
F ull
Ġimmig rants
Ġst ack
Ġsu ite
ĠK ind
Ġke en
w ear
Ġoblig ations
il ia
I X
Com ponent
ĠG un
ĠJ ustin
mi nated
Ġimple menting
S ur
Ġh em
ĠF ederation
Ġtr usted
ĠF ront
Ġste ady
ĠSw itzerland
Ġar c
Ġiden tical
Ġch ef
Ġqu o
m other
ĊĠĠĠĠ ĊĠĠĠ
ĠS enator
Ph il
Ġbi as
Ġbac teria
ĠR ab
b reaking
Ġt ent
doc ument
Ġann ually
Ve r
Ġ oven
ile y
ĠDen ver
comm and
ass ment
A E
j amin
ĠSch olar
Ġd eserve
A lex
ou nce
Ġtag ged
M ain
eau tiful
ĠLic ense
Ġcap ability
Ġprocess ed
ask et
ĠH oll
Ġm unicipal
stand ing
Ġaccompl ished
i to
AT H
F OR
ĠE nc
ĠO range
Ġodd s
Ġde leg
Ġben eath
Ġf ate
ĠÃ ¨
M or
ĠF un
z h
W ri
ĠVis it
ga nis
Ġro tation
bb ean
Ġ6 8
Ġret ain
h ill
ĠK ra
Ġscholars hip
E m
Ġsh irt
Ġrow s
Ð° Ð¼
ic ed
tw itter
Ġl obby
ea ts
Ġcap s
ĠF o
Ġdiag ram
Ġcomple ment
ĠS W
ĠGirl s
Ġ6 7
ĠT reat
Ġ10 1
Ġly rics
Ġstake holders
S ing
Ġend ors
tic ut
Ġsub tle
Ġal ien
eco nom
ĠB lood
Ġrestric ted
| -
tech n
Ġra nks
Ġcount s
Ġal ler
ĠG olf
nis ters
ĠAl ber
ĠWe r
ĠD ue
Ðµ ÑĢÐ°
ĠTe le
ĠAr m
Ġcompla ints
ĠR ule
Ar g
G C
e asing
ĠF ed
Oc tober
Ġ19 20
Ġseem ingly
Ġm ild
Ġep ic
ci n
ro ot
h eader
ĠJ ob
ach t
to nes
ĠSpr ings
Ġcon vey
Ġ Ñį
ĠY eah
it ative
m ons
Ġste pped
Ġcont rad
Ġadv ised
Ġnews letter
Ġt hereby
ĠUS D
f red
Ġsupp liers
d ale
Ġvo ter
Ġadop t
Ġtrad itions
Ġde emed
Ġco e
u ting
Ġcy ber
r act
ĠClass ic
Ġh oney
hi n
Ġbeing s
Equ al
Th ose
ra ms
D em
S M
V ersion
Ġj o
Ġsmart phone
ĠI a
Ġ197 5
ĠBa n
Ġcollabor ative
anc ing
Ġaccep tance
Ġhand ed
oc o
ĠGal axy
Ġag greg
Ġpic king
Ġexam ined
ĠE ve
Uni ted
ĠS pi
Ġinstitu tional
Ġaccep table
gr ounds
ĠLu ke
ĠĠĠĠĠĠĠĠ ĠĠ
ĠExperi ence
titu tional
Ġsn ap
Ġfil ing
ĠK al
mo tive
Ġwish es
Ġs its
oc ate
point s
Ġsec ured
Ðº Ñĥ
ĠArab ia
per t
i tol
Ġal ike
Ġtw elve
p any
Ġnegoti ations
Ġbi n
Ġhop efully
Ġoccasion ally
Ġarrang ed
ĠAl aska
Ġmer e
ĠH ence
Ġbranch es
Ġdivor ce
f old
Ġte ars
ke ys
ĠP O
ĊĠĠĠĠĠĠĠĠĠĠĠĠĠĠĠĠ Ġ
Ġ6 1
\ [
w ed
oth y
k ar
Ġdev oted
Ġ197 8
Ġpo em
Ð ļ
ĠM is
Ġloc ked
Ġpre val
Ġs our
Ġsubsequ ently
Ġignor ed
Ġcar rier
Ġsp ray
S ubs
Ġsitu ated
w all
Ð³ Ð¾
ĠK r
Ġtex ts
Ġw idespread
Ġm iti
ĠA ve
r ts
Ġr ally
ĠK h
Ġneigh bour
Ġattemp ting
ĠC and
Ġabor tion
ro ck
Ġmyster ious
uthe r
ĠC ost
Ġdetermi ning
Ù ħ
Ġrecip es
ĠN ear
ĠS QL
ĠIndust rial
AR Y
Ġjurisd iction
Ġ19 40
ei n
i nations
Ġbel oved
Ġprof ound
Ġdef ence
Ġ" ""
ĠPit ts
Ġmolec ular
Ġorganiz e
Ġinv ite
Ġany body
ni tial
Ġba tch
Ġs ie
iv a
Ġover view
ĠVol ume
ĠD ist
Ġsurv ived
Ġbro ader
Ġbu ffer
ĠComm and
e ason
Ġrefuge es
ĠLea ve
lic ate
ĠLa ter
Ġsup ers
ĠPal ace
ĠN elson
Ġcontrovers ial
Ġfail ing
ti k
Ġphys ician
Ġ197 6
Ġcons ecutive
Ġdom inant
N or
.. ."
Ġfi nishing
ĠUS B
ĠV ancouver
ĠF ROM
Ġr i
ĠPhil os
ro le
Ġattack ed
Ġin tr
ĠRat h
en o
mp h
Ġb other
Ġpredic t
oc y
z ech
Ġdem ocratic
pa ign
ID S
up date
ĠPa tri
IG HT
Ġphenomen o
ĠD ak
Ġbroad c
Ġphenomeno n
am m
rol og
Ġconf used
Ġfle et
ef ined
p u
ot ors
oci ations
Ġm ice
Ġw ars
ug g
Ġprom ising
ĠB eat
ĠCar ter
Ġdead line
Ġju ice
V ideo
as a
J oin
ĠW right
av ed
ĠB irth
ti fully
pro ject
Ġn it
Ġcab inet
id ation
F ollowing
Ġdel ivers
na tural
N av
Ġor t
ĠÐ ¶
Ġover l
Ï Ħ
Ġsmo king
T itle
ĠAn im
ĠS amsung
ĠB eck
Ġchar ging
Ġcoach es
b age
Ġle af
UL T
el se
ĠHol id
Dec ember
Ġe lite
ar ticle
ĠP il
Ġtr ou
Ser ver
Ġno table
ĠO d
Ġsk ip
ĠCom par
Ġsoc cer
ĠUr ban
i ro
anda tory
Ġcar ries
ee ping
ĠM E
L abel
ĠGra ham
Ġ196 8
out ube
ĠB ec
Ġsp ati
W elcome
Ġsha pes
ĠT ower
Ġachie ving
Ġref lection
ĠAt hle
tit udes
Ġmar ch
ĠRem ember
we ets
ĠP L
ta ment
. /
ĠCons truction
ĠDise ase
Ġfl ower
Ġda ncing
Ġtechn ological
f ers
st ud
Ġ197 2
Ġs lip
Ġmod es
W ork
Ġ7 6
Ġimag ination
ur u
iz z
ĠPort land
Ġrid ic
{ -
pe ti
Ġcour tesy
ĠTh ink
C ent
ĠBal timore
Ġgr ey
Ġcare ers
ĠM ons
ĠT ogether
Ġr ender
a uction
Ġhab it
Ġ Ñı
dis cip
Ġterror ist
Ġl am
Ġsupp lied
ĠâĨ Ĵ
sec ond
m ag
al d
Ġinsp ire
f amily
Î ½
ĠS N
rop olitan
s plit
Ġcorpor ations
ĠG ot
t hem
ĠSch olars
Ġmari juana
Pro ject
Ġste am
ĠS uccess
ĠJ oy
Ġd ated
Ġclass ification
t ha
ĠCor ps
ĠL ot
ĠSt ars
Ġconven ience
Ġob st
ĠHT ML
Ġ[ âĢ¦]
uc ker
Re view
ĠSing le
Ġsha me
ĠG O
Ġun ve
Ġneighb ors
ec urity
tific ations
Â «
ĠÐ Ľ
Ġcam ps
Ġdist ur
Ġclaim ing
ĠC leveland
Ġim aging
Ġmedic ation
Ġhead quarters
ĠDirec tors
Ġup set
Ġp airs
Ġw ise
Ġm os
?? ??
ĠMiss issippi
Ġt une
Ġdec lined
Ġ197 3
Ġle ase
Ġconstruc t
Ġsta tu
con ta
Ġexecu te
ĠW o
ĠComm issioner
ĠH E
à ¦
ĠF ly
Ġj et
ĠEp isode
ĠR ules
ara n
ĠPla nt
ĠStrate gy
ĠDoc ument
Ġinfec tions
ugi n
Ġsta i
F e
G S
Ġsynd rome
Ġre actions
Tr ump
st d
Ġcoll apse
Ġestab lishing
ÐµÐ½Ð¸ Ñı
Ġhas h
Ð ł
Ġaccess ories
Ġmut ual
ĠS emi
Ġpip eline
center ing
Ġdon ations
ĠMalays ia
Ġpro ph
Ġstai n
f ice
Ġref und
Ġcri tics
av i
ĠB ene
Ġsatis fy
P op
Ġmay or
ĠEx cell
id el
ĠC ass
Ġvari ed
ĠSing h
Gl obal
ow ners
Ġve terans
Ġadvoc ate
u f
Ġt hermal
Ġcompe ting
uc lear
are r
Ġt ube
ĠG ive
ex ample
S cript
Ġli ps
im m
Ġactiv ists
Ġlec ture
ĠA B
Mo n
ĠAdva nced
Sep tember
ĠP ain
Ġpro jec
urrica ne
a o
A uto
ĠA nc
Ġto ma
A K
Ġbi nary
## #
Ġsugges ting
T ech
R ad
Ġalleg ations
Ġ( (
Ġult ra
M att
Ġb onds
Ġpeace ful
Ġconscious ness
Ġinvent ory
B usiness
ĠInd ependent
cy cle
ĠS ay
Ġ7 7
Ġis lands
Ċ ĊĠĠĠĠĠĠĠĠĠĠĠĠĠĠĠ
ĠOpera tions
e ing
Ġfl ows
pir acy
ve t
a nk
Ġl one
ĠE lement
Ġocc asions
ĠH ub
Ġper ception
u ant
S am
Ġt ender
ĠD ur
Ġfound ing
ĠA my
N ovember
or o
F urther
Ġstatis tical
Ġrel ate
Ġfulf ill
Ġlap top
W rite
ĠC over
tom ach
ĠSo ny
R ob
T ar
ĠDep uty
ĠS EC
w estern
Ġf uneral
cel ona
Ñĩ Ð¸
ica ting
ĠG all
ĠCo oper
Ġsm ell
ĠN ap
Ġrepeated ly
T ask
Ġcomp elling
Ġdo zens
worth y
Ġcomple ting
Ġsh ed
b ird
ĠWith i
Ġass ignment
lec tor
ĠLiver pool
Ġin aug
ĠWithi n
Ġsur faces
Ġinspec tion
Ð Ĳ
pp ers
Ġ196 9
Ġcolle ges
Ġincorpor ated
end ant
ĠW es
" ?
Ġwarm ing
c ou
Ġover night
n ny
ĠD I
ĠI g
Ġemb rac
ĠL ag
Ġ197 7
Ġvis itor
} ]
Ġanticip ated
C ase
ge ry
ess ment
ĠChallen ge
T ex
Ġtour ist
ĠFrank lin
Ġprof iles
ĠR ou
uel a
J ack
Ġra tings
Ġcog nitive
Ġtheore tical
ĠAg ainst
ĠWar ren
ash es
Ġhe ader
Ġwhere i
owe en
Ġtri m
Ġsepar ation
\ %
gi um
ĠManu fac
bo ot
Ġentreprene ur
iz ations
Ġwherei n
Ġequ ations
Ġchai rs
Ġjew el
ac r
Ġto oth
Ġhop ed
des cription
no v
tr al
Down load
ron ze
Ġ auction
ĠV inc
Ġcompu tation
Ġphotograph e
Ġpers u
Ġdra i
Ġg au
ĠO l
ĠPho enix
Ġdrai n
ows ki
ass y
Ġgradu ally
ĠCari bbean
as te
Ġnavig ation
' ),
Ġconf ron
T om
ĠLouis iana
Ġv olunt
} +
Ġad m
Ġsophistic ated
Ġdiscuss ing
Ġcul tiv
ini tion
Ġback ed
Ġsha ped
ob j
Ġpack aging
ON E
Ġbel t
H C
ĠRob inson
M edia
ed ule
ĠIndones ia
Aug ust
Ġtesti mony
Ġoblig ation
Ġoccup ied
ĠChar lotte
Ġnutri tion
E mail
u v
ĠThe ory
Ġco a
Ġlegend ary
Ġlegisla tive
Ġprec ious
ĠRo ger
Ġb alanced
l ocation
Ġop t
ĠJ ennifer
Ġkne e
Ġal pha
Ġphotographe r
ĠFish e
Ġimp air
onet ary
Ġweak ness
Ġb orders
ĠP os
ĠDou glas
Ġep id
Ġf oss
Ġvel ocity
eth yl
N E
val ues
ĠS ign
Ar ch
Ġten nis
forma tive
Ġnetw orking
Ġtex ture
Ġ197 4
ri ors
gr e
ma ke
ĠSusa n
Ġsh r
Ġs ich
ĠCo al
E nter
ĠÐ¿ÑĢ Ð¾
Ġsleep ing
Ġ( '
Ġcap tain
Ġfin est
L ar
Ġpo ker
wide tilde
Ġdiscip line
Col umn
e lement
Ġglob ally
Ġ az
ĠI ce
Ġres ona
Ġcha mber
Ġ1 30
hr e
ĠH P
Ġpri est
ĠN ep
ĠLe ader
\ !
Ġsusp ended
Ġsim ulation
Re ferences
Ġpro pri
Ġli ver
ĠBet ter
jo ys
we alth
Ġcor n
nta iner
A U
id enti
Ġcomp lim
els ea
us al
ĠLi nux
Ġcol ours
ĠTurk ish
Ġbar riers
C r
Se lect
rol ogy
Ġro cks
Ġimp osed
L D
id i
as ive
Ġcli p
od ox
Ġ3 60
ff s
Ġhand led
Ġanaly ze
dis play
Ġexcite ment
Ġf ed
ĠB eth
Ġde ar
n ut
Ġen abling
Bl ock
Ġ utter
tri ne
ĠT otal
ĠFe rr
Ġlegiti mate
ĠC itiz
g ical
Ġ7 8
Ġhon our
Ġrefer ring
en ne
Ġc ous
ĠMo nta
Ġtax pay
Ġd eserv
Ġgener ous
Ġthorough ly
Ġaccommod ate
ĠS ho
ĠBarb ara
Ġcru ise
Ġinves ted
Ġcoa t
ace utical
ĠC old
Ġrenew able
s tory
Ø ±
Ġpro spect
m os
In ternational
ha mp
L aw
ĠComm ons
ĠCom merce
Ġcannab is
Ġhighl ighted
iv eness
pe utic
S ection
ari n
Ġclass ified
ea ks
f ont
Ġl ing
ĠTha iland
Sh ow
ur ement
ĠF IG
Ġstra i
ĠBet ween
L eg
Ġstro ke
Ġeth ical
Ġstrai n
h erm
Ġsk etch
vert heless
His tory
Ġexpec ting
ĠSte el
to ps
Ġveri fy
ĠNe v
App lication
Ġrom ance
7 00
I AL
B ER
ste p
Ġ6 9
ĠB R
h eld
ĠG ray
Bu ffer
IG N
Ġexcell ence
tab ular
ĠHigh way
Ġhand ful
ĠM os
ĠTal k
Ġdel ighted
Ġc ura
Ġacknow ledge
ĠIs a
ĠHo nor
ĠM and
Ġfoo tage
ibl io
b urn
ĠB achelor
ba nk
Ġcor ners
Ġconstitu tional
; </
Ġinter nation
i nity
ĠP ope
ĠG ate
Ġvess el
fil ter
umi num
V P
ĠBa ker
ĠThea ter
ĠMag ic
bot tom
Ġnam ely
Ġdev asta
Ġaccom pany
nea n
H aving
ĠI R
ĠSte wart
ĠWal ter
ac kers
ĠM un
No n
Ġh ier
ĠCirc uit
ĠAc tiv
pe red
ĠConnec ticut
Ġcontr ary
ham mad
Ġemb race
Ġprogram mes
V C
Y eah
ĠE mail
ĠBe ijing
el li
Ġdon ation
ag nos
kes pe
Th read
Ġvari ations
Ġpro sec
ĠSol ar
Ġacc us
Ġreach es
Ġc ub
ga tes
ĠE D
ic op
ĠG ov
N one
Ġinsp iring
Ġcomp assion
ĠD im
ĠIa n
Ġse am
ore r
ĠF ab
Ġup s
ĠHistor ical
Ġrece ip
c z
k ind
Ġg am
Ġking dom
Ġinte lligent
ming ham
ĠH um
ter dam
Ġens ures
Ġroll ed
min ate
ha bil
ĠOsc ar
ĠAssocia te
Wh ether
Ġreduc es
Ġenter taining
> &
Ġ197 1
um ing
Ġsurve illance
Ġdecr eased
le ading
Ġeconom ics
ĠA ra
Ġf ut
ĠCas ino
Ġchemical s
ĠEv ans
Ġcharacter istic
aga n
EL ECT
ĊĊ ĉĉ
p tr
Ġh arsh
Ġassum ption
Ġam end
se ason
P H
Ġconstra ints
ĠL aura
cl ose
ĠGr ace
too n
ĠV ent
r nel
Ù Ĩ
Ð½Ñĭ Ð¹
out put
Ġalgorith ms
Ġproduc tive
r ender
ĠM aine
ĠT ed
n ÃŃ
Ġcontribu ting
ĠH unter
Ġtransform ed
Ġr ated
ĠR ow
ĠE q
s chool
ful l
emo te
Ġs isters
Ġmag ical
Ġconf usion
ecu te
Ġcorpor ation
le ry
Ġal e
un ted
ĠV A
Ġgene rating
Ġtremend ous
W A
Ġp owered
p tions
ĠR y
ando n
Ġ196 7
S R
Ġcorrel ation
Ġcompeti tors
( [
ĠO uts
Ġli p
ĠF al
Ġalleged ly
Ġli tigation
Ġac ute
Ġsa il
omi n
Ġe ars
us ta
ĠAr ray
Ġperce ived
Ġcon vention
emo n
Ġevalu ated
ĠF O
Ġlands cap
ang o
Ġnon profit
ĠD ouble
Ġcollec ting
Ġprocess or
Ġspecial ized
nis ts
ĠH ud
ĠM eanwhile
A v
ĠS ave
ĠRet urn
p ush
d ig
ĠF alls
Ġexp ed
ĠGl ass
va nce
F ound
Ġcompati ble
1 000
Ġinstant ly
ĠAl bert
ĠH us
Ġaff ecting
Ġt hy
$ {
Ġend eav
. ]
âĢ ³
Ġenc ry
Ġthr ew
Ġs tomach
ĠHous ing
Gr een
Ġtim ely
Ġen joys
Ġqual ify
is chen
ĠInte gra
Ġg est
ĠF ast
ĠOlymp ics
ĠB ond
ĠYa n
ant ry
M eanwhile
ĠC ut
et ta
ĠFac ulty
Ð½Ñĭ Ñħ
ged y
ump tions
) =\
Ġnew est
Ġfriends hip
19 99
Ġqu ad
ĠN ord
ĠF DA
Ġorient ation
Ġto ng
al ia
W H
Ġdemand ing
ĠC NN
Ġinternation ally
Ġinvestig ated
v ated
Ġanim ation
ur red
di n
ĠAl terna
ĠRes ource
Ġpublish e
L ooking
Ġcou ples
Ġy eah
to gether
m ulti
Ġtour ists
ĠPub lishing
col umn
Ġpublishe r
ĠImp act
ĠPar ker
ĠAnal y
Ġdiagnos ed
bo ards
Ñģ Ð¿
Ġwor n
Ġ9 7
il ation
Ġcong ress
dri ven
ĠSam uel
ĠV ersion
Ġhum or
Ġstri p
ĠHawai i
eas ury
ach ment
Ġret rie
Ġtrans mit
++ )
or rect
Ġ7 4
Ġconsul ting
h eim
ER R
Ġ& =
i Ã³n
ta tive
ĠL isa
Ġvol umes
y nc
Ġadj acent
Ġpl acing
Ġpo et
t torneys
enti ne
ĠJ azz
Ġcont acts
Ġl asting
Ġres olved
ĠMur ray
ĠAl ice
ĠB ap
Ġf estiv
k t
Ġlibr aries
Ġsusp ension
com ed
Ġg ardens
Ġdepart ure
ĠS oul
#### ####
Ġb abies
a ttorneys
Ġconc lude
US A
Ġunder ground
Ġcop per
\ {
rem y
x ide
G od
Ġmic ros
\ ]
Ġcalc ulate
ĠMarsh all
Ġar twork
Ġwhe els
ĠPlay e
ĠP ed
Ġpromo ted
p ine
Ġshel ter
de g
ĠPlaye r
de velop
Ġshor ter
Ġconsequ ence
f are
Ġinequ ality
Ġp ays
avas cript
ro gen
elim inary
ĠF REE
ĠPe ri
Ġinhe rent
st ore
s ig
Ġfast est
Sa n
Ġtun nel
ĠBr exit
Ġkey board
ĠKen ya
ĠEgy p
iti ous
uer to
Ġsec urities
ĠG R
ĠCri minal
nc a
Ġ7 3
Ġrece iver
Pro cess
ĠEnter prise
Ġvi ntage
ĠSc reen
Ġforec ast
ng a
Ġren owned
Ġsa ke
Ġfrac tion
b eat
ĠCamp bell
m ation
tif act
ĠMar ie
ĠWay ne
W hite
Ġm apping
ĠUnivers al
K a
en tive
si n
Ġapproach ed
ĠH appy
ĠCul tural
ĠSe veral
ĠT ask
ĠCol lins
habil itation
ĠDub lin
ĠTechn ical
Ġdro ps
Ġ attorneys
ĠCom panies
H ey
Ġr ip
12 3
tell ing
is or
ĠF ran
ĠR isk
ĠL itera
ĠMor ris
D eb
ĠMa king
Cha nge
is ch
L ength
B et
Ġ9 8
ĠD eep
Ñĩ Ð°
Out put
Ġtra ins
nit ude
W E
Ġtrans parent
ug ar
h ero
ra nean
AR S
Ġau x
Ġrest oration
Ġgu ided
ĠCe leb
ĠT owns
Ġcross ing
Ġvib rant
Ġcot ton
AR E
Ġgra y
a ire
I Z
Ġind oor
v ations
ĠD eg
Ġ8 8
ĠSum mit
ĠA ch
Ġfear s
Ġrac ism
Ġk o
ĠiP ad
Ġsto len
ĠC u
k it
Ġclos est
ĠA y
} =\
Ġgro ce
ĠB ishop
tor age
Ġra nking
ĠW ard
add y
ar gs
Ġclic king
Ġexcess ive
rupt cy
Ġow ns
Ð Ŀ
ĠL ux
; \
S QL
Ñĥ Ð´
ĠS el
ed it
w rap
ĠF ul
enni al
Ġc igar
Ð¾ÑĢ Ð¸
P al
Ġparti ally
ĠI M
Ġinvestig ations
Ġhab its
Ġca ts
ara t
Ġc hips
Ġcross ed
ĠLa nka
Ġmet ric
Ġdef eated
Ġdelibe rate
Ġfa tal
ĠK am
k ov
oll ar
Ġax is
Ġremind ed
Th ough
Ġun necess
d epth
um my
Ġw are
Ġr ounds
Ġelder ly
Å Ħ
enc ia
Ġc rop
Ġtrea ting
L ook
ĠThe orem
ĠRo n
ry ing
Lear n
Ur l
C ou
Ġadap t
ĠJim my
Ġflo ors
ĠRes taura
ĠG ill
Ġdese rt
Ġam en
ty pes
ed i
ĠSh el
Ġb om
F unction
ï¿½ ï¿½
H y
Con nec
ĠT oo
opera tor
C ity
ĠD ol
im ages
ro d
M ulti
CA A
ĠBroad way
im ents
Ġsymbol s
Ġprec ision
Ġpi pe
Ġen rich
Ġreven ues
Ġr ab
Ġthrow ing
ĠCri me
ou ting
Ġli k
ĠÐ £
Ġnation wide
Ġh uma
Ġave c
ĠJun ior
for ced
ĠA le
ĠBo ys
Ġindica ting
mi ns
ĠMad rid
ĠMan hattan
Ġfra mes
Ġt hesis
Ġceleb rating
ĠF ine
Ġsens itivity
ĠW onder
Ġ: :
Ġembed ded
ti te
tu ra
Ġconsul tant
Ð½ Ñĥ
Ġform ing
Ġreg ards
Ġstrugg les
mar ks
Ġw rest
if ier
Ù Ī
Ġdescrib ing
ĠR ain
lec tric
Ġchea per
Ġshe ets
Ġend less
Ġmake rs
Ġrecommend ation
al so
c ases
Ġpep per
ĠWeek ly
Ġ7 1
Ġam endment
Ġspons ored
Ġdiscl osure
names pace
Ġ9 6
D el
Ġdress ed
ap or
ĠN HS
â ĪĴ
AT O
ĠAl bum
h umb
S k
Lab els
Ġmem orable
Ġdesig ning
Ġop tional
Ġdis abilities
Ġb is
one l
Ġu til
Ġstring s
Ġr itual
Ġmod ules
rib utors
P ack
Ġback up
Ġd ump
Ġcool ing
ĠMar garet
Ġsto pping
: "
l ler
ĠD R
Ġexp end
up loads
Ġexerc ises
Ġinter val
Ġworld s
ĠFra me
Ġd ot
Ġdark ness
nc ell
ĠF ried
Ġcou pled
ĠMitch ell
Ġanalys es
ial og
p lan
m g
B as
Ġind irect
en za
ĠM ail
Ġpull ing
lish e
Ġmotiv ated
b ridge
ĠN eb
Ġ18 0
f ive
uli n
Ġ[ ]
l ades
Ġmed ian
Ro bert
z eta
Ġecos ystem
Ġar ise
ynam ic
Ġcoast al
Ġillust rated
Ġh ug
Ġclin ic
Ġcharacter ized
ĠLa unch
Ġmotiv ation
Ġdesk top
ĠJo han
C ri
ĠSe ven
iv ic
ate gor
Ġvess els
Ġdi ver
Ġ19 45
ĠCap itol
lishe r
Comm and
Ġp es
ĠStud ios
ĠPa nel
Ġsi nk
Ġrecip ient
ĠA aron
Ġgra i
et tes
id ency
F ace
ol ine
Ġdisapp ointed
P s
Ġin tim
ĠPitts burgh
c ope
ĠN BC
Ã© es
Ġfit ting
ĠRath e
Ġpart ly
Ġsta bil
ĠCorpor ate
Ġconduc ting
ri um
ion es
Ġam pli
Ġbe ef
l ights
ĠS ean
Ġmus cles
ĠL ad
Ġtarge ting
Ġ( -
Ġattend ance
t hird
acr e
Ġgrow s
ĠOri ginal
P la
ĠK ris
u ity
Ġmag nific
ul ative
ĠTechn ologies
ĠChristian ity
temp late
ĠRathe r
Ġd io
Ġnavig ate
lic al
ee ted
per or
Ġpres enting
ew ing
Ġeffic iently
ĠPe ters
Ġne u
Ġev olved
ĠP red
Ġvacci nes
ĠPres ent
z one
Ð½Ñĭ Ðµ
Le vel
ĠStr eam
Ġav o
E ntity
ph ys
Ġk iller
ĠMat h
Ġm ounted
Ġv ine
Ġemb arr
Ġpartners hips
ĠMe as
ugh ters
Ġbrief ly
Ġsci ences
Ġcusto dy
Ġprior ities
ĠN am
ĠM illion
play e
int endo
phe ric
ĠL oc
tern ity
Ñĺ Ðµ
M ac
w ritten
ĠL eft
Ġmod ify
Ġex isted
Ġadap tation
ĠÐ² Ð¸
ĠTa n
Ġpros per
Ġspati al
Ġhousehold s
Ġbeau tifully
Ġsl ide
ĠLegis la
is y
J ul
C y
Ġsus tained
ĠÐ² Ñĭ
Ġclim b
Ġsanc tions
ag ine
e imer
Ġutili ze
r of
ĠH end
Ac tivity
S ocial
Ġalterna tives
playe r
Ġwra pped
ĠMet ro
Ġin tu
ag ger
ĠEmer gency
ĠMor ning
Ġpl acement
ol ence
Ġsup ple
ĠCra ig
N ET
Sh are
Ġsub mission
ĠLet ter
Ġtrans parency
tis a
Ġwel comed
ĠMa h
Ġoffering s
Ġm old
gu ard
ci enti
Ġvol tage
Ġsub scrib
Ġ8 4
Ġad verse
or us
ĠMo vies
ĠÐ³Ð¾Ð´ Ð°
ĠS peed
Ġvend ors
Ġinflu ential
ra ham
ĠC row
Ġqual ities
Ġsh ield
ĠB eng
IT E
AT A
ĠVis ual
Ġtw i
ĠProduc tion
Ġinc idents
o ks
Ġste ep
ĠInd ians
Ġappe arances
ĠR and
Ġterror ism
Ġy oga
m or
ĠCom mercial
ul u
row ing
Ġadd iction
Ġpres um
Ġadap ted
Ġass ured
Ġkni fe
Ġinvest or
Ġun fortunately
Ġch rom
Ġcomp ound
Ġwort hy
Ġgu ides
par se
Ġdom inated
ĠT urn
ti no
Ġvill ages
omm y
Ġmob ility
hy d
en na
Ġnom inated
ĠSw iss
Ġcons isting
ag ne
K S
Ġda ughters
ON T
and ed
Ġpla tes
Ġn ick
a thon
Ġt orn
Ġinc lusive
ĠBrot hers
Ġfru its
Ġsp are
Ġop ponents
// /
Ġchem istry
Ma t
Ġmem bra
Ġpsych ology
w y
kespe are
us ters
ĠAud io
de b
Ġp ointing
Ġmort ality
Ġpres cription
tern ate
Con nection
ig ner
ĠR og
Ġpurch ases
ĠDub ai
ĠIran ian
Ð½ Ðµ
È Ļ
Ġel abor
Ġob sc
Ġconflic ts
Ġsec rets
Ġexp o
ĠF ellows
Ġsus pected
ock ets
az ines
por tive
land o
) /
Ġqu oted
ĠC E
ea p
AS H
P ay
ĠR io
Ġt ribute
ĠBar celona
Ġunemp loyment
Ġpartic le
ac tiv
ĠB L
Ġdraw s
s peed
Prov ider
Feb ruary
oli tical
T otal
al g
ĠIde as
L ib
Ġrecover ed
Ġcount less
n qu
Ġg all
Ġh ills
ĠW ang
A ir
cl op
Ġtrans lated
Ġtum or
ĠM all
ĠTrans portation
Ġmix ing
Ġprivile ge
cha nt
ĠSy rian
Ġm s
sh ore
Ġinflu ences
Ġg ut
ĠTra d
Ġk i
ĠS top
Ġpreven ting
gl ig
B B
Ġm ount
Ġtrans it
ĠQ a
Ġtable t
tic ul
Ġsp ell
ĠI ssue
EX T
Ġexecu tives
Ġc ord
b la
Ġta gs
Ġreserv es
ine e
d ict
tch ing
r ev
ĠN J
Ġscen arios
Ġnews papers
Ġess ence
ĠBl ues
prec ed
ns ion
Ġanaly zed
Ġpris oners
ĠR u
tisa n
umb led
Ġcha ins
ĠT ob
ĠTai wan
ĠF R
Ġpar am
Ġal lies
Ġs overe
p hoto
Ġauto mated
ĠAb u
Ġdead ly
do ors
ĊĠĠĠĠĠĠĠĠ ĠĠ
Ġretai lers
ĠBen jamin
ta ges
Ġcry stal
Ġbut tons
) }\
ĠS ie
Ġ oh
Ġref resh
em or
Î ¹
Ġtut orial
Ġre pos
Ġmeas uring
discip linary
) "
Ġ8 2
pp y
E nc
Ġba king
Ġtr ucks
DA Y
Ġbar rier
Ġ' '
we i
Ġn u
ĠB illy
Ġto ss
ĠPub lished
ĠRes ponse
ĠLeb a
bl ue
Ġm others
ĠR achel
Ġp ig
Rel ated
Con tin
Ġstri kes
Ġsta dium
à ®
Ġb alls
to col
//////// ////////
Ġbeach es
Ġcrea tures
ĠĠĠĠĠĠĠĠ ĠĠĠĠ
IM E
Ġ og
ĠBri g
Ġstart up
Ġadj usted
ĠMad ison
10 1
ĠNor way
ĠS lo
ĠW ikipedia
r ors
Ġattr acted
T T
ĠG L
s ty
Ġrhy thm
ĠTh i
ĠT X
prof ile
Ġto ll
A ustral
ÑĢ Ð¾
le ton
rem ove
Ġhonor ed
Ġcar ing
Ġinnoc ent
Ġchallen ged
Ġanaly tics
Ġw ages
Ġun cons
Ġper m
ĠK night
Ġexpla ining
ri ved
f und
ic ts
Ġpain ful
ĠBey ond
im mer
Ġmusic ian
) ^{
ĠGri ff
J e
Ġob j
ĠNev ada
d ependent
Ġen roll
Ġload ing
id ate
Ð° Ð´
Ġin timate
Ġdis tant
p tic
M al
z u
ous tic
Ġre vel
T ur
Ġaud it
Ġt herm
Ġexplor es
f ocus
sc ope
Ġinf ected
ĠAb d
ĠCo ach
Ġdi ameter
Ġcons titution
Ġn ic
lip se
Ġchar ts
Ġsch emes
ÐµÐ½ ÑĤ
Ġscienti st
Ġtr us
Ġte lec
Ġcle ver
Ġapplic ants
produc t
Ġtouch ed
Ġbo nes
Ġrepl acing
Ġindepend ently
par ts
am ine
preced ented
Ġf ond
Ġt ens
is en
ĠAr ms
ĠAn imal
Ġunder graduate
Ġb ay
Ġpresti gious
Ġex terior
ow ner
Ġaccess ed
w oman
Ġind uc
ali nk
Ġdistinc tion
Ġ196 5
ĠG A
Ġhero es
Ġtwi n
ĠCommunic ation
ĠS pa
ĠFor ces
ful ness
Ġe mission
$ )
Ġ196 4
Ġexplicit ly
Ġcrush e
Equ als
Ġpe ers
Ġincorpor ate
e rd
ho le
Ġland ed
ĠFa ith
ĠEn joy
Ġ ),
Ġwhere ver
ĠM eg
Ġreg ret
ĠAl ong
Ġbo ats
Ġwind s
s ized
Ġlog ical
Ġbelong s
A nal
Ġill um
Ġw r
Ġcons ensus
pro v
F r
ĠTh or
Ġbit ter
ĠP H
king s
ĠDak ota
Ġconv icted
ĠR ang
ĠSt ri
Ġtravell ing
Ġbreat hing
um ble
ne red
ak h
ĠM asters
Ġtr ash
Ġval ued
Ġdelay ed
ĠE aster
ĠF ame
pe ople
b ably
Ġspec ify
Ġfeed ing
Ġass umptions
Ġb ind
Ġcomm od
D en
Ġgrai n
ĠAt h
b ad
Ġcrushe r
ĠCos ta
Ġr ings
ĠCh ronic
Ġ Ñħ
ĠW E
ĠNot es
Ġjournal ism
Ġven ues
} /
Ġpros pects
Ġno tification
Ġl ig
Ġad vers
ro c
n ian
rab ility
Ġsacri fice
ĠB loom
Ġ aug
ps hire
ĠS ad
Ġgau ge
ic ing
tter n
Ġear ning
ĠMur phy
Ġz ip
Ġblock ed
ĠC zech
ĠC ash
bor ough
ĠRober ts
ĠEd i
z uela
Ġconf idential
ĠNY C
Ġr amp
Ġbe am
for table
Ġviol ations
ix o
Ġfro zen
Ġqu ar
Pe ter
Ġ7 9
ĠPsych ology
Ġsol ving
ĠG M
Ġcou nties
et z
Ġcompar able
Ġinvestiga ting
Re al
Ġ ot
ĠEx hi
g el
ke ley
s top
ĠC ourse
B T
Ġno ns
ĠPri ncess
Ġre porters
Ġsup plier
Ġinv asion
Ġla und
ĠP el
Ġp ension
Ġsepar ately
Ġbe ating
Ġgl ory
ĠW ins
Cha pter
ĠR ol
Ġassess ed
Ġfif ty
Ġqu it
ION S
rat h
ĠG raph
ĠA w
tch e
May be
ring e
ĠGu id
Ã ¦
Ġh ockey
cd ots
om ous
ĠCo ord
ob b
Ġappe aring
Ġtw ist
Ġdisc retion
ĠMet al
ĠW ine
bor ne
Ġre un
la ngu
ĠLar ry
Ġma j
mark et
Ġpro xim
as hi
Ġre mi
if ies
ĠAgricul ture
ĠR eserved
Ġrub ber
Ca t
ĠP ick
Ġpers pectives
epend ence
ĠWood s
Ed itor
cep tions
iti me
Ġachieve ments
ĠHall oween
j ar
ĠU C
Ġfor ests
Ġhydro gen
d owns
Ġtrop ical
Ġbad ly
ĠD ip
IN D
M iss
M AN
ĠI F
Ġpurs uant
Ġreason ably
iter ranean
ĠIniti ative
Ġ3 50
ĠX box
Ġqu est
Ġop ponent
ĠC ot
Ġteach es
ĠBrot h
Ġbr ick
Ġinha bit
Ġg ig
ĠL ooking
Ġp ose
Ġt ends
Ġres pected
Ġs z
edia tric
Ġ7 00
{ (
qu et
For mer
Ġcra fts
Ġrest ored
Ġlong est
ag ra
Ġsequ ences
Ġlog i
Spec ial
Ja n
d os
ĠJ oint
Ġref use
Ġexce ed
Ġd umpster
Ġmass es
S W
ess ors
ĠBar ry
Ġdeploy ed
Ġchap ters
n ni
Ġacknowled ged
ra h
Ġmed al
Ed it
Ġess ays
Or der
ĠJe rry
tec ted
ĠP oll
Ġ( *
ĠM ason
Ġd ub
Ġ9 3
nta x
Ġeth ics
Ġ Ã©s
Ġbes ide
Ġgri nd
Ġ9 2
Ġhol der
ĠRe le
Ġne glig
Ġfarm ing
Ġmiss ions
f iles
Ġin sert
Ġlad ies
Ġapprec iation
Ġmem orial
Ġen cl
Ġm andatory
Ù Ĭ
Ġsum mit
Ġvary ing
Ġdatas et
ĠC rown
ĠStan ley
Ġm ud
Ġclos ure
ĠPro grams
L ondon
}^ \
is ons
conta iner
to oth
C ross
og o
Ġvar iant
ĠA rs
Ġl en
Ġc i
ĠGrow t
f ly
ĠRob i
Ġleg ally
ĠCol o
] :
Ġinc orrect
Ġfig ured
ĠM es
Ġcont rolling
ĠOth ers
Ġeditor ial
Ġaccep ting
Ġag ing
Ġj oke
Sup e
ĠL ands
t hrow
Ġstraight forward
a ur
ted ly
Ġor d
Ġrang es
od o
Ġhigh way
ĠGrowt h
Ġenjoy able
Ġbe aring
Ġ8 9
12 5
ig o
B P
Ġcontrac tor
AT ED
es tation
m em
Ġcoal ition
com mon
Ð» Ðµ
Ġin quiry
ĠE lection
Ġre ass
ling ton
connec ted
Ġun cover
ti li
ĠVo ice
tri x
C ong
ĠBes ides
ne e
Ġs ni
ĠN A
res a
Ġcomp ress
t xt
Ġhol y
Ġtri ple
Ġgra ve
Ġw ore
Ġp ad
nor m
ĠPar ticip
Ġ8 3
ĠEdi n
D D
ĠEm ily
Ġfit ted
ĠÐ ĺ
ĠEd ge
Ġlaunch ing
: (
Ġadva nces
Ġread ily
ĠLitera ture
ens ed
ĠD ow
Y ear
ĠZ o
ma tory
ĠPer ry
ge red
W al
Ġprotec tive
Ġ8 1
id al
Ġspecial ists
Ġ9 4
ĠP un
Ġmo no
Ġch op
n ac
Ġb are
Ġsing les
ĠK ir
Ġintroduc ing
Ġte ar
Ġw ard
Ġpe oples
Ġval ley
Ġ8 6
Ġwonde red
Ġactiv ist
Ġch eer
ixo n
red ited
ta ken
Ġbu yer
ĠOffic ial
c ence
Ġpro jected
Ġmanufac tured
Ġvis a
ĠG T
sta ge
Ġrem arks
ÑģÐº Ð¾Ð³Ð¾
eli hood
me ter
Ġpredic tion
Ġdim i
ĠF iction
Ġno ting
men to
Ġind ivid
Ġse al
os i
rid es
Ġbuild s
ĠV ers
Ġshow case
ĠT ow
( &
C ho
* /
eed s
Ġmag nitude
Ġoccup ation
os itory
en al
ah l
ĠRobi n
Ġshould ers
Ġres et
ĠBel gium
ĠTr uth
ĠV ision
ĠK ap
ĠU I
Ġlogi n
ĠWord Press
$ (
ins tance
Ġamb itious
ĠR ac
Ġc ave
ç ļ
Ġpic ks
199 8
Ġcontinu ously
Ġg ambling
ĠI o
Ġcomp ounds
Ġear liest
ĠC BS
origi nal
Ġvoc als
Ġpos ter
ĠMove ment
Ġn od
Ġdisappe ar
Ġactiv ation
Ġair line
Ð° Ð¹
Ġ8 7
ĠB ear
ĠCurrent ly
Ġtravel ed
ĠDra gon
bu f
ĠSp eaker
iv o
N G
f oo
ĠN urs
ĠUp dated
`` `
Ġcor rec
Ġs ob
Ġass ociations
ĠC hat
Ġpra ise
ĠÐ¿ Ð¾Ð»
av or
] ]
ĠÐ´ Ð¾
Ġra ises
olog ically
ia t
Ġ196 6
ĠMa j
hi nk
men u
ai ting
ard i
Wind ow
ÑģÑĤ ÑĮ
Î µ
ĠK itchen
ĠÃ ¼
ĠR ing
u table
Ġanim ated
ĠLa nc
ĠE ST
H ello
Ġcolo nial
inter nal
H as
Ġass ass
Ġdis tress
Ð¸ Ð¼
Ġden y
Ġadh e
f loat
d l
Ġban ned
? !
ĠCol omb
Ġinter section
RE F
Ġcook ie
Ġassum ing
Ġsens ors
ĠE rror
ĠIns ide
Ġspe eds
ĠT u
ÑģÐº Ð¾Ð¹
Ġto ys
ĠL ost
ond uc
ence r
ĠAdvis ory
e of
A nn
ch and
âĢĶ âĢĶ
ari able
Ġrev ised
Ġoptim ization
Ġf ur
Ġsto nes
Ġind uced
ĠGl as
ĠJ obs
um ar
Ġstrict ly
Ġtoile t
ĠBat h
Ġsubstanti ally
m eta
Ġstrugg led
Ġh unt
B io
ins tein
Ġphys icians
st ra
cha ir
tic o
Bl ue
ri el
Ġtra ils
ĠD ig
Ã© d
Ġdir t
Ġref rige
id ity
ĠT it
Ġintegra te
Ġmake r
ĠCons umer
Ġt hri
ĠU pon
Ġprefer ences
ĠGr ey
ĠMa ni
ĠQu arter
o va
ĠRe ports
ĠA F
Ġbatter ies
Ġreli ability
aps ed
Ġsyste matic
wal k
b one
Ġam ended
I l
vo n
Ġdistinc tive
ĠF ern
ĠPortug al
Ġdep loyment
Ġm ock
â Ķ
um bers
Ġcons iders
H ttp
ĠT un
Ġpro pose
ĠT ell
Ġcirc les
Ġapplic ant
Ġr if
Ġse venth
ĠHealth care
i aries
P I
Ġse gments
ĠD elta
Ġsy nch
Ġper mits
ĠF ashion
ĠDir ect
Ġman ages
Ġfre ely
ar ound
ĠTreat ment
Ġs q
Ġc ree
ĠArgenti na
Ġemp ower
ut ory
Ġout fit
g ow
Ġd ash
Ġen zy
Ġfir es
ĠIn tel
W idth
ĠB uck
Ġw ings
Ġpen et
ĠPar ks
Ġsuper b
Ġadvoc acy
ali n
ier ra
ard ed
Ġharm ful
Ġin k
Ġb icy
Ġentr e
IC K
Ġvac uum
Ġdemonstra tes
p ad
ap ter
ib a
ĠDe al
let te
ea nt
Ġout break
Rec ord
Ġdo nated
eff ective
Ġass ists
Ġdra matically
W ed
ĠOr chestra
Ġaccurate ly
ĠBroth e
Ġcatal og
Ġg aining
Ġarchitec tural
Ġpor table
ÐµÐ½Ð¸ Ðµ
ĠCam paign
ĠArchitec ture
âĢ¦ "
', '
ĠSta ge
Ð· Ð¸
ĠStatis tics
Ġad oles
lades h
Ġsac red
Ġ ana
çļ Ħ
o ak
ĠS EO
ĠJ uan
Ġattr actions
Ġsp o
ur ring
Ċĉ Ċ
Ġdir ty
ĠV I
ĠTur ner
Ġisol ation
Ġcar pet
ge o
Ġnuc le
ĠMar c
val uation
frame work
Ġb ases
ĠBir mingham
Ġcompris es
Ġcan vas
ĠBrothe r
De velop
ĠGuard ian
Ġdec ay
ĠN ag
Ġback s
ĠWal k
Ġjump ed
Ġbu ff
Ġun precedented
v ascular
ĠZ one
es ti
ĠKe ith
Ġrep airs
ĠAl b
ĠR ena
Ġdo nt
Ġz ones
Ġma ture
} |
ĠJohn ny
N OT
Ġint ens
Ġrecog nised
as ant
ĠQ ual
Ġjoi ns
de fi
Ġflo ating
Ġembod iment
Ġcar go
1 30
be it
Ġmodel ing
m ul
Ġencounter ed
Ġexpo n
Ġcla use
Ġres emb
W omen
Ġc ache
Ġdiv ine
Ġs lic
ĠAdd ress
ĠN ancy
to ken
app ropri
i rable
Ġvir al
Ġco i
Ġcent res
ĠJ oin
Ġsta ys
Ġrob ot
pla ne
K en
Ġob taining
ĠG ard
ĠQu ick
ĠC hile
fac ts
end ent
Ð» Ð¾
Ġrail way
Ġcombi nes
Ġcontrac tors
Ġcomp aring
ĠÃ¤ r
par ams
Ġcomp oser
fi ers
ĠP uerto
g ender
Ġsur gical
bu ilt
ll ar
Ġde alt
Ġbatt les
S till
Ġ ov
ĠCame ron
Ġadv ise
ĠV irtual
Ġacc idents
is ure
Ġcon ferences
Eng lish
Ġexplor ed
Ġblog s
Ġbi ology
Ġselec ting
A ma
ÑģÑĤ Ð²
Ġjud icial
à¤ °
ĠPla net
G ame
G M
Ġur ged
R T
Ġap olog
plic ity
Ġ ug
Ġs ends
Ġcomment ary
Mus ic
ĠPh one
Ġeduc ated
enti a
Ġp ending
Ġhonest ly
ĠLar ge
Ġfor ty
Doc ument
ĠSha kespeare
em ale
ĠUn like
- $
ĠS mo
ĠLabor atory
ĠAust ria
ST R
Ġp orts
ĠB ai
ĠU g
G ET
Ġhaz ard
ĠTe levision
Ġcl arity
ĠPre vention
st rate
ĠEdin burgh
ĠR ea
P o
Ġtra gedy
a qu
Ġf ence
ÑģÐºÐ¸ Ð¹
UN D
Ind ia
ĠT ak
ĠS L
r ou
C rea
G old
ĠO peration
Ġunnecess ary
h um
Ġload s
ĠRes ort
ĠV ac
niz e
Ġn ach
ĠMaterial s
Ġ\ {
Ġdoc umented
Ġsup portive
field s
ĠAr tist
or ganiz
Ex ternal
va k
á ĥ
Ġwealth y
Ġsugges tion
Ġover ride
. ~
ha us
ĠCh elsea
Ġexpress ions
.. ...
ĠT s
Ġbur ned
us o
Ġpro ceeds
ĠCommon wealth
Ġp ho
cha ft
ĠState ment
Ġsim ilarly
ĠW ITH
Ġpun ishment
Ġlif ted
A nim
Ġstream s
ura ble
Ġpo ems
L eft
ab i
s d
È Ľ
OC K
Ge orge
Ġexpec ts
gene ration
Ġcloud s
ter mi
Ġpredic tions
}_ \
Ġtradem ark
ah oo
tolog y
D ri
Ġac ted
Ã ī
Ġcoi n
Ġpresent ations
Ġsoc ieties
Ġint ra
ĠCamp us
< !--
or ic
S i
Ġcook ed
ĠBe havi
ĠB ot
Ġplug i
b ian
Ġd enti
M aster
R equ
qu ake
ĠIn n
Ġplugi n
ĠInter view
x o
n ters
all ow
Ġsurprising ly
! '
augh ter
Ġport al
Ġcomm ands
Ġw ound
s truct
v ic
Ġ9 1
ĠB ring
com pass
Ġjewel ry
ee ks
el der
ĠLiber ty
Ġdismiss ed
\ "
Ġyield s
âĨ ĳ
Ġ196 3
s v
Sh ould
Ġconfirm ation
umb ai
Ġre forms
Ġinterven tions
b est
ĠH omes
t ands
ĠCou nsel
Ġnear est
ĠPu tin
ĠNe il
ĠCom plete
ĠHistor ic
ĠZ e
Ġ ng
ĠOb serv
ĠBi ology
nc o
Ġx ml
Ġpropri et
Ġinc enti
ĠPic tures
ĠE L
Ġadvoc ates
li ve
Ġk a
r eof
Ġdiscuss es
e reof
h ereof
Ġdedic ation
ĠAc tive
Ġrecruit ment
ĠS F
mer ic
Ġport rait
Ent ry
ĠMed iterranean
Ġpre ference
ĠGu y
Ġv or
P ER
Ġconv iction
ĠC IA
ÑĢÐ° Ð²
Re ference
Ġ{ @
ĠG OP
ĠE ns
ar n
Ġsatis fying
ĠRes pons
back ground
ĠRet urns
Ġfe as
ins tall
text width
Ġarg ues
L ive
Ġpurs uing
Ġsold ier
ĠStand ards
N AME
ĠK id
es tive
ĠF la
math sf
Ġass isted
Ġgra vity
Ġfl ux
ĠD ad
Ġprem ises
ama n
Ġanal og
Ġcalc ulation
S chool
Ġtr easure
OR K
tur n
Ġadvent ures
Ġn uts
Ġp izza
S pace
Ġsu its
r ise
Ġun ity
Ġout lets
ĠJeff erson
N AS
Ġnow h
Ġmar ke
uc tu
na t
Ġcha os
Ġnowh e
Ġsl ave
ĠLink ed
ĠEm ma
Ġresearch e
Ġsurve ys
Ġresearche r
op ing
ĠÐ ¤
es tion
& =
rea fter
langu age
Ñĥ ÑĢ
il ib
wide hat
q quad
Ġnowhe r
Ġen velop
e lect
Ġsh it
Ġnowher e
Ġaff air
ĠU nders
el ic
Ġmet a
D ani
Ġj am
b ind
tai rs
ĠSwed ish
ĠE asy
Ġt hereof
ĠHill ary
Ġpr eliminary
ĠT ea
Ġsent ences
Ġbl essed
ÑģÐº Ð°
Ġwitness ed
Ġc rown
Ġcont acted
Ġfina nc
Ġbar g
ĠBit coin
Ġr am
Ġmake up
c f
arr e
Ġfell ows
end ix
Ġne a
Ġrem inder
com merce
P si
Ġr ivers
ach ers
Ġglass es
Ġmar ginal
Ã Ĺ
Ġvit amin
Ġcro ps
ĠT odd
E u
ĠE va
Ġstruc t
}) \
Ġrelax ed
Ġind igenous
z ione
Ġwai ted
l isted
Ġsing ular
ĠE S
ĠE SP
Ġped est
Col lection
ĠSim ple
ĠUnivers e
] );
Ġthera peutic
V i
Config uration
ms terdam
d x
Ġg ly
Ġinc ons
od ium
Ġwitness es
Ġback ing
Ġcons piracy
Ġtal ents
ĠL ock
ond ers
Ġapp le
N EW
y our
Ġdisapp oint
à¥ į
f ea
Ġro d
ĠInd igenous
le tt
Ġmag azines
cl oud
ĠP ap
ĠDemocra t
equ iv
Ñĥ Ð±
ĠWar ner
Ġfar ms
ĠF ocus
inter est
Ġsta ting
O H
Ġ14 0
ĠConserv ation
ĠProgram me
F IG
b ine
be y
ĠA ut
C ore
Ġre aso
Ġpres cribed
ĠCl ay
ati e
Ġdefi nes
u ke
Ġsand wich
ĠP ad
Ġtong ue
Ġrad ius
Ġle ak
ĠC av
b ach
ru le
Ġred e
um ph
ĠHigh e
ĠTrans port
ĠHighe r
Ġper forms
P DF
Ġgradu ates
ze ro
ab ul
ĠPol ish
ĠC orn
Ġrel atives
p al
Fra nk
Ġarg s
ĠFant asy
Ġf ue
Ġnurs es
Ġj aw
Ġhel icop
att y
Ġcontrovers y
ung en
Ġbes ides
ni ties
ĠS omething
Ġke rnel
Ġen force
i ors
Q ues
ĠOli ver
Ġfunction ing
hi op
Ġsam pling
bac co
ĠEconom y
connec t
ĠC laim
ĠN intendo
ĠMo nte
Ġdis pers
Ġfoss il
ĠD ia
Ġuncle ar
ffic iently
sh op
Ġbet a
Ġdistingu ished
Ġli be
Ġhoriz ontal
Ġsc ales
Ġdefi ning
ar ea
me tic
Ġbe ans
ĠS par
V a
v ial
Ġne ga
econom ic
Ġspread ing
es te
ĠNash ville
li nks
Ġdestin ations
Ġindic ation
duce r
K ar
Ġimm ers
ĠB our
Ġint ensive
E U
all ing
R ange
ĠRid ge
ĠMedic are
utri tion
Ġwh oles
it ted
ĠM echan
ĠPhys ics
A ud
Ġcoord inate
add le
s ystem
Ġsw ord
ro na
o tion
ĠCru z
Ġm ise
ĠArk ansas
ĠL iz
S l
ĠSu ite
inc ome
ĠPy thon
9 00
iss ions
Ġg ently
gl obal
Ġdis tor
ĠR ams
Ġfab ulous
ĠSec urities
Ġafter wards
Ġdep uty
Ġp ec
ula tory
ĠN ad
c ur
ar se
ĠPri nt
as ia
Ġfish e
Ġspokes man
que r
}\ \
Ġsta g
U nit
ĠDi amond
Ġconj unction
ĠL P
Ġseaso nal
ĠMar x
ĠWa t
Ð°Ð» Ð°
ĠĠ Ċ
ĠF unction
Ġforma ts
Ġdeserv es
Ġ} )
ĠPri mary
ens tein
ĠHolid ay
inc i
rain ian
Ġhab itat
chem ical
i nos
O ld
Ġf ic
ac ies
": "
ĠH ear
ĠN ur
Ġline up
Ġloc als
Ġgra des
Ġs oup
Ġ< !--
ro ne
Ġal uminum
ĠB B
Ġex ports
ĠMich elle
ĠL ex
Ġdi amond
Ġinstrument al
{ }
Th us
Ġbehavi ors
C ategories
fi x
Ġwarrant y
n l
Ġste ad
i tively
Ty pes
P os
Ġpros pective
" ))
Ġsol ic
Ġmod est
ĠM ig
B ill
Ġto y
tu ary
ĠKar en
Ġfor cing
Ġclim bing
Ġle ap
S or
Ġdest ro
b ases
it u
Bu ild
ĠEgyp tian
eo n
put es
ĠDet ails
Ġw ounded
Ġre act
Mod ule
Ġext ending
Ð¾Ð² Ð¸
ĠV ar
Abs tract
ea ning
Ġshare holders
Ġpress ing
yl um
Ġcomm ented
Ġle verage
ĠF amil
t x
n ag
Ġcab i
ĠSa fe
Ġdec ides
Ġtac tics
j oin
eas tern
ib lical
is ine
Ġscr ew
Ġconnec tivity
ĠC lean
ĠS uns
Ġball ot
Ġes te
Ġconsist ency
over y
Ġdis adva
ĠS tyle
Ġb ite
ĠNo tice
Ġsol ved
Ġre ver
Ġelement ary
Ġquarter back
St ore
He ader
Is ra
Ġg host
ĠMi x
sc r
Ġmode r
Ġdro pping
Ġcombi ning
199 7
Ġs ir
Ġcabi n
ĠBud get
ĠF low
Ġsub ur
T ON
ĠFl ash
Ġbott les
O ption
Will iam
d ist
h eft
Ġtrans late
^ +
Ġsu ited
B ay
Ġoccur ring
ĠA CT
ĠCard inal
Ġsc andal
Ġdec iding
Ã ¹
Ġcalc ulations
n est
AN S
ĠH az
Ġsl ots
ĠSta t
ati a
art en
ia tes
ĠDen mark
Ġhand y
Ġ{ }
Ġexc use
Ġarchitec t
ĠPhilos ophy
J im
t ta
Ġsha de
Ġpsych ia
ĠG reater
Ġf ame
ĠE sc
Rich ard
Ġdis par
m art
Ġjack et
Ġro ster
ĠTe rry
Ġutiliz ed
âĢ ²
Ġattr action
Ġc ure
Dir ector
ĠW A
r k
ĠVe hic
Ġlist ened
ĠMat hema
C ategory
Ġcle ared
ĠM ental
) +
G iven
ber y
Ġcan o
Ġd ense
gan ic
Ġcateg or
Ġtrou bles
ri ties
c am
ĠH ERE
Ġalum ni
He ight
arth e
Ġcast le
ÃŃ s
ĠFred e
Ġ196 2
f lu
d ouble
ĠR A
Ġfra g
Ġf lesh
Ø§ ÙĦ
te ous
Ġcap ac
Ġmet rics
l ab
Ġdic ta
Ġfavor ites
Ġsh ifts
Ġapproach ing
ĠS alt
ÑĤ Ðµ
ro g
Ġorganis ed
Ġcompa nion
Ġgover ning
ĠWa tson
ĠMar io
Ġuni qu
Ġb ell
Ġp Ã¥
ug u
Ã «
ĠAdd itional
al ph
Ġun w
Ġlo vers
Ġmanus cript
ĠReg ulation
Ġtr oub
Ð¿ Ð¸
Ġpremier e
Ġbene fic
ĠHud son
ĠHar rison
) ?
Ġh iding
ĠT ig
Ġorig ins
Ġmarket place
Wind ows
ti de
ĠAcadem ic
Ġun ions
ĠAr ticles
es ta
sub set
Ġres ign
A h
ara tus
Ġp se
, ...
Ġsh elf
M ary
Ġmatch ed
Ġchar ter
Ġd ough
Ce r
ĠOp portun
ĠChem ical
ĠScienti fic
Ġcirc ular
ĠOr lando
c hannel
ec tory
Be ing
Ġca ution
Ġrecord ings
Ġunf air
ĠCar eer
ĠW ant
ĠSha ng
ĠIn j
Ġbet ting
Ġce lebrity
Ġaest hetic
it ated
d al
pla nt
Ġto bacco
Ġne rve
Ġanalys ts
** *
ĠPla i
ac tivity
ĠBuff alo
Ġpress ed
Ġfil ters
Ġ12 5
Ġti le
ĠCom petition
ĠR ivers
Ð ŀ
Ġarri ving
Ġcon vince
B ra
Ġqu een
ĠMont real
ĠÎ ¼
Ġloc ate
Ġor dering
Ġoccasion al
Ġabund ance
ĠK irk
ĠT N
ĠEt hiop
x is
Imp l
S u
ĠÃ ī
_ ,
ĠStan ford
ĠC ool
Ġdisappe ared
end um
Ð¾Ð¼ Ñĥ
ĠHam pshire
Ġsince r
ĠAss essment
Ġimp riso
S ign
b tn
j ack
Ġal gebra
S ave
ĠĠĠĠĠĠĠĠ ĠĠĠĠĠĠĠ
Ġdura ble
Ġiniti ated
Ġta nks
ep tion
Ġbra ve
ip ment
ĠF resh
Ġdiv ide
h ear
V AL
ÑĢÐ° Ð½
Ġcon ve
Ġformer ly
Men u
Ġnom ination
ĠPro s
ĠPh ase
el ance
F amily
Ġcontin ent
Ret urn
Ġanalys t
Ġmedic ations
Ġatt ributed
Ġinv o
Ġbe ars
ĠG lo
ĠR T
Ġte ens
br ew
ĠS old
ri ans
Ġlik elihood
Ġre wards
a uch
Ġ 000
Ġp ets
OM E
Ġconc lusions
ĠBe gin
ĠG ran
ig ation
Co ntainer
ĠPic ture
ĠL is
Ġ1 15
curr ency
Child ren
lei n
tche r
. *
te ration
ĠH alf
ĠAr men
ins ula
ĠP apers
ĠS ize
ha ne
ĠNe vertheless
Ġhe tero
U B
Ġcorr ection
ĠJ SON
P ORT
qu arter
Ġencoura ges
Ġpri nts
Ġjus tify
Ġinv itation
Ġfa ncy
Ġfirm ly
eli n
Ġcrea tor
Ġfe ver
c li
Ġs igh
10 16
ĠM ack
reg ister
ĠCon temporary
Ñħ Ð¾Ð´
ER V
Ġmolec ules
Ġchar ming
ĠK ay
Ð Ķ
gin ally
ĠPer fect
ri gh
Ġar chae
Ġcomp ara
Ġg aps
E ar
Ġgod s
Ġcons titute
min us
op es
Ġsc ru
end ants
M em
Re port
ens en
Ġpar ish
ign ity
Lea ve
Ġsurviv ors
Ġb ail
am y
cent ric
Ġ[ '
Ġtravel s
Ġmet res
ĠIss ues
ĠEx ception
Ġrac ist
Ve ry
ĠDis c
am ente
ĠAir lines
N ames
Ġcong reg
tific ates
ti ents
ĠM I
ĠSw itch
Ġd ive
ad min
ĠGra duate
Ġfif teen
Ġsh ore
ĠM it
ĠMa tch
Ġmil it
ch ec
ĠN CAA
Ġsqu ee
ns o
ĠE ye
eng ine
ĠJess ica
% %
Ġthr illed
Ġinev itable
Ġin jection
}} (
Ġsubs titute
Per haps
ĠB ag
ĠM B
to ire
Ġwas hing
By Id
O peration
Ġres ist
ĠM ort
our ed
T ree
Ġpurs uit
Ġinterview ed
Ġpar tition
**************** ****************
ÐµÑĢ Ð¸
fi able
ne ts
ĠSand ers
Ġpractition ers
ĠG ay
Ġbo ots
Ġcou nting
ea f
m ith
Ġsc roll
Ġmons ter
ĠD A
Ġstrengt hs
Ġen rolled
Ġster e
ĠPal m
Ġco ins
p rom
Ġdu o
Ġelectron ics
bi ting
Ġstri ve
Ġanch or
Ġs ights
Ġrevolution ary
bb ing
T en
Ġdecl aration
ĠRe ally
________ ________
ĠF ellow
B ody
Ġgene rator
P osition
Ġwood s
ĠThe rapy
Ġad min
Ġm ales
Ġarri ves
h im
rat ulations
Ġstar ring
Ġden ote
16 0
Ġta t
IS H
Ġj ar
Ġ* )
Ġmed ieval
Ð· Ð°
Ġen compass
Ġgradu ation
count ry
}\ ,
ĠSpec ific
Ġur gent
v d
bor der
Ġp ale
Ġ ë
ĠAl pha
Ġvis ibility
ĠN ob
Pol ice
Ġsur f
ĠH unt
Ġcru el
Ġ19 00
Ġcompris ing
ien na
ĠTy ler
ĠD M
C ome
ĠT ib
Ġes cal
ori ented
Ġplas ma
Ġrespond ents
ĠJe remy
Ġ16 0
Ġfl uctu
Ġcom ics
Ġimp acted
ĠR acing
d ings
Ġcomprom ise
Ã¡ l
Ġdis patch
is co
au kee
Ġsh ri
Ġd ow
f ia
Ġmat tress
Ġsla very
a nta
t titudes
Ġ196 1
is ive
ĠSim ilarly
a ttitudes
Ġvol ca
ĠC M
Ġindivid ually
G P
b c
ind ent
ĠC lient
Ġarbit rary
Ġ$ (\
ĠTr ack
Ġbelong ing
ĠT ab
Ġwi nes
ĠK az
Ġover look
ĠH app
Ġj son
Ġh ij
B ro
ba tes
Ġconcent rations
Ġrele asing
g overnment
M ad
Ð³ Ð¸
Ġaw ait
S ession
Ġpro be
Ġquiet ly
AP I
Ġsa fer
Ġcomp lications
Ġinte ger
Ġbe g
Ġin take
Ġstruc tured
~~ ~~
ry s
Ï ģ
Ġback grounds
ila teral
ic king
Ġex emp
ill i
li ness
Ġp ie
Ġconta iners
Ġinfi nite
so ns
C ard
Ġchar m
Ġloyal ty
Ġle mon
ĠC lear
be fore
Ġemer ge
ume rate
ĠMon itor
w en
Ġnecess ity
ail ure
add ress
Ġspons or
ĠF lu
idd ing
ĠVene zuela
ke eper
ome ter
Ġmon ument
ĠÃ ®
i nh
Ġdecl are
199 6
Ġapart ments
Ġenter prises
ros is
ĠTr easury
so ng
ii i
S il
M ich
Ġcomplim ent
ille rs
Ġele vated
Un fortunately
Ġ attitudes
li van
h ma
Mi n
Ġp el
K eep
ĠN ATO
Ġmas ks
Ġun to
O nline
ĠB ranch
eli very
es ch
] $
Ġenthusi asm
Ġfir ew
ĠAg ent
Ġd ed
Ġremind s
r um
ĠCho ice
Ġmand ate
ĠCha p
ĠMa ur
found e
founde r
Ġtemp lates
Ġthro a
Ġamen ities
os ting
p ted
ve ll
ĠE M
ĠS ure
Ġadvis or
Ġb oring
Ġinv oke
b ecause
Ġreal m
Ġmain tains
ĠÐ¿ Ð¾Ð´
ĠT han
Ġbu ilder
Ġsc ared
Ġ ).
ud ge
Ġvalid ation
ĠPart ner
ĠAb raham
Ġsm iled
}^{ (
Ġse g
F E
Ġro s
c ott
Ġb ush
S un
Ġkick ed
Ġjournal s
end if
ĠH A
d ows
n formation
ĠBer keley
Ġstain less
ĠQues tions
ty p
Ġcall back
Ġt heft
rec ord
O G
ĠArch ive
Ġathle tic
st rap
ĠC V
ĠI da
{ {\
ener gy
ĠP T
Ġuncom fortable
Ġbl ues
ol ver
uten ant
Ġmethod ology
Ġinter ns
asket ball
ĠCat herine
Ġrel uc
s ey
Ġr ape
Ġed itors
Ġno ble
Ġpre view
% ;
Ã© m
os ph
Ġcy cles
Ġpat ri
Ġthreat ening
Ġint end
Ġautom ation
Ġun ited
Ġtable ts
Ġinc ar
ĠMil es
Ġd educ
Ġstress ed
Ġvar ieties
Ġspir its
AN G
Tag ged
Mic rosoft
Ġcry st
ĠR ece
ĠBang ladesh
ĠAdvent ure
Tar get
Am ong
ke ry
ĠAr ena
pr edic
âĢ¦âĢ¦ âĢ¦âĢ¦
Ġf ran
Ġr iv
z el
Ġl is
Ġparticip ant
OR Y
ĠInd ividual
Ġfund ament
å ı
Ġdiagnos tic
Ġl ag
Ġs eller
ec y
ĠSp ot
Ġg oogle
Ġsty lish
uc ked
Ð¼ Ðµ
D ie
ĠShe r
Ġfestiv als
Ġappe aling
m illion
i ological
Ġpur ple
Ġman ually
n ish
lec tive
Ġsh eep
; ->
ĠY u
Ġi tera
Ġdel ays
d ates
Ġmuseum s
fr as
Ġdef ending
Ġ19 44
Ġcolor ful
Ġsp ite
no x
vec tor
ĠMcC art
Ġconfig ured
Ġvi able
Ġr ack
ĠSta y
Ġcell ular
thr ee
Ġl engt
Ġun lock
ĠN ine
res ource
equ ently
} +\
Ġde aler
qu ire
ara nti
ĠTr us
iz o
s ky
Ġhypoth esis
uss els
ĠÐº Ð¾Ð¼
Ġt v
l it
el en
ci um
wind ow
o ting
Ġcoord inates
ĠB MW
ĠId enti
Ġdec om
Ġarch ive
un al
d or
Ġhar assment
Ġvacci nation
ĠMi ni
Ġ9 78
ĊĠĠĠĠĠĠĠĠĠĠĠĠĠĠĠĠĠĠĠĠĠĠĠĠĠĠĠĠĠĠĠĠ ĠĠĠ
ĠDra ma
R NA
Ġreceip t
ĠWor kers
Ġsem ester
c ost
Ġpro xy
ĠChampions hips
ta wa
i que
ĠR oute
nna ti
Ġph ases
Ġfundra ising
J apa
Ð³ Ð°
m aps
ĠPartners hip
Par ameter
ĠLaw s
ĠSur v
ĠS han
ĠM ol
ĠG y
Ġrel ates
% ),
Ġthroa t
ĠS tee
tinc t
Ġdraw ings
Ġout doors
ĠRa nge
ĠG hana
ĠA qu
Ġrecy cling
t v
Ġrespond ing
pe g
ĠU ntil
hous es
Ġdispos al
ĠShe riff
Ġgroce ry
E ff
Y et
> ,
urch ase
Ġeconom ies
ĠPot ter
ĠLi ter
Ġdemand ed
IN S
ĠHel en
Ġbe i
S tand
f Ã©
Ġd al
ĠL ives
Ġwithdraw al
ĠO ption
ĠHind u
oi ler
Ġdis rup
ta t
B ur
ĠIn v
Ġcivil ian
ĠA msterdam
a nne
ros ion
ĠG ardens
ĠD raw
M ike
st ack
ĠA e
qui ries
Ċĉĉĉĉ ĉĉĉĉ
ĠF itz
Ġpred om
ĠBase ball
eni ors
Ġro c
l Ã©
Cus tom
Ġhuman itarian
nific ant
Ġindica tor
ĠB ass
f our
Ġnic ely
w aukee
ĠFin land
Ġnume rical
ĠÐ Ĺ
Ġout let
s ay
Ġvers e
Ġ auch
Ġpa nic
ĠW ea
Ġdele ted
tr es
Ġreg im
S tation
ĠK il
s ession
Ġin puts
ategor ized
Ġ ÑĨ
bo a
Res ults
Ñĸ Ð¹
ĠR ice
Ġorganiz ational
Ġaccording ly
Ġspecial ty
Ġ1 11
Ġdri ed
Ġj a
Ġshock ed
o to
ect ure
Ġpersonal ized
ĠL ay
ĠWell s
Ġsha ke
Ġunders tands
end or
ind uced
Ġhung ry
ĠV it
is ible
ĊĠĠĠĠĠĠĠĠ ĠĠĠĠĠĠ
Ġmagnific ent
iz able
ĠAlber ta
eye r
P ower
ĠG PS
ĠM ob
Re ader
ĠT ol
ĠPhys ical
ĠBap tist
Ġdevasta ting
Ġgri p
Ġprotocol s
Ġs ul
es ity
D raw
Ġol ive
ĠEx tr
Ġout lined
Ġpa tio
Ġdepend ence
els h
=" @
ĠLem ma
Ġ[ [
IS S
Ġaw k
A uth
cast le
Ġar range
Ġeduc ate
Ġd w
Ġfir ep
Stud ents
Ġwel coming
Ð ľ
Ġgirl friend
uss ian
nso n
ĠG or
Ï ĥ
Some times
ĠC arm
Ġsacri fic
ĠAssocia ted
Ġp df
Ġprogress ion
ec a
crip tor
ĠVinc ent
ĠS ter
ĠFri end
pla i
ĠL ate
Ġaff ir
Ġsim ulations
p han
Ġbed rooms
ĠRich mond
ĠG DP
tima tely
Ġm onetary
ĠBern ard
ì Ŀ
ĠR ES
la i
e ter
d epend
Ġca ttle
Ã ¯
Ġagr ees
ĠWild life
h uman
mm ar
ĠCo hen
ĠToy ota
D L
ot to
Ġdisag ree
li nder
ĠB uc
Ġgrand mother
ry l
ĠFishe r
AC H
os ures
Ġcontin ually
ĠUp per
hand le
ar ently
Ġcomp iled
Ġtra gic
ĠMi nor
Ð½ Ð¾Ð²
ĠPr ec
ou ra
Vis it
ĠIS O
Ġanti bio
Ġnation ally
Ġreg ulated
od ic
ome r
n che
techn ology
ĠO rth
CO L
Ġsof a
Ġbank ruptcy
H ost
Ġconside rably
Ġpr eserved
inci nnati
e ational
bel ie
ass ed
Ġb uses
199 5
Ġpath way
Ġstra w
f ar
Ġexc luded
Ġorganiz ing
Ġli able
In formation
Ġf led
Ġconcer ts
Ġlaunch es
Ġmoist ure
ĠP ast
la ting
F our
ĠPla tform
V ic
Ġcus h
Ġpenal ties
ĠHit ler
Ġshif ted
Ġcorrespond ence
Ġfem ales
Ġsent enced
ÑĤ Ð¾ÑĢ
Cl oud
Ġlaw makers
c ategory
ĠCirc le
Ġexplos ion
ad ays
Ġano nymous
ÅĤ a
nn or
ĠRog ers
G raph
nea t
Ġimag ined
Ġover d
clop edia
Ġar ising
ĠBat man
Ġaw ful
Ġcol ored
Ġal ternate
Ġlaugh ed
() {
l oss
Ġneighborhood s
Ġhoriz o
Ġpur ely
Ġque ries
Ġlack ing
his t
Ġcost ly
oi ns
ĠEd wards
Ġdefic it
ĠAr ound
Ġ& \
p iring
â ĸ
ĠS crip
ĠSouth east
Ġdemonst ration
b ial
E p
ro v
Ġadminister ed
is che
Ġla ne
="../../ ../../
ĠVe terans
x space
ĠJ ar
ĠDe uts
Ġdefini tions
ĠÐ¾ Ð´
Ġdevelop s
Ġfir ear
Å ¯
Ġsynth etic
v ideo
Ġminim ize
pr ising
Ġcon form
ĠDen nis
ĠN HL
us c
Ġc um
lev ant
ĠS ti
Ġsucceed ed
Ġso oner
Ġal together
lar ge
J ournal
} :
Ġ aqu
Ġcommission ed
ĠHea ven
Ġavoid ing
ĠS uda
g rid
Ġhi king
Ġco ating
sup port
Ġur ge
zh eimer
ĠAl ways
ĠStor m
y outube
Emp ty
Ġs porting
ss ues
nk ed
Ġsal ad
Ġbas eline
ĠR uth
ras ka
Ġsc ary
ĠTri p
ĠArc tic
ĠI BM
Te r
Ġaccounta bility
Ġd ess
m bers
ub i
Ġgl uc
, _
T emplate
Ġhand les
19 90
Ġti l
J son
ĠNich olas
ĠTr ek
ĠBas ic
Ġbu zz
ĠSha h
ĠIn to
ĠM ust
AR K
ti um
p se
Ġquanti ties
Ġ1 12
Ġpro ta
ĠInc r
ncell or
Ġhorizo n
Ġcompr ised
n one
G F
to tal
Ġvi nyl
ĠPen n
Ġb undle
Ġadjust ment
ara h
ris k
Ġbrut al
ĠNaz i
ron om
à¥ ĩ
ig ners
T ool
ĠF light
ĠAl lah
Ġinstruc tor
Ġout line
umb ling
Ġl over
Ġridic ulous
Ġar ena
Sh ort
T eam
Ġgar lic
ĠC ities
Ġdiffer ential
tic ular
Ġpoll s
TY PE
ĠCarl os
hel p
Ġcur ves
ro e
Ġprac tically
ĠB eautiful
Ġrec alled
sta n
ĠLiber al
Ġso ap
ĠV R
ard less
Ġcard io
ast es
Ġ" /
Ġ19 48
un o
Ġmid st
C ache
Ġt humb
ĠPe te
ĠBar ack
Ġprohi bited
Ġgrand father
Ġr het
Ġsp ouse
Ã© c
Ġpoor ly
Ġ ^
cel and
ĠC F
ĠGet ting
te or
Ä ±
Ġmem or
t ore
Ġ oz
ind a
Ġp iv
' >
Ġort h
ÐµÐ» Ð¸
k k
Ġh ike
L ou
Ġbas ement
Ġcons ult
Ġauto motive
ĠR ico
ĠVictor ian
ĠSc ar
æ ľ
ĠB rain
ĠW eather
Â» .
ĠPar ad
Ġsoc io
Ġes c
i nformation
ho e
) ).
Ġapp aratus
und ay
neat h
ĠGr ound
Ġblock chain
Ġavo ided
ĠÂ ±
ĠÃ¼ ber
ĠR ud
Ġrelax ing
ĠColumb us
Off set
Ġdes criptions
ĠHar vey
Ġsu fficiently
Ġret reat
V M
Ġvolunt ary
ĠCh ev
ĠRestaura nt
Ð» ÐµÐ½
ĠPlay ers
Rem ember
ul ture
ĠLind a
Ġbra ins
ĠPe ru
wa it
emp ty
s end
Ġf ier
irt ue
en ch
tle ment
ĠM umbai
l ord
pl iance
Face book
ĠMerc edes
Ġno tably
Ġ10 5
Ġtend ency
Ex p
ios ity
ĠRe form
ĠAs k
ĠO P
Ġsubsta nces
ĠMonta na
ĠMil a
Ġsequ el
Ġp ine
ĠEl li
Ġm Ã¡s
m und
ti d
D om
m are
ĠM T
by e
Ġd b
nti me
ĠOver all
r il
Ġemp ire
ĠEmp loyment
ĠE DT
nti e
Ġadvis ory
ĠLa test
tec t
a ults
any o
Ġcy cling
Ġ10 2
ĠIns pec
mind ed
ral s
ne q
Ġ ate
net h
truc tor
Ġfac ial
Ġhea ted
ĠLi n
Ġpray ers
us ions
omm unic
Ġor bit
Inter face
) |
ĠKar l
ĠS weet
ĠF alse
Ġtra jec
tim ation
Ġexce ptions
Re v
Ġmed itation
ĠH uma
Ġexpec tation
Ġdownload ed
Ġfle w
Ġmar ry
Ġinstall ing
oub tedly
ĠAN Y
ĠRequ est
en es
Ġ19 39
}} {\
Ġev ac
ex port
Ġl ately
Û Į
ĠMan aging
ĠC offee
ĠSta tus
Ġcombi nations
Util s
ĠBris tol
Ġor e
ĠW elcome
ĠSha w
ro se
ĠPhill ips
ĠFil ms
AN CE
Ġdischar ge
l ag
ĠT ickets
ĠPhoto graph
cl ock
Ġinter ference
S al
ĠR ating
n ise
Ġhistor ically
ron ics
ĠMc Donald
Ġpric ed
app lication
ĠUk rainian
Th omas
Ġcrea ture
Ġwh ist
Set tings
pl ot
g io
Ġmembra ne
ĠV illa
Ġp ier
Ġc ups
Ġrende red
sha ped
all ic
Ġalter ed
ĠL ac
ĠÑĢÐ° Ð·
ai ro
A I
. $
Ġspot ted
Ġutiliz ing
ĠH ip
ĠFea tures
Ġcomm ander
Ġtrad ed
ĠGene ration
Ġref ine
Ġgra n
Ġfir ing
Ġsh ook
ĠN ico
b usiness
ĠF M
H ouse
ĠCont rac
t ask
Ġh tml
Ġste llar
ĠDan ny
ĠThanks giving
Ġal i
ĠJul ia
Ġtra p
ĠP ep
pa ir
ĠJa ke
Ġdom ains
Ġreve aling
li br
Ġg y
Ġsta irs
Ġmechan ics
Ġ19 41
ĠR S
ĠBel ow
Be r
Ġinter mediate
Ġl ac
ĠW alt
f est
to ol
Ġspecific ations
ĠNa t
ĠM essage
Ġs es
Ġrenew ed
j k
ak o
Ġsho e
ĠR oth
ĠCom edy
rac le
= >
o ard
ĠQues tion
Ġre ject
ĠT rac
ĠG aza
ĠTH IS
j et
ĠSch edule
umb ing
Ġemp ir
av ax
ĠJ ama
Ġf ighter
Ġall iance
Ġprac ticing
Ex pl
Ġdoc trine
Ġste al
Ġsti ff
te ur
oun ters
p ie
Ġvend or
Ġpre jud
Ã¡ r
Ġrad ar
nk ind
Ġlim iting
10 5
Ġpro ves
Ġdetermi nes
Ġes p
ĠAr n
Ġgover n
ĠHar bor
Ġpati ence
F iled
ĠUs ed
ĠOt to
Ġme ter
Ġhe al
Ġprom otes
urs or
The ir
ag i
plai n
omo n
Ġb ip
T echn
D ER
- (
Ġu k
iz ard
L y
Ġfort unate
ent a
ĠBea uty
wi ki
ic i
ome ters
Ġless e
ĠJam ie
Ġe uro
ĠInter nal
Ġposition ed
ari um
Ġh ood
ĠR C
ĠC emetery
pa tient
w ire
J P
Ġhorri ble
Ġhold ers
op ed
odd ed
ĠArch ived
ĠStor age
ech t
Ġb ump
Ġsea ting
Ġne ural
ĠT ips
doc s
Ġassess ments
ĠNor man
Ġindica tors
Ġ ÑĪ
ĠK l
ĠVe ri
Ġwh eat
Ġannou nces
Ġinval id
c p
ax ies
ĠB ee
Ġdem ol
pha nt
Ġshif ting
Ġpublish ers
lec ular
omet ric
Ġlesse r
Ġ á
Ġfor tune
tiva ting
Ġp enc
hamp ton
C AR
Ġswitch ing
ĠNew ton
ĠCond itions
Ġbr ack
oca ust
ĠR d
Ġf lip
ĠPhoto s
law s
Ġconside rations
( _
a tomic
ĠP anth
Ø§ Ø
h ee
Ð ĺ
ĠApp lications
ola n
Ġac ids
Ġcou ch
ĠMethod s
Ġment or
operator name
ĠC ad
ĠK os
P ic
) }{
ĠC ensus
ĠGlas gow
pr eh
' $
ĠHar per
Supe r
Ġgu ards
ĠK ur
ena tors
nam ents
OW N
Se rial
ĠG host
el ia
ograph ical
f eld
Ġaggreg ate
Ġcorrespond s
ĠU P
12 8
Ġsh ine
lay e
Ap ple
ĠFor mer
c ity
ĠPro ph
Ġtrea ts
Ġc ensus
D M
Ġreti r
Ġres istant
l ings
c asts
ica id
ĊĠ Ċ
pass word
s al
Ġdel icate
ar ations
Ġdis putes
ĠH il
Ġspons ors
Ġs eniors
br and
ĠL ower
a tility
Ġoil s
ĠM ong
Ġsuperv ision
Ġgri ef
Ġconnec ts
Ġwell ness
Ġun limited
k ens
Ġsubs cribe
Ġsil ly
ĠH ab
Ġcustom ized
ile rs
Ġm asc
Ġmac ro
v ier
ms g
R ece
ĠCy ber
laye r
Ġda iry
Ġbe r
is cher
Ġen ters
j ournal
Ġpre fe
ĠLuc as
K ing
Ġacc ent
Ġdon ors
tor ia
ĠKy le
ange red
Ġpromp t
ibl ings
hol m
Ar ticle
d p
Ġsmall est
Ġta n
im s
ĠAl fred
Ġform ally
ĠMo z
3 50
tin um
ne x
Ġcitizens hip
Â ´
Ġ osc
Fri day
Ġcompu te
ĠAssocia tes
ĠC enters
Ġcoord ination
ĠCl ose
ĠM ountains
Ġmur dered
Ġp ul
pa id
Ġpor tions
Ġtempor arily
ĠTe aching
Ġtal es
Ġfaith ful
ĠS n
Ġyoung est
Ġal t
ĠU T
Ġp adding
Ġ' ,
ĠâĢ ĭ
ĠBa nks
b oth
b ia
& &
ĠC ategory
face book
Ġobst acles
em ption
Ġstatu te
ĠC han
Ġhy d
g ome
Ġany time
us ers
Ġd oses
com mit
ĠStrate gic
St ack
ĠMan ual
c ross
Ġhere i
anyo n
ĠData base
ge tic
Ġrecep tor
Ã ®
Ġl ighter
col o
Ġcy cl
ou ted
Ġcl usters
Ġpoli tically
Ð¾Ð½ Ð°
Ġtradition ally
Ñĥ ÑĤ
br is
Ð½Ð¸ Ðº
ĠB lo
ĠL uck
ĠDel aware
ter ies
g as
ah u
gon ist
ens ation
ĠHa t
V ar
ĠClin ic
em ia
Ġcle ans
Ġret ained
ĠLeg end
ĠCer tificate
Ġbea ten
alle ries
Ġmer chand
ose x
Up dated
ĠIns tall
Ġsl ice
W ould
E duc
ĠNep al
Ġbl ast
Ġmathema tics
Ġdial og
tiz ation
18 0
l aration
S ig
Ġpup ils
ĠDeg ree
Re fer
ĠTe rror
P lan
ĠElement ary
() :
ĠChem istry
ĠKnow ledge
Ġli ned
ĠInter ior
G etty
Wa ter
Ġc ad
Ġsubs ection
ĠI r
ĠB orn
Ġlog istics
ĠD B
Sup port
25 5
Ġev olving
Ġrun ner
Ġappe als
L ang
os o
dom ain
u ate
op ard
Ġdiscount s
ĠC N
lic t
Ġpri nter
ÑĦ Ð¸
Ġre pro
Ġbo asts
Ġtrans mitted
ĠPro tes
Ġappro ve
Ġp ants
ĠCris is
Ġcal ib
Ġ195 9
ĠA ld
S tra
Pa nel
G rid
Ġque ue
Ġtrans fers
Ġconf using
ĠBrazil ian
ang el
Co nc
s ave
ĠOak land
Ġpharm aceutical
Ġmachine ry
As ync
Ġgreen house
Ġs ou
ĠB order
ĠAbd ul
ĠBl u
gress ion
Ġloc ks
ma ni
keep ing
Ñĸ Ð½
ĠÐ¾ Ñģ
sup e
ĠSong s
ĠÑģ Ð¿
ĠW rite
Ġb iz
Ġmor ph
ĠA id
Ġcous i
ar tifact
ĠGo nz
g ger
en v
e view
ĠF oster
Ġcousi n
Å į
Id enti
et ti
Ġby tes
Ġ> =
Was hington
Ġpred ec
ĠS oon
Ġn odded
Ġ19 42
Ġtra its
Ġbi om
Sm ith
Ġcat astro
Ġreview ing
Ġ tic
Ġbo om
Ġlicens ing
Sp eaking
y t
Ġsh eer
âĶ Ģ
ĠWri ter
ĠRe ed
Ġthick ness
Ð¼ ÐµÐ½
to w
Ġpreven ted
Ġdress ing
E le
ĠGra de
Ġdiscl osed
Ġpla nes
ĠE PA
Fil m
Ġso nt
i nv
Ġimpro ves
Ġta m
ga t
Ġr ides
Ġun for
ĠCoal ition
Ġqu arters
ntie r
fa n
Ġg em
Ġbur st
Ġherei n
} -\
ĠCha mpion
fras tructure
ĠH eat
ĠC I
ha med
Ġaffil iate
ĠG iants
bo ys
cl usive
ĠG h
appro x
= (
ed o
ĠAnc ient
un ks
Ġdistribu tions
Ġgal axy
Ġimp ose
ud s
Ġrec tang
F ix
Ġship ped
Ġout look
ogen ic
Ġdistribu te
Ġhospital ity
Ġvers atile
Ġdon ate
Ġpo le
Ġcor rid
ĠG ospel
Ġfo am
ĠPod cast
ĠH em
Ġdes ires
\ '
Ġsch ema
tr as
Ġtra pped
g irl
Ġce ram
' ],
Ġincenti ves
Ð¶ Ðµ
Ġcom ed
Ġmod ification
Ġd ol
Ġawk ward
ĠInt roduction
ĠAp art
Ġfail ures
ĠEag les
Ġn est
() ->
Ġmass age
Ġnew e
ĠCom ing
Ġsearch es
Ġattack ing
B U
Ġliber ty
Ġpro jection
niz ing
Ġunder taken
es tab
ĠTar get
Ġcra w
Ġcr icket
ĠLeba non
pan ic
Ġcar riers
Ġstrong est
we gian
Ġcas ting
Ġver b
el ong
Ġrid ers
ĠCr ush
ĠImp rove
Ġenthusi astic
ate ur
no nymous
Ġcivil ians
Ġnewe r
Ġdi n
ung le
Ġ195 6
ĠGra m
ĠDiscover y
Ġas h
bers ecurity
bor o
Wri ter
Ġsound ed
S ELECT
Ġf etch
B it
B i
Ġsell s
Ġpass ive
ĠBro oks
ĠW ag
ĠT rea
ĠFi nn
Ġme g
Ġin nings
nc ia
Ġtu ition
opa t
ĠRepresent atives
Ġac oustic
og ene
Ġch lor
Ġhar ves
B ooks
ĠS la
appropri ate
cite t
Ġele va
Ġunder way
L ead
Ġmob il
ĠC i
Ġeight h
Ġsenti ment
h space
C M
ĠB A
Pri or
Ġtr icks
gue z
ĠA V
Ġ195 8
ra tic
Ġinno vations
P ac
Dep artment
og ra
Ġp ile
O s
ĠFra nces
sk ip
ĠN uclear
ĠCons ider
Ġconsum ed
Ġfa tig
ret urns
Ġgen ius
cle ar
ID E
ĠPi nk
ĠIm perial
Ġ- \
tic ol
P rom
av ailable
Ġins isted
ĠS leep
ta ting
ĠSp ider
ron omy
Ġe igh
nta tion
ĠOther wise
c led
op t
Ġtr ump
Ġbo oth
gome ry
Ġinflam mation
Ġt ari
Ġbur ea
Ġcusto ms
Ġcancell ed
Ġbl ocking
ĠNorth west
Ġc it
ĠE a
ade qu
ĠLa kes
ON G
Ġal ignment
( {\
peti tive
ĠR ot
Ġpla nted
Inte ger
ĠCho ose
C ond
Ġb ronze
Ġrep ublic
f loor
h all
rop y
ĠTour ism
") );
loy ed
al one
Ġbehavior al
O ffic
B Y
F ar
Ġrel ie
Ġsta ts
Ġenc oding
de lete
ĠPla ns
ĠĠĠĠĠĠĠĠ ĠĠĠĠĠ
ĠF eed
ĠFa n
Ġtr illion
ĠC inema
And rew
r eview
Ġgeomet ry
Ġret ention
ĠW his
um en
Ġpromp ted
ĠSymp hony
ĠCom plex
Ġmet als
Ġcons ume
UT H
Ġfound ations
k ie
Ġw itch
Ġopen ly
e u
nk nown
Ġcrow ds
ĠS qu
Ġtouch ing
ci Ã³n
aw s
Ġpro long
J ob
ĊĠĠĠĠĠĠĠĠ ĊĠĠĠĠĠĠĠ
199 4
Ġcirc ulation
Ġinterpre ted
ĠS ierra
ĠUs ers
RE AD
ĠPhoto graphy
Ġas pi
ĠU ns
c ue
Ġfra nk
Ġdisag r
ens ing
ec ho
Ġma is
ĠTes la
od ia
Ġ uma
ov o
ĠAl zheimer
Ġb ust
Âł Âł
Ġpros ecution
Ġcompos ite
Ġp ap
Ġtrave lers
Pro perties
ĠP ok
ĠCom ics
Ġsupe rm
ĠP HP
ĠDef ence
orp hism
Ġprof itable
Ġcoll ision
co nce
fic tion
Ġintroduc es
a nte
ĠHoll and
... ]
Ġlim itation
Ġwe ights
ea ter
S hi
ĠSw ift
res hing
ĠP ages
Ġinhi bit
Ġinhabit ants
âĢ ¯
Ġpar se
Ġf ighters
Ġas c
Ġtail ored
Ġfar mer
Ġ1 14
Ġanx ious
Ge r
ÑĨÐ¸ Ð¸
l ower
Us ers
til lery
Ġappoint ments
Ġrepresent ations
H en
n ime
Ġinvestiga tors
Ġprec ip
la teral
ĠS r
Ġb ang
ĠB ah
ĠTha i
ĠK el
y y
ĠConserv ative
Ġsp acious
pera tive
Ġreaso ning
Ġresp ira
Ġboy friend
Ġin it
Ġb achelor
Ġcri tically
R est
ĠCon vers
Ġbo n
os ium
ĠQueens land
Ġdepos its
t um
fol k
Ã± a
Pol icy
ĠS ays
arm ing
j ah
Ġmig rants
ĠPro vince
] \
Ġterror ists
Ġceleb rates
Ġstat ue
ĠS R
Ġcoh e
Ġbub ble
h h
Ġre habilitation
Ġtole rance
m el
Ġquestion ed
Ġabs ent
ĠIn fo
ĠP le
eph erd
Ġsh ar
L uc
Ġperform ers
ha nt
ĠRe venue
F M
Ġir res
to String
Ġcondition ing
Ġgar bage
> ();
ĠCh ase
Ġdil ig
ĠA us
R ay
ĠZ ero
Ġactiv ated
E arly
W ritten
ĠSus tainable
b ool
sq l
Ġdam n
Ġpropag anda
oc co
ĠG B
ĠL if
Ġdiscip lines
ri ous
na ta
ilib rium
c oll
ĠRel igion
ĠNurs ing
Ġpolitic ian
Ġ ĊĠĠĠĠĠĠĠ
Ġperman ently
Ġsubsid iary
Jo e
> .
Ġimpor ted
tec tive
nam ed
ĠExcell ence
gu ing
ĠSim ply
it us
ĠD as
ĠHor se
ĠP rad
Ġhead lines
Ġt weet
Ġ9 00
ge ring
S top
ine ts
Ġens emble
Ġcu isine
ĠPop ular
Ġsymp a
role um
ĠHol mes
ti p
Ġvar ies
g gle
Ġpal m
ĠTam pa
M ass
Ġby te
Ġearth quake
Ġlight weight
and ering
ine a
ĠBri ef
Ġinten tions
i ny
Ġg el
C am
Ġli b
Ã± o
ĠM ai
Ġf li
Ġ19 47
Ġdecor ated
Ġdis g
Ġmathema tical
Ġmiss ile
Produc t
Ġpri zes
co nc
d est
D iv
uc ci
) </
ĠY OUR
Ġap i
uls ion
ãĢ Ĥ
J eff
ĠEqu ipment
T unes
s un
es ar
J os
ĠPar ent
Ġcomm emor
Ñī Ð¸
Ġshor tage
Ġpota toes
Ġd read
Ġde par
Ġgra bbed
Ġ195 7
ad as
W orks
Ġspec ially
Ġathle te
Ġdies el
Ġz ur
Ġpl ed
Ġwork out
Ġav iation
Ġmea ntime
W R
ĠImm igration
mi tive
US E
y ed
ĠMem ory
Ġmus h
ĠH ob
CO M
f alls
Ġcompeti tions
ĠD ha
Sec urity
Ġtrans l
Ġconcent rated
ĠApp lied
ĠW u
ĠCitiz ens
Ġqual ifying
ĠMu hammad
n Ã©
Ġd ignity
Ġpu zzle
Ġacc laimed
ĠNeb raska
ĠTes tament
Ġs aves
me ri
Â» ,
ĠJul ie
Ġbar rel
ĠElect ronic
Ġinform al
Ġdeal ers
ĠTrans fer
ĠShang hai
R ock
Ġout reach
Ins tead
ti zed
ĠOc cup
ĠBob by
ĠSt rong
ĠAlex and
ĠHugh es
ia ting
ĠC BD
Ġconcept ual
bu ffer
m ile
Ġsw ift
Fi nal
net te
k al
ti les
le tin
ĠC incinnati
ĠY e
ĠNo vel
ĠW hatever
Ġillust rate
Ġmar ker
Ġunder neath
Ġall ocated
h rive
lia nces
Ġrema inder
iba n
Ġk g
Ġj ersey
Ġsphe r
O pera
pr ep
T or
Ġten ure
mon ic
Ġsp y
ĠTe acher
Ġfre elance
n op
Ġlaw n
ĠÑĤÐ° Ðº
ĠD ese
Ġjump ing
ĠEag le
Ġexhi bits
Reg ister
Ġflav ors
ĠBut ler
ĠM ills
a nime
Ġz a
ĠS nap
Ġover head
EE E
Ġcenter ed
Ġdistingu ish
Ġy a
ed ar
Ġmaxim ize
Ġsynth esis
ol ic
ĠR ic
EN CE
Ġprotes ters
Ġ ai
ĠCat hedral
Ġb oo
ĠEx am
ĠV ienna
Ġsp ine
Ġ10 4
The refore
Ġbl ade
Ġstat utory
F alse
ĠPro jects
ĠQue bec
Ġcl ay
im i
ĠW ol
Ġdr unk
ex peri
F lor
vera ges
e very
Ġaccounta ble
Ġtrig gered
h ash
w ave
ĠB ab
Ġprovi ncial
Ġ< -
ĠY ang
Ġoff shore
Ġunder go
H or
ĠCh rome
N otes
fort unate
ler t
r els
Def inition
ke es
Ġinhe rit
Ġabund ant
Ġperi phe
ĠI celand
oli n
Ġ12 8
Ġno tified
ĠE ug
ĠY ale
ĠArab ic
Ġle f
Ġrespons ive
Ġlea n
Ġcar bo
a tic
ĠC anyon
Ġspher e
Ġcred entials
pl ays
Ġapp liances
ens itive
ĠR ug
Ġpers istent
F ive
Ġeffic acy
ĠRem ove
E uro
V o
ĠMi ning
Ġassemb led
Ġco ding
. (
ĠB art
Ġg if
Ġpreserv ation
ĠInc ome
Ġcano n
Ġl uc
Ġeduc ators
ffer ence
Ġcou nted
et al
ĠBla ke
Ġm ol
ĠÃ Ĺ
Ġret ro
Ġspec im
Ġp ockets
Ġt hrive
C I
T ok
Ġsh ocking
Ġim perial
Ph ys
Ġrock et
ĠMed icaid
Ġfra gment
ĠPales tine
Ġm ph
ĠW elsh
ĠW HO
ĠRod ri
im ir
Ġreal ise
umi n
Pro gram
ĠI RS
Ġkid ney
Ġveri fied
ĠX ML
Ġattend ees
Ġt heorem
x id
ĠCab inet
B al
Ġpu zz
I RE
ffe ring
od s
Ġdata bases
ĠFac tory
Ġh int
te rol
Ġneed ing
Ġlaugh ing
Ġval ve
en umerate
ĠRe uters
Ġhar vest
Ġdiv isions
Ġtun ed
Ġug ly
ba ne
Eu ropean
ĠUg anda
P erson
ĠCh and
Ex peri
Ġall ocation
ĠDes cription
mo ve
Ġpath ways
Ġunf old
a ul
ĠP E
ĠF ourth
ĠColomb ia
ÑĢ Ñı
ĠU V
Ġcy to
Ġtort ure
Ġp ulse
Ġn ail
H ash
IC S
Ġpreval ence
a nom
amo n
Ġmid night
Ð´ Ñĥ
HT ML
am az
Ġl amp
Ġlabel ed
Ġsa ng
Ġresil ience
ĠS aints
ĠB ros
Ġter rain
Ġbet ray
T ri
Ġ anthrop
ĠS K
Y S
Ġroll s
W eek
ĠS ession
ET H
ar us
Sa turday
Ġ19 55
Ã¤ t
Ġsl ower
ĠGro ve
Ġfinal e
ĠCry stal
ĠU AE
Ġs s
es pecially
âĨ Ĳ
L ight
ĠL odge
Ġhon ors
ĠL ap
Ġco pe
d og
Ġfrust ration
ac a
Ġmi nisters
1 12
Ġsus cep
199 3
Ġbul let
Ġsurround ings
ĠRepresent ative
oa t
Ġcompet ent
M il
ĠA nth
mod els
Ġcou pling
Ġbuck et
ec tions
ĠPortug u
ffic iency
Ġflo oring
hol es
ĠAnaly tics
Ġsub set
deb ug
C ould
ĠLinked In
Ġ195 4
ĠESP N
v r
io c
Ġcommit ments
IF A
Ġrecip ients
ĠPro gress
Ġbro ker
B ob
Ġdeb ug
Ġs ized
Ġang les
ĠB att
ĠÂ °
ĠN eg
ĠÐ³Ð¾Ð´ Ñĥ
ĠRail way
ĠH ig
M ember
Ġapp r
g ary
ĠCo ncer
Ġ19 43
Ġham mer
Ġextensive ly
Ġrefuge e
m ass
ĠJa hr
ĠÐ´ Ð»Ñı
Ġvolun tee
ion i
ĠP ix
Ġno tify
k el
mans hip
Ġvar iants
Ġma te
S uch
Ġfri ghten
Ġgla nce
Ġadjust ments
tch ed
Ġ$ {
ĠP ul
ite ms
ma nt
ĠTa king
ä º
Ġg ates
ĠK ash
Ġadminist rator
ĠEth ics
ceed ings
ĠT ouch
Ġsla ves
Ġal igned
abe r
Com par
ĠDes k
ĠMo tion
Ġhu nger
ĠN y
s ki
PO ST
ĠBer g
Ġarg uing
Ġ onc
artifact Id
ip es
Ġdr ums
Ġtim eline
ĠC AR
ĠP ent
Ġc ents
om p
tion ed
ĠReg istration
ĠMila n
Ġw it
Ġw y
P lus
Se veral
k l
Ġti n
imp se
Ġcont ributes
Ġe igen
ĠM BA
ĠExt ra
Ġrespira tory
ĠNo va
Ġsim pl
Ġgal axies
Ġdes irable
ĠM ORE
ours es
ĠPa tients
T M
ĠMet ropolitan
Ð ĳ
Ġl od
M embers
Ġprec ed
c ache
eme r
ok o
od iversity
Ġprev ents
ac cep
ser tation
ĠPres idential
Ġcatch ing
ĠBr andon
N R
Ġpredom inant
Ġimp lied
ĠR AM
ĠR F
ĠR ee
Par ams
Ġcry ing
ard e
Ġtax i
ĠS end
pi nion
ĠRo le
Ġrende ring
Ġv om
ĠÐ¿ Ð¾Ñģ
Ġ1 16
Ï Ĥ
ĠR ate
EN S
Ġn ut
ĠChar acter
Ġsculp ture
ĠB oo
Ġrail road
e tics
Ġflow ing
ĠUnc ategorized
ĠReg ulations
14 0
ĠMil waukee
ĠNav al
ĠP ray
ng el
Ġn oon
ĠUl tra
Ġthread s
Dani el
emp his
me as
Ġwatch es
Ġreflec ting
res ults
ĠS quad
Ġde bris
Ġterrit ories
Ġling u
Ġbook ed
Ġlas ted
ĠO ften
anal ysis
ĠC AN
Ġab oard
ook ie
ĠB asketball
A frica
ĠVer mont
m one
Ġco con
uc tive
ill es
Ġsh y
ĠBul gar
ĠDo or
Ġf usion
Ã§ a
Ġgene rates
Ġp ound
Ġn as
C hannel
c od
ini um
Ġg ospel
Ġd ell
ĠW ords
mins ter
Ġproxim ity
Ġ" [
ĠRe ference
Ġsa tu
Ġil leg
ĠSp encer
ĠM oses
ura tions
ully ing
Ġconcent rate
Hel p
Ġu int
Ġin formative
Ġz um
ĠR alph
chang ing
ĠI rv
ĠTra ffic
Ġbill ions
oph om
Ġsup press
Ġsusp ic
\\\\\\\\\\\\\\\\ \\\\\\\\\\\\\\\\
Ġma ne
ĠSur gery
Ġware house
be e
Ġsec ular
Ġid i
Ġamend ments
ap hor
Ġun wa
Ġk its
ĠE ight
mo ni
Ste ve
Ġguarante es
pa ti
ys ter
Ġb ridges
ĠPier r
Ġattach ment
ĠM t
A nti
ĠWorks hop
om or
ĠSte i
Ġins u
Ġrecr eational
gl ass
Ġcost ume
ĠMa xim
nu ts
ĠT rial
Ġgu ilt
Ġg rie
load ed
Ġw ished
Ġforg ot
Ð¾Ð² Ð°
ĠM eet
Ġcont ras
B orn
ĠMar cus
Ġflo oding
ĠLi nks
ĠY or
Ġas ton
Char les
ĠGu est
Prof essor
Ġund oubtedly
requ ire
ĠL uther
ot ype
s ocial
Ġ' :
unc t
Ġrepos itory
ĠOt tawa
ĠCer tified
L es
ĠCol le
tor m
Ġsa n
ĠMa tter
nne apolis
Ġdet ention
Ġste ering
Ġelim inated
ocal y
sh ort
ĠN om
Ġrel ies
Ġd amp
ĠY ellow
ĠHe brew
Ġin exp
Ġfu els
Ġmar kers
ĠPierr e
qu al
Ġextr action
âĢĶ "
ĠAmb assador
per ts
Ã© g
ĠP ool
ĠEduc ational
ĠW AR
ĠIsa ac
Ġsubscrib ers
Ġmod ifications
enti eth
W O
ĠM R
ĠCol i
C are
Ġlic ence
ĠL ith
ĠR us
Bri tish
de fined
Ï Ģ
Ġimple ments
ĠH S
Ġde e
Eng ine
Ġsim plicity
ĠOrth odox
not es
Ġ19 18
Ġev olve
Ġab ol
og g
ĠScholars hip
Ġti ssues
Ġde i
Ġcommit tees
Ġ ank
Ġne o
I tems
ĠAppe als
Ġfir ef
Ġeas iest
Ġpas tor
Ġto ps
L oc
han ie
ĠAr tists
Ġsever ely
Ġcamp ing
Ġg aze
S end
Ġ ï¿½
Ġlog ging
}} }
Ġgr asp
Ġ amer
ĠK ill
pr ac
sp ot
10 3
a tom
Ġteen ager
Ġbreak down
ĠG and
Ġrank ings
Ġro bo
Ġv irtue
ĠR ah
Ð°Ð½Ð¸ Ñı
Ġinven ted
Ġstory telling
Ġmer ger
ĠC G
t heorem
Ġim per
F ONT
Ġdr astic
Ġwea ken
end en
ĠG am
Ġtraffic king
p owered
Ġl ending
Ġv iewer
Ġdiscl ose
ĠNe u
ĠA ven
off set
n ol
ĠVi olence
Ġdro ne
Ġtouch es
Ð¾ Ñĩ
Ġf ung
Ġn iche
ĠHop kins
Ġsig na
i nar
Every one
Ġla kes
sec urity
Ġlec tures
Ġbreath e
Ġevalu ating
Ġout rage
ĠSU V
item ize
ĠD ee
Ġf ights
am onds
ĠA CC
Ġillust rations
In f
Ġv ivid
ĠAd ult
C enter
supe r
U l
E ast
Ġ19 46
ĠPortugu ese
ĠInd ependence
Ġdeter ior
Ġc ens
ĠS id
Ġhistor ian
ĠFlor ence
ĠS op
ĠG ift
Ġimage ry
nam a
Ġtri umph
Ġlengt hy
B row
libr ary
ĠL loyd
Ġcr e
ĠP ine
Ġun r
Ð°ÑĤ ÑĮ
Ġbi kes
Ġteen age
Ġam bi
Ġcoord inator
ĠMus ical
Ð½Ð° Ñı
urr ection
Ġcal ories
199 2
With out
Ġinter im
Ġcapital ism
Ġ anime
ÑĤÐ¸ Ð²
Ġpas te
rep lace
ĠL iv
na k
ĠD ame
g mail
m ill
) }$
ĠV lad
Ġse aled
Ġveget able
n ven
Ġpack et
AM P
Ġ1 13
ĠJosh ua
Ġind ul
Ġveri fication
ĠGo ing
Ġsupple ments
L im
Ġnutri ents
ĠV ale
ĠBry a
ance r
Ġ10 6
ĠH ey
ĠRec overy
ĠAn niversary
Ac tive
it ude
Ġdis tances
Ġfinanc ially
Ġref reshing
Ġcounsel ing
10 4
ide ring
ti liz
ug a
ĠL ocation
ĠStu art
Ñĸ ÑĤ
Ġext ensions
Ġsta nce
ĠWed ding
\ }$
ĠContin ue
group Id
Ġpos itively
Ġtri o
11 1
olu te
ring ton
Ġreal ised
Ġcr ude
Ġti les
ĠMed al
ĠN GO
Ġ$ ('
ĠC ir
Ġpharm ac
Ġinf ring
ĠH onda
ĠSac ra
Ġupd ating
n olds
Ġland mark
to c
ĠCo x
ĠD j
ar ians
ĠL ions
oph ys
ĠD raft
ĠT as
en z
Ġe ternal
ber ries
ĠCommun ist
Ġinv isible
ĠX i
Ġcolor ing
Ġaddition ally
Chris tian
Ġinter vals
! ).
ynam ics
Ġcivil ization
Ġdi p
ĠBrya n
ĠLi be
Ġma nt
ik h
to ols
Ġfor ef
ĠLeon ard
tinc tion
CO DE
am ation
ĠThrough out
Dis cover
ĠNe igh
Ġgenuine ly
ĠG ang
Ġkne es
to x
ĠIndust ries
T ab
ĠG ates
Ġm esh
os hi
Ġrush ed
na ire
Ġex ec
ĠRe bec
Ġce ase
Ġh il
vel t
Ġre h
ĠStei n
Ġrecru iting
Ġsimple r
ĠC ove
10 2
Ġstra nger
ĠTool s
ĠVol un
ĠCro atia
G a
Ġoppos ing
Ġanaly tical
Ġmineral s
Ġauthentic ation
ĠColl abor
ĠF urn
ĠM otors
Ġlux urious
Ġcor rupt
ĠAn to
Ġreward ing
Ġpromo tional
Ġor chest
Ġpar ams
Bu y
ĠEnt reprene
Ġ oak
Ġirr e
Ġ195 3
ĠF acts
Ġexpress ing
Ġinc entive
ĠLa t
ĠFil ip
ĠO z
ĠProf ile
ĠCha pel
Ġtechn ically
ta mp
ĠP D
ro nes
ig ions
U CT
ha ppy
ator ies
lai n
Ġgl impse
ĠBen nett
Ġcompu ted
S ports
ug o
ĠBar o
Ġ19 49
\ ,\
ass o
Ġdiploma tic
Ġimm ense
Ġbless ing
ÃŃ n
Lo ad
ĠPro c
ĠDou g
ĠFrame work
Ġexhi bitions
Ġexchang es
Ġfinish es
ĠWall ace
ĠTag ged
C F
ĠRa nch
Pri vate
Ma tch
Ġpix els
Ñĥ Ñİ
ĠT E
Ġweek ends
ĠCa nn
ago nal
Ġe iner
ass a
ĠÐ ¥
Ġb ounds
h ara
ton ic
Chang ed
gh ter
Ġextr acted
D igital
Ad apter
c rea
Ġscatter ed
no indent
sh eet
ĠPro ced
Ġsoul s
ver n
ĠQa tar
end ra
Ġdefend ants
ĠK as
Ġcolle ague
H uman
ãģ ®
ĠR osen
Ġca u
ĠFellows hip
ven ile
ĠR NA
Ġlight ly
v space
print ln
FOR M
Ġrecons truction
ass ing
Ġsymm etry
ors t
ĠEd die
u is
s uccess
Ġnever theless
Ġdon or
par ents
Ġinser ted
ĠM IT
ĠDip l
te q
Ð ¢
ĠEs pecially
ĠTra i
chang ed
Det ails
Ġti res
Ġreg ene
ĠCh ef
Ġelec toral
Every thing
Ġliter acy
Ġcand y
Ġcomm ence
Ġvalid ity
Ġs iblings
qu est
Ġunder taking
P ut
Ã µ
Ġlif ting
Ġnames pace
Ġswitch ed
Ð¾ÑĤ Ð¾ÑĢ
Ġrandom ly
ĠMa ns
ĠIraq i
amp ire
Ġins ur
ĠE mi
Ġrob ots
ĠIda ho
Ġtour ing
M el
ip h
Ġlock down
a ks
Ġinc oming
Ġc ine
ĠH O
ĠEv idence
Ġl av
ĠC SS
bro ok
ĠJul ian
au f
ĊĠĠĠĠĠĠĠĠĠĠĠĠĠĠĠĠĠĠĠĠĠĠĠĠĠĠĠĠĠĠĠĠ ĠĠĠĠĠĠĠĠĠĠĠĠĠĠĠĠ
Ù ĩ
ĠOp tions
Ġsearch ed
ing o
Ġ1 17
ĠT emp
Ġelabor ate
ew a
u int
Ġp orn
AT CH
h om
D ATE
ĠR ush
imb ab
En vironment
Ġsurv iving
ĠA RE
ĠVal entine
Can ada
Ġc ult
Ġbea ts
ha ns
Ġt astes
F ore
lo op
Ġav en
Ġm asters
ĠV PN
Ġcont ra
Ġex otic
OR S
Val ues
Ġch ore
Ġburea uc
Ġconvi ncing
Ġlink ing
Ġclea ner
ver ted
ĠAl most
Ġplay off
You ng
Ġhum ble
( :
ĠNa than
Ġcriminal s
Ġabs urd
Ġam p
ou nces
ĠB und
Ġn aked
Ġlaund ry
Ġbas ics
Ġaut umn
deg ree
ĠA viation
ra its
aye r
Ġhar ness
s quare
Ġrele vance
$ }
elo n
ĠSp ons
Ġ ÑĺÐµ
ĠF E
Ġpa use
ĠColi n
@ "
Ġ' /
Ġinf ant
Ġsch olar
Ġtrad es
ta ncy
ud ed
con nection
Ġceleb rities
ĠâĢ º
r ub
ĠL ion
ut t
Ġ _{
end y
Ġlandscap es
L ittle
ĠH ur
row ave
ig nant
Ġrestric tion
VI EW
ĠEar l
M eet
Ġw iring
ĠJ ourney
ĠPear l
m ia
ĠS ty
ĠRebec ca
us table
com ponent
ta gs
ĠG ree
man uel
Ok ay
ĠAth ens
Ġne ph
b odies
j ob
Ð» Ñĥ
Ġfrust rated
Ġassign ments
ine es
D ra
ĠPe rm
Ġh ind
Hel per
ĠV ari
W ant
ĠG MT
Ġaffil iated
V R
Ġpoly nom
Ġtri be
Ġhar mony
ĠTh under
ĠJeff rey
Ġrecog nise
ĠEqu ity
n ick
Ġfor es
Ġsu ng
Ġcocon ut
g it
sh ire
orks hire
ĠCP U
P en
Ġhead line
}} _
ĠD aw
Ġam plit
ĠH aven
Ġ anom
m ys
ĠJoa n
eri ted
Ġwri tings
Ġunve iled
Ġwas hed
Ġcom merce
Ġun fortunate
Ġb ree
Ġspec tral
V ir
Ġclos et
g ma
ĠPalestin ians
ÑģÑĮ Ðº
Ġdis contin
Call back
Ġcra fted
ĠOr ganis
ĠEv olution
Ġprov ing
ĠPrincip al
ĠA W
a for
J S
Ġovers ee
Ġreluc tant
Ġse ized
ĠS ue
Ġuns a
Ġy e
ĠSup ply
Ġre per
CL A
Ġlisten ers
Ġillust ration
Ġingred ient
× Ļ
Ġdisc ourse
Ġhealth ier
Ġv enti
, ,
F ood
Ġmotor cycle
ĠG ender
N P
n m
j en
Ġsh elves
ĠDy lan
ĠEff ects
ce le
Ġp is
ĠCar r
la tor
ĠL I
omet ry
Ġtrib es
% ).
Ġk icks
ĠT ommy
li nt
I ts
Ġe ld
Ġi Tunes
Ġinc idence
B undle
Ġar row
j avascript
ĠL amb
t rong
Dis play
F ort
N T
Ġpar ade
ĠGlo be
ĠĠĠĠĠĠĠĠ ĠĠĠĠĠĠ
Ġris es
ĠPeri od
alt hough
n ished
Ġdr ill
Ġsoc ially
v irtual
vertis ing
Ġâ ĪĴ
ĠZ hang
Ġ18 00
Ġgame play
ĠJo el
.' "
ĠS cha
ter inary
ĠEx cel
ĠHung ary
Ġaccele rate
ĠL ud
Ġb ests
Ġcon ting
lo ys
Ġemotion ally
ĠR av
Ġknowledge able
Ġabsor b
Ġele ven
ffic ients
ĠT iger
C la
Ġ$ $
ĠEX P
ĠDri ver
Ġl id
ĠB S
Ġexam ining
Ġbelie ving
pres ent
Ġescap ed
ĠDi fferent
ĠNS W
c u
ven ant
S unday
cont rolled
Ġbound ed
Ġlis tings
Ġ195 2
Ġin adequ
f illed
ĠA ur
ĠB ach
Ġshall ow
k r
Ġbreak through
Ġarg u
} '
Ġco pi
dev ice
H appy
serv ices
ĠC B
Ġovers ight
ĠPar ents
Ex ample
ĠM Y
ĠSh ar
å ħ
ĠAny one
Ġpress ures
ĠCan ad
up o
ĠD ies
G G
Ġintri guing
Ġcrow ded
Ġse as
Ġrev ision
Ġexam ines
Ġj unk
ĠSum mary
ĠChar ter
ĠH REF
ĠNet works
Ġ10 3
tel s
Ġreg ulate
Ġmedic ines
Ġar ti
tter y
Ġoccur rence
Ġpool s
la ke
ĠLib r
Ġhome owners
ĠPl aces
Ġcri ed
ĠÐº Ð¾Ð½
P y
Ġspo nta
te au
ĠRec ent
Ġas ylum
J ECT
is ha
pro d
it ably
Ġinvi ting
Ġcur iosity
Ð² Ð°Ð½
$ _
Ġdee r
Ġ" "
ĠInter est
ĠSuda n
ĠE ncy
ro ke
Ġmess aging
ĠP am
ĠMont gomery
M obile
Ġimpor ts
Ġfatig ue
tr ed
Ġoptim istic
olog ic
Ġpil ots
Ġide ology
L R
Ġgrand children
Ġidenti fies
Ġstar ter
Ġcal cium
ga e
or tium
Ġaccompany ing
ĠFi x
por tion
equ al
A ns
un ters
Ġf are
ĠO racle
i nz
ĠO H
Ġb ored
Cl ose
ĠArn old
Ġd ens
Ġsmart phones
Ġcrea tors
Ġp uls
reg ion
Ġadminist rators
ĠWer e
Ġanno ying
ĠEth e
Ġimmig rant
F und
tur b
Ġim pe
ĠBe hind
ĠMark ets
Ġl oses
ention ed
ĠD iet
Ġpix el
ida e
ose velt
mul ticol
ĠP f
Ġgen res
ĠG az
ĠHe ights
tin ation
Ġ afor
Ġsl ides
tem por
ĠBrad ley
u id
ĠT ags
ti fying
ĠTy p
Ġment ally
ĠEm peror
Ġme rit
R ule
c amp
Ġlic enses
ĠH ockey
na i
ĠD rop
Ġas leep
ĠLuc y
Ġplay offs
ta nti
Ġauton omous
Ġsusp icious
ĠW ing
f ro
11 5
A ut
S uccess
Ġc han
a toms
Ġrefer endum
ĠLaur en
Ġenha ncing
Wor king
l is
Ġh ack
ĠN I
ĠHol ocaust
ĠD iana
Ar gs
Ġgra titude
ĠR aw
mar gin
ĠPro perties
Ġbreed ing
ĠLaw yers
Ġsynch ro
ĠAsh ley
p ersonal
ric tion
ĠP av
Ġle isure
O B
ĠCh uck
Ġsens es
Over all
ĠEx ample
ĠVen ice
ĠFe rg
od i
ash e
equ als
oi rs
Ġb ugs
ĠNor wegian
Ġexce eding
Ġlou nge
ĠLGBT Q
Ġcollabor ate
Ġmind set
Chr ist
Ġ19 17
ĠWa ters
by te
Ġnot orious
Ġ10 8
Ġd ictionary
inter face
ĠZ ion
mp to
ĠNor m
ĠBo n
Ġde bates
ERR OR
ia o
10 6
Ġorga ns
f es
ĠÃ º
ĠDem ocracy
Ġsec uring
Ġ\ |
Ġabsor ption
Ġlist ener
ĠÃ ¶
Ġda ngers
i nner
multicol umn
Ġcons isted
Ġad mits
Ġreg ression
Ġshow c
Ġvulne rability
li k
Ġm all
Ġver tex
ĠPar ish
T ry
No v
Ġspokes person
hand ed
Ġfor b
ĠW el
Ġlike wise
ti nes
ĠCla ire
ĠDra g
ĠTri nity
Ġdem ographic
Com mon
KE Y
ĠPow ell
s ince
Ġp ork
ni que
rolog ical
ge x
w idget
Ġdes cent
Ġgradu ating
Par ent
ĠGene va
nta ble
ĠSo x
à¤ ¿
se ries
AR CH
Ġrecogniz es
boa t
Ġin e
qu ot
f n
Ġkid n
Ġpro life
ĠAc tually
Ġbrow se
Ġstrengthen ing
Ġsa iling
ol ation
Sum mary
ĠSul livan
Dev ice
Ġqual ifications
oty pes
Ġco c
Ġhome work
ĠNige rian
O w
Ġto pped
Ñı ÑĤ
ä »
Ġphilosoph ical
Int roduction
ĠSha dow
IC T
ĠI O
) ),
lo ve
Ġad ver
L I
Ġprotec ts
Ġvo or
Ġe po
unicip ality
ĠIll ust
ãĢ ģ
Ġsur pass
Ġquanti tative
Ġste pping
Ġhop eful
um m
Ġ19 14
Ġphenomen a
Ġb un
Ñĥ Ð¿
is hi
c hat
ol t
Ġperf ection
Ġter mination
e or
ĠA IDS
Ġ2 20
ĠM AN
ĠCL ASS
tos is
ĠS oft
ĠLet ters
H ub
Ġsome time
Ġwa ist
Ġremed y
N D
199 1
ĠC raw
Ġund efined
) {\
ĠEll en
Ġst ub
Ġdr ought
.... ..
ĠHa nnah
Acc ount
d c
Ġmerchand ise
ĠR ise
Ġhapp ily
ĠÐ² ÑĸÐ´
ag netic
Ġdoub led
Ġcar es
Ġev angel
e ference
Ġriv als
ĠBr ussels
Ġpal ace
Ġillust rates
Ġc ement
Ġ< =
defi nition
Ġ\ (
proto type
Ġjus tified
ĠH urricane
e lection
Ġexp ose
Ġ1 18
Ġst reak
Ġ- --
ĠC ars
D ue
fr ey
ĠON E
ĊĠĠĠĠĠĠĠĠĠĠĠĠĠĠĠĠ ĠĠĠĠĠ
ung s
ĠGab riel
D ouble
Ġargu ably
ĠRang ers
ĠS z
tica n
{ $
Ġarch ives
Ġproto type
ĠT ip
Ġhighl ighting
En um
Ġec ological
Ġknock ed
m c
Ġang ular
ct x
Ġin line
Ġelig ibility
oma tic
Ġw onders
Ġexhi bited
Ġdep icted
am el
gorith m
Ġp ointer
Ġenroll ment
ĠPla za
ĠPro blem
ul k
S torage
Ġappropri ately
ĠM ead
Ġn ap
is tr
Ġrelax ation
tr ics
ut z
Ġcer tificates
Ġcancell ation
thr ead
olu tely
Ðµ Ð¶
ĠSol id
ol lo
his tory
His tor
N ick
Ġaccess ibility
Ġsc aling
ĠRes olution
Ġti mber
Ġtrea ty
Ġcountry side
Ġparad ig
ini tely
A nt
ĠK umar
~ $
pl ugin
ta m
De r
Me r
Ġplane ts
H ard
Ġsever ity
P lace
mi ni
Ġsystem ic
ĠLi u
ĠSy l
W ow
te am
Ġset t
Ġm our
C alifornia
Ġre ign
Ġthr iller
Ġc iting
Ġfrust rating
ĠG ets
Ġfoot print
Ġob esity
Ġnor ms
Ġfavor able
Ġ12 3
Par am
ul ent
Ġwilling ness
Ġph osph
Ġstud ios
ĠI nitial
Ġn ost
ĠLead ers
ĠCD C
Ġm ela
Ġha n
Ġsha des
Ġhand ler
Ġhelicop ter
ĠSh ows
Ġnegoti ate
ar ticles
Ġgl orious
Ġb od
Ġsub jected
ĠSp o
Ġfi b
ĠO m
G T
ĠH ours
Ġpris oner
Ġam big
Ġpa ired
Ġrec ession
Ġe co
Ġsl ope
ou x
em ade
Ġre fined
ophom ore
ĠB un
Ġpos ed
r ted
ang ular
ĠAb b
Ġro ok
Ġang el
Ġquestion ing
ĠÑģ Ð²
ĠSc a
Ġclea ned
Ġrun ners
abul ary
cus tom
ĠL ed
ĠEu rop
Ġapp la
ĠLu is
Ġunder take
Ġg ard
Ġfrequ encies
ple ted
Ġlay ing
Ġden ial
a ero
ble ms
Ġv oy
Ġda t
eld ing
ĠÑĢ Ð¾Ðº
ĠLy nch
mir al
ĠT esting
te p
ĠTrai n
Ġbr ass
Ġdistur bing
ĊĊ ĠĠ
ĠAc tivity
C ra
Ġsubs titu
Ġti r
3 60
Ġpropriet ary
Ġbr ace
emic onduc
Ġstart ups
Ġperiod ic
R ES
Ġ Ø§ÙĦ
n able
K now
Ä «
io let
Ġten ants
} "
ĠTH AT
ĠClar ke
ĠIS IS
Ġrecomm ends
ĠMi nneapolis
RE D
}} ,
Ġsun ny
t ude
Ġapproxim ation
b is
ĠCri tical
P AR
ĠN H
Ġaff ection
ce ans
ĠV AL
Ġins ane
Ġaccess ing
ĠAl um
ĠInf lu
ĠArs enal
Ġsur r
ĠA A
Ġimp licit
ĠEff ect
Ġ2 40
Ġw rist
ncil iation
Ġab normal
oc ide
Ġ atomic
Ġinfec tious
Ġsl am
ĠG etty
B ot
ĠR V
Ġsp ends
bi nar
Ġly mph
Ġb ap
Ġpat rol
Ġsignal ing
ĠFir ef
ĠFrede rick
Ġchar itable
Pri nt
ĠÑģ Ðµ
Ġtrib al
Ġcap tures
em ost
eserv ation
Ġrel a
Ġk ills
ns t
Ġb ent
tir e
Ġsh orts
ĠHe rald
M onday
Ġf og
Ġscri p
Ġj okes
ew ell
sh irt
i nto
Ġproduc tions
pr ice
ĠBal d
ĠSpe ech
math scr
Ġblo ody
Ġsus pects
ĠAm anda
Ġdec eased
Ġlong time
hy dro
Ġs por
had ow
Ġdeliberate ly
Ġkil ometers
h it
Ð ĵ
b ri
press ive
ĠRa nk
Ġall oc
ĠF el
25 6
ĠBai ley
Ġtra iner
ĠComm ander
Ġlog s
Ġra nch
ham med
Net work
Ġ195 1
Ġancest ors
OL D
Ġpra ised
Se ries
il ogy
Ġass ure
ĠHy de
tic ism
Ġupgra des
, .
n ja
Ġthought ful
ĠN ice
Ġn y
Ġproble matic
Ne ver
f u
s ed
Ġtrans c
L and
up le
Ġ19 33
spring framework
ĠP eng
Ġgood ness
Ġwh olly
ĠNob el
ĠPre vious
ĠGu ild
ĠRe ve
ĠL ip
Ġphr ases
Sm all
Ġro t
mod ules
Ċĉ ĠĠĠ
ber ger
Ð¾Ð³ ÑĢÐ°
Ġfilm ing
Ġro ller
Sch ema
Ġj i
ĠÐ´ Ðµ
ĠSup erv
ĠE ither
Ġtrad ers
ĠT ru
Ġn icht
ow ers
Ġint act
ĠD awn
Ġcle aring
Ġsy nc
ĠC ob
avor ite
Ġl ug
ĠGreg ory
Ġra ts
ĠG aming
Ġremi nis
) [
Ġtr e
ga nce
Ġsmooth ly
ĠRena issance
Com ment
ĠDec or
Ġin tric
Ġ19 38
oles terol
Ġmer ge
m ock
ĠPro tocol
ĠD ictionary
h ari
ĠF irm
R Y
l os
h tm
N I
Back ground
Ġpl ots
ut ton
Par ameters
ĠF loor
tain ability
N othing
Ġbal co
Ġcou pon
Ġcl o
Ġg i
? :
Ġatmos pheric
pl ug
ĠM emphis
uso n
Ġrest ra
Ġdef ects
Ġmar king
Ġsupposed ly
å ¤
ĠTig ers
Â ½
ĠCom bi
Ġt ensions
Ġspot light
Ġadva ncing
Ġfor ums
ope z
ĠPo etry
Ġwarm t
Ġtrans ported
Ġcomp ression
ĠT amil
Ġwarmt h
tr ous
Ð½Ð¸ Ð¹
Ġta k
Ġmet aphor
Ġsc am
ĠBrad y
ex cept
Ġj our
ĠBut ter
ax is
Ġscri pts
Ġm amm
ns ic
ĠUn less
Ġprivate ly
Ġ20 30
Ġcar p
ĠCha d
Ġpri ests
Ġind is
Ġrenew al
Play e
v m
E V
Ġor i
Ġpres idency
Playe r
tt t
al igned
Ġtaxpay ers
Ġs ulf
Ġmanif est
Ġin ability
ĠRel ated
h ei
air es
Ġins ulin
å Ī
Ġ15 00
g ot
ist ries
ĠCont ract
Ġtempor al
nc ill
ĠO UT
P tr
ĠA x
Ġwer den
Ġbio graphy
tel la
Ġvir uses
ĠE b
10 9
ava n
ĠInter esting
lich e
se teq
Ġthank ful
ta x
ĠCh ester
na na
Ġforth coming
CO VID
t Ã³
Ġretai ler
with out
Ġaim ing
Ġstic ks
Ġro oted
Ġfina nces
ik o
Ġd urch
Ġstra ins
ĠPrad esh
Ġm elt
no va
Ġwar nings
hes ive
Ġch ase
ĠY orkshire
ĠCou nter
unc tions
ĠAh med
ĠLy nn
Ġst al
Ġhes itate
Current ly
M ov
Ġback yard
e reafter
æ ĸ
h ereafter
Ġround ed
Ġaccep ts
Ġdig it
Ġcard iac
Ġsched ules
oo g
z ia
Data base
Ġl enses
Ġvec tors
Ġm im
Ġgluc ose
Ġupgra ded
up e
Ġsuperm ark
Ð° Ð·
t hetic
ĠP om
ri ages
Ġsp rink
Ġca ter
to ch
ĠN u
Ġdis ruption
trans lation
ĠConce rt
M ur
ĠIn frastructure
Ġwh ites
B es
ĠD S
ĠA K
Ġmen tions
fac tory
ĠRo nald
ĠC art
b ai
UN T
Ġidenti ties
Ġdiv ing
ĠO wn
ĠTowns hip
Ġempir ical
Ġemb ry
Ġbroad band
lim its
ocia ted
gr oups
um ption
eg ular
ĠAs sert
tr ument
Ġus eless
ĠForm ula
Ð´ Ðµ
Ġclin ics
m ac
ue rr
vit ational
Ġepid emic
Ġes timation
Ð¾Ð» Ð¸
ĠL eeds
7 50
Ġdio xide
Ġsound track
( *
ĠUl timate
ĠSy nd
Ġanswe ring
Ġhom osex
ĠB og
Ġk Ã¶
m ma
spec ial
tur ity
Ġspecific ation
ĠTal iban
O ct
Ġrecr eation
gene ral
Ġ obe
Ġdr illing
ĠEll is
ĠB omb
ĠBo eing
Ġf Ã¶r
Isra el
ĠG C
Ġfic tional
Ġpick up
Ġproceed ing
Ġsp oil
ĠF uneral
K ind
ĠE st
uel ler
W C
Ġrep ay
Ġter min
pro tected
Ġprec eding
ĠTour nament
ne um
: **
Ġsm iling
ĠS aw
so ever
ti ns
ĠV el
Ġ atoms
Th ursday
Ñ ļ
Ġ oat
is se
Ġmet adata
r eference
Pr ice
ĠFor ward
oli tics
Ques tion
19 89
Ġgl oss
rint endent
ura n
Ġ19 36
s cripts
Ġcardio vascular
Ġpain ter
v t
P ers
Ġclari fy
Ġlegisla ture
Ġneighbour hood
Ġsp ac
< \
C as
ĠEngine e
Î ¼
Ġdiet ary
Ġtrick y
ie u
ĠS ki
ĠT ap
ĠX X
Ġea ten
us r
Ġimmun ity
ĠT D
gen ic
J un
S ite
Ð £
ĠEnginee r
Ġdiscover ing
ĠHor ror
c ry
Ġviol ated
ĠS co
Ġsw eat
line ar
im portant
Î »
Ġteen agers
Ġpro position
tr ust
gr and
ĠLeg acy
Ġsubmit ting
ĠSa nto
Ġge r
ĠC ler
ĠCO MP
Ġsi ÄĻ
gi ene
pub lished
Bel ow
Ġsuper hero
ĠT een
ra de
ver ter
Ġfe eds
ĠNa tal
Ġca fe
ĠConnec t
Ãµ es
ÐµÐ½ Ð°
s ters
Ġprosper ity
ĠCha mp
ess o
Ġrestric t
av ier
ha ge
C redit
MA X
Ġ$ .
List en
ommunic ations
iti ves
b ag
tr action
ĠL oss
i encies
A pi
Ama zon
Ġre ins
Ġbicy cle
ĠNew castle
va tives
Ġregula tors
top ic
div ision
omb ie
N ER
å ®
Ġtoma toes
Ġind uction
Ġh edge
Ġconsum ing
Ġpos es
ĠMulti ple
ĠN utrition
Â £
| ^
n ars
Ġ1 19
lec ting
Ġc el
Ñĸ ÑĹ
Off ice
ĠHT TP
Sh op
Ġconstra int
Ġau tism
Ġso y
ĠN as
ĠWe ight
Ġsha dows
Ġreven ge
Ð» ÐµÐ´
Ġse p
Ġoptim ize
app le
ch ief
ende red
Ġgrad ient
hold ing
Ġ3 65
Ġ17 0
N eed
Ġsal aries
Ġen light
Ġgrind ing
Ġcr ushing
ĠSi n
B log
ĠLo a
Ġvir tu
c ourse
ĠRey nolds
cop ic
ex pected
ĠW R
ij n
ĠPrem ium
ic ting
ĠSe bas
Ġw ounds
ĠRea gan
ĠRec omm
Ġexam s
C ur
iz a
A li
Ġh av
ĠRo osevelt
Ġlength s
10 7
Ġbene fi
ĠEthe r
ĠZ ach
ra ns
Ġmar vel
ĠS Y
ĠIn fi
Ġwell being
Ġuniqu ely
Ñģ Ðµ
Ġutter ly
ĠÐ ķ
ĠFe el
anc ies
tr ices
Ġp ens
truc ted
ĠGar cia
ç Ķ
Â ²
graph ic
Ġun anim
ĠPlay Station
ĠW itch
Ġfra gra
Ðº ÑĢÐ°
yn asty
C amp
19 80
Ġcred ibility
Ġserv ants
Ġble eding
Ġrel ied
S ea
Ġremo tely
r Ã©
ĠT ours
Ġanaly zing
B ad
Ġcounter parts
Ġc of
ĠAppe al
ch ard
Ġdemonstra ting
Ġmis unders
shi ft
D IR
Pr ep
ĠTe achers
Ð°Ð½ Ð°
Ġpar te
ĠRe id
Ġphil anthrop
Ñĥ Ð½
Ġro pe
Sor ry
D ialog
Pac ific
Ġneed le
Ġclear ance
G overnment
ĠGer mans
en ic
Ġ Ä
Ġre build
ande z
ĠManufac turing
Ðº Ðµ
L ock
log y
ĠAng els
leg ate
Ġmon op
ĠH air
u y
Ġplan ting
um ed
ĠPrince ton
ĠN ode
z ip
o nic
ĠCa nal
ĠPro ceedings
ĠLib ya
tric ia
Ġbl own
Ġse iz
cond ition
la ne
Ġterri fic
en berg
oph ob
ĠA meric
Ġcoe fficients
F rench
Ġsens ation
s tone
ER Y
Ġosc ill
Ġreserv ation
um per
ĠCha i
Ġd op
ĠA SS
Ġtherap ies
Ġind ie
ĠYan kees
Ġbom bs
Ġpromp tly
ĠOb viously
H op
ne twork
Ġten ant
Ġbudget s
J ac
un ar
Ġkind ness
Ġlive ly
Mar tin
Ġm ounting
ma tive
ĠC hip
Ġpip es
$ $\
ĠWar riors
N um
Ġpack ing
V ector
ish ops
Z E
Ġpse udo
ĠJ esse
under line
ĠD od
dra wn
E r
================ ================
W il
D im
Ġqual itative
ĠH eath
d ia
Ġspec ulation
ga ng
Ġnone theless
ros pace
Ġoff line
Ch ief
Ġassess ing
c lic
ĠJ as
c ock
ĠRec og
Tw itter
10 8
Ġred es
Ġw ool
of ficial
ment ation
= -
par a
ĠLe v
ENT S
ĠFl ag
Ġch ick
Sc ott
o nion
ig nty
ĠH ost
Th eta
ĠSa f
Ġflags hip
Ġdys function
ha k
ĠR SS
n ard
Ġsun light
Ġcritic ized
K im
Ġlear ners
Ġinstall ations
f air
Ġs ne
Ġcompla i
ĠR ip
Ġass isting
Be gin
ĠDis play
Ġ10 7
ĠBloom berg
Ġch ee
ul o
Ġrec alls
is al
Ġcred ited
Ġch im
Ġserv ant
Ġam ateur
Ġderi vative
Ġcomplai n
Ġher b
ĠHea vy
Ġrenov ation
Ġba nner
ĠU ber
ĠBene fits
IS A
se lected
g reat
grad ation
uff y
com ment
Ġmerc y
Ġprem ise
EC K
Ġla zy
tio xid
Ġinh erited
ĠS hr
ĠRen ew
ame ra
a nni
âĢ Ĥ
ĠDun can
ÑĢ Ñĭ
Ġal la
Ġscholars hips
ĠCru ise
aya n
Ġdisplay ing
ĠC og
T oo
ell es
Ġ{ {
ĠDan ish
Ġnea t
Ġcap turing
id os
Ġd ock
0000 0000
Ġair lines
Ġvalid ate
Ġcomputation al
Ġass urance
Ġback drop
l ists
p end
ne ring
Ġcli ps
Ġimp ly
Ġcom me
Ġser um
ver ly
ens ic
aw i
h eor
ĠUnders tanding
Ġpron ounced
Ġsex ually
P ersonal
Ġenc ounters
be k
)) )
anno tation
r and
reat h
d ad
Ġdisapp ointing
J SON
Ġceleb rations
ĠCal endar
his tor
ĠSome one
Ġamb assador
ĠF ol
ĠCoord inator
ĠBlue tooth
Ġdam aging
Ear lier
Ġdirec ting
ĠWal king
Ġpe ro
ĠStar ting
Ġn os
Ġwal let
Ġconc ludes
ain ted
ĠAr med
h orn
Ġfresh man
ĠD ress
Ġins tal
?? ?
Ġcl ue
Se lected
ĠWe bs
Ġ anth
S ex
ĠH our
Ġcons titutes
ĠWri ters
igh teous
ad ers
Ġel astic
Ġneighbor ing
Ġemb ark
Ġlif elong
Ex pression
ĠB ron
d one
[ :
Ġsatis fies
ĠS ugar
iss ue
Get ting
Ġdecr eases
tor ial
Ġsal mon
Ġp unk
Ġsuccess or
Ġprofession ally
ON D
id as
tex ttt
IN K
e ich
imbab we
util s
Ġrhet oric
ra no
v c
ro be
Ġve t
Ġfree ze
" âĢĶ
O O
ta ils
ĠM aps
Ġte les
Ġons et
F iles
Ġher bs
Ġni nth
ĠTra ding
aj ax
Ġp ian
Ġre pe
Ġ4 50
ÐµÑĤ ÑģÑı
ob i
n ton
Ġsemi nar
am ins
ĠFle et
ĠFamil ies
Ġsub strate
ins ert
ev ents
Ġsc o
wal d
r andom
ĠM ali
Ð½Ð¸ Ñħ
ĠG E
Ġc ivic
ĠT ac
Ġp acks
Ġpharm acy
l ene
Ġadm ire
Ġsil k
ĠGlen n
Ġ: )
Ġinv ites
Ġrem odel
ĠFood s
Ġcab inets
Ġcock tail
ĠPatri ots
Ġins ects
ĠH ood
Ġam bition
Ġpoly mer
Ġbench mark
ĠS hen
cul tural
S us
la nce
Ġpass port
Ġstra ng
s omething
ĠK atie
sub seteq
IG H
tu ng
Ġcont ributor
ĠCa non
stand ard
ra tives
Ġtouch down
Ġ$\ {
col m
Ġutili ties
Ġs odium
ff ord
Ma king
ĠH ash
Ġconver gence
ĠS ame
12 7
ĠRoma nia
Ġrif le
ĠMun ich
Ð³ ÑĢÐ°
ÈĻ i
Ġretrie ve
Ġgover ned
L INE
pr us
ĠRec ently
Ð¸ Ð²
Ġtir e
ĠCame ra
Ðº ÑĤ
T ax
Ġfor k
T uesday
ĠDese rt
om ic
ĠOp tim
Ġsub missions
Ġcontinu ity
ĠBirth day
Ġfla w
whe el
tt en
Cent ral
Ñİ ÑĤ
Ġsig ni
termi ned
Ġpo ison
Ġdem entia
ĠZ oo
Ġrig orous
Ġpresum ably
ĠEthiop ia
Ġembod iments
co a
a nces
ĠOw en
ĠAnd rea
Sing le
Ġd ire
Ġin jec
g rim
Ġdesperate ly
Ġfor emost
Ġair ports
Ġp eaks
ĠL ing
Ġacc redited
Ġdel ive
Ġ$ |
Ġener gies
Ġi cons
Ġg ad
4 50
Ġhard est
Ġj avax
Ġco ne
Ġcollec tively
p ark
Ġf asc
ĠW ave
Ġch ron
Ġ19 37
ĠA way
Ġwar fare
Ġread ings
c ents
ĠI tem
Ġspecial izes
Ġdevelopment al
ĠCal if
Ġ aero
; "
ĠBudd hist
Ġfirep lace
ĠAss istance
Ġre jection
ĠP ip
Ġadv iser
illo n
Ġmiles tone
ĠArms trong
Ġwa x
Ġg h
u ated
Ġrel ay
ĠSte am
ĠPri x
Ġcou p
Ġpos ters
Ev ents
ĠCanad ians
Ġelim inating
Ġ19 34
n il
Ġg alleries
B ey
× ķ
Ġe ro
F ont
ĠRet ail
h etics
s cal
ĠEss ay
ĠG rid
La test
en os
Ġpe ar
m il
ĠPublic ations
Ġcon texts
ĠRe ich
Ġper former
ag ge
Ġfound ers
Ġ Äį
Ġprac ticed
Ġl acks
Ġmar ble
Ġtr aces
N ear
ĠDirec tory
Ġd ull
G ive
az i
lo e
Ġla ughter
inte gra
ĠF iles
ĠEv il
Ġvis ually
Ġmonitor ed
2 20
Ġacadem ics
Ġha tred
, [
Ġex ter
Ġsw ept
ĠEnt ry
ĠD ale
Ġs ind
ĠIs abel
s ep
ĠR ent
ĠTh r
Comm unity
Hand le
Ġfl ush
ĠSoc cer
mod al
tis tic
b t
Ġupload ed
k ok
ĠCar bon
ch ing
Ġresearch ing
Ġdisc rete
Ġmi nes
Ġop pose
ĠP eak
Ġrum ors
Ġbroad ly
ING S
Ġtw itter
Ġuns igned
ĠCon fig
Ġuse rname
Ġautom obile
ĠA ber
Ġexplo itation
ĠW ays
M ill
P ool
ĠAngel a
Ġl ith
ĠS au
ĠZ en
í ķ
Ġam ple
ĠSouth west
Add itional
Ġ19 19
ĠBeat les
âĶĢ âĶĢ
ĊĠĠĠĠĠĠĠĠĠĠĠĠĠĠĠĠ ĠĠĠĠ
ĠHy dro
Ġ onion
ra tory
ĠNe ither
la ter
ĠG ross
Ġinc o
Ġt weets
ĠMa nn
ĠH oney
Ġkil omet
Ġhe els
qu o
Ñĸ Ð»ÑĮ
Ġarbit ration
Ġi ro
Ġemer gence
cha nts
Ġbiz arre
P ros
Ġgen ome
erc ise
Ð°Ð½ Ð´
ĠHold ings
tab les
ic z
ashe r
Ġcommun icating
Ġhos tile
ĠR andom
Ġexpend iture
Ġmar gins
ri f
Ġ\ ;
us tion
z ier
ĠEx amples
Ġp H
ro ots
ĠBio graphy
Ġscru tiny
ir al
ĠConsul ting
Ġenvelop e
Ġgl ac
ĠSte vens
Ġreb ounds
Ġm um
* {
ĠTe rm
iti a
Ġguitar ist
uch i
un ci
Ġge ographic
Ġfil med
Ġb urs
ĠCongress ional
Ġ19 10
ple tion
occ up
ĠBar nes
Ġwhat soever
Ġh ated
e val
ter ion
r eq
ĠMart ha
al is
Ġhil arious
ve z
Ø ¯
ES CO
foot note
Ġe mit
ĠPri de
ÑĨ Ð°
set tings
ĠR ica
Ġtrans cription
Ġw ip
o ni
w ent
Ġti ghten
Ġpr ey
Ġsha ping
head ed
ĠS ant
or ia
ti ques
w ig
log i
Ġl ui
Ġb ore
ĠSh ore
ic iary
Ġneuro ns
Ġmetabol ism
imb urs
ĠEvent ually
year s
Ġexce r
v ac
Ġar ises
ĠP osts
ur as
ĠMich el
Ġrev is
Da n
rop ical
pera ture
quis ite
Ġcoord inated
ĠD iversity
ĠF ight
pa nel
Ġrig id
ĠW als
ĠMys tery
u tics
ĠDr ew
ĠUs ually
R oot
gi na
ĠP U
}^{ -
Ġstar ing
ĠB T
=" ../
ĠChang es
Ġb und
ĠZ a
ĠRay mond
ĠGr ande
s elling
Ã¨ me
d k
our cing
ĠDI Y
ĠH off
ĠGib son
Ġwholes ale
Ġsymbol ic
Ġsurge o
Ġprovi nces
Ġcolo ny
Ġsolid arity
ĠT win
ĠSand y
add ed
L ee
Ġwor ries
W ood
Ġconfig urations
}} _{
Ġ+ +
A z
L os
Ind ian
Ġacqu iring
20 23
ĠÐ¿ÑĢÐµ Ð´
Ġmulti p
det ails
Ġse i
e ur
L iving
ĠC ategories
Ġk ine
use rname
13 5
Ġexplos ive
Ġscene ry
ĠF ear
ĠAma zing
Ġam ino
ĠÐº Ð¾ÑĤÐ¾ÑĢ
Ġannou ncing
Ġsurgeo n
ĠF Y
ĠPa tter
ĠW ILL
Ġins titute
land e
it ous
Ġmista ken
Ø ª
ĠN OW
ĠIndian apolis
S cience
ĠTim othy
Ġcoh ort
fi na
ĠD IS
ĠMathema tics
Rem ove
ons o
Ġw ilder
E t
ĠGr oups
Ġincorpor ating
B rian
ĠWi ki
Ġs id
Ġoverlook ed
Ġgraph s
st en
ur ely
ĠD elivery
ĠBur ns
Ġimp la
Ġfeas ible
cond uct
Ġcub ic
ops is
al ion
ĠRes pond
` ,
Ġener getic
Ġhome town
ĠM ale
tr m
Ġd are
Ġexcl usion
Ġe go
I nitial
ĠFound e
Ġresid ency
Par ser
Ġpy thon
Ġexplo it
ic ation
Ġconsul tants
ĠA j
mon ary
ee ps
ĠP and
ĠNe uro
Ġr age
par ameter
Ġoff ence
Subs cribe
Ġchar ities
depend ency
Des ign
qui n
ĠFounde r
Ñĥ Ñĩ
Ġinaug ural
ĠB urn
ar med
Ġby pass
L ow
Ġtransform ing
ĠPor ter
Ġgl am
ĠEp is
lev ard
Bu ilding
Ġrest ruc
Ġr ushing
Ġrel ying
Ġ aa
Ġtravell ed
ve ri
Ġaw ak
Ġinev itably
ĠWe i
cri ber
ĠSol omon
Ġpersonal ities
ab lo
Ġs Ã©
bet ween
ĠA i
ak u
ĠBook mark
Ġblank et
C ast
ĠJ et
Ġcan al
Ġdisappoint ment
En abled
ĠAd obe
Ġcar ed
Ġarchitec ts
ir ements
ĠA verage
Ġtr eas
hri tis
ĠGr eens
Ġori ented
ac ional
ĠCON T
nis tic
IC AL
Ġop io
Ġhier archy
ĠG rad
logi n
Ġor chestra
c ot
Ġbrand ing
op ening
à¥ Ģ
A X
ha g
) _
Ġbirth s
ĠTrea ty
Ġtroub led
Ġliter al
ti gative
ĠApp ly
Ġsad ly
Ð¸ÑĤ ÑĮ
Ġtr ek
e port
ĠL ogan
ÅĽ ci
More over
ĠR unning
Ġsw ap
Ġre bel
Ġblog ging
Ġpota to
Ġsn acks
e lease
ĠShi eld
Ġsca nning
Ġcrypto currency
ĠMor rison
Ġen v
c asting
Ġto wers
1 19
Ġte lev
ol ph
P RE
ĠRec r
Wed nesday
issa n
Ad am
e j
S elf
pro gram
=" /
Ð¸ Ð·
ĠCon nection
Ġsc or
Ġthea ters
Ġsc rap
ie ra
fin ished
Ġprof essors
Ġpreserv ing
ĠOF F
per formance
Ġabsor bed
ari us
ĠR M
ĠAmeric as
M id
ol arly
ĠML B
C V
Ġde ux
Ġup side
Char acter
ĠB ac
ĠVehic le
Ġdetec tive
j Äħ
Ġgest ure
Ġcos m
Ġ[ "
ĠDown town
Ġsuns et
Ġver dict
ĠTr ends
Ġpro ne
ava na
Russ ia
pa tible
S pring
O UT
Ġoverwhel med
oy le
P Y
r ein
Ġs ocket
ul iar
il ion
Ġpa nc
Ġt asty
Ġs ellers
t mp
ĠFort unately
Ġnom inee
ĠGil bert
Ġassocia tes
Ġt hereafter
Sc reen
Ġconstruc tor
Ġcor o
Ġirr egular
ÐµÐ½ Ð½Ñı
ĠTh read
ĠB h
ĠMa z
fil m
ĠA ub
am ic
Ġret ros
ĠDec ision
ĠMy a
ĠS B
ĠBa nking
ĠSpecific ally
ĠR ai
ac ements
Ġsup rem
h idden
Ġbri de
Ġve gan
ĠEn forcement
Ġto nes
ic ies
ĠPen insula
ĠP osted
r elease
Ġfor eg
truc tures
Ġincr ement
Ġmu tations
m idt
ĠK om
U ID
Ġnom inations
ĠProph et
Ag ain
Ġquarter ly
ĠR ural
S ix
Ġin fe
Ġintu itive
ĠL av
al ities
IT ION
w right
ĠNico le
Ġp ediatric
ĠSk ills
ÑĪ Ðµ
19 88
Ġforef ront
e ology
ĠQ ua
ill ary
Ġ10 9
Ġequ ilibrium
Ġfix ing
ĠRel igious
Ġproud ly
ber al
mi nating
X ml
Pe rm
ĠRele ases
ĠWas te
d it
Ġf elo
Ġpas ta
Ġjoint ly
fac ed
red itation
et c
Ġti de
Â §
Ġreh ears
Ġassum es
row t
ia nces
ĠAc tor
ĠAnn ounces
ess a
Ġcoe fficient
Ġqu iz
Ġele vation
Ġdef ender
Ġsl im
Ġconfir ms
Ġdestro ying
ul as
Ġauthor ization
Ġexc lude
enni um
Ġviol i
ĠRef uge
ess es
Ġla ng
uff le
T al
h art
Ġorganis ms
Ġ19 29
Ġg ems
I ran
ĠFA Q
p ages
Ġdecor ative
Sim ple
cle a
Ġrel igions
ru ng
tex trm
Ġpl ur
Ġfath ers
ĠH amp
Ġsched uling
ĠWeek end
v or
Ġwrest ling
ĠF loyd
nce rs
Ġkey words
ight y
ĠAnt arc
De lete
ĠKe rry
Ġcoll apsed
ul ance
Ġemphas ized
ä ½
und o
ĠOffic ers
ĠKind le
Ġasy nc
E conom
Ġro ku
Ġsk ull
ave l
che z
Ġencry ption
ĠFi fth
Ġtherap ist
Ġ19 35
Ñĥ Ñģ
uck land
ri na
Ġdra gon
ĠAdminist rative
ĠY oga
{ "
ĠVa tican
ĠÑĩ ÑĤÐ¾
ĠQu ar
ĠF T
Ġdeg ene
ĠN Z
ĠPro p
Ġsynth es
Ġcar ved
Ġbrow sing
ĠH unting
G H
ĠMc L
ĊĠ ĊĠ
ni val
Ġlat tice
qu id
Count ry
r ece
Ġsh irts
ĠChris tine
Ġorig inated
Ġp ag
Ġcompla ined
ĠAcc ounting
Ġuncertain ties
Ġthro ne
ĠD omin
issio ners
ĠList en
Ġstor ms
tra i
Ġpull s
dra ul
Ġro de
Ġvacci nated
å Ĳ
or ah
G reg
Ġperm alink
ĠL ights
ĠMar riage
Ġd row
Ġprem ie
ĠH BO
Ġsu a
Ġdecr easing
Ġafter math
ĠSa nc
Ġcongress ional
d ens
Ġcha mp
Ġint ends
ĠPro position
Ġcr ust
Ġdress es
ate ll
Ġt hou
Ġqual ification
ĠSim pson
ac count
ĠHis panic
Ġto dd
ĠWa ke
ĠÐ §
ri ka
ĠM N
mar ine
p ies
Ġdis asters
." ,
ĠTh ous
Ġhe ights
Ġsw eeping
ed itor
Ġreproduc tion
ĠF emale
Ġdivid end
Ġdelight ful
ĠS ector
Ġcoo ler
ĠMay a
ĠAp ollo
ĠCarol ine
T rad
Ġdatas ets
By tes
ĠÃ® n
n od
unc ture
Ġvar iance
ATION S
Ġsl iding
Ġun rest
n mar
Ġar r
Ġtrans itions
Ġtw isted
Ġstead ily
Ġf lies
Ġevolution ary
haw ks
Ġunwa nted
Ġembrac ed
Ġs v
pic ture
Ġgr eed
Ġcost umes
oi ning
Ori ginal
ĠExpl orer
ĠF en
ĠB ears
Ġspect ra
ug gle
ĠB rid
Ġpione e
w ikipedia
ĠPsych ia
Austral ia
Ġphotograph ers
rom a
ĠV as
ĠHop efully
ĠLegisla ture
Ġpionee r
a tro
ĠProduc tions
il iary
Ġproc urement
Ġh ards
ĠDev il
Ġtrajec tory
Ġportray ed
ĠTrib une
H ot
r eam
Ġfellows hip
ĠRead y
Ġrecy cled
OS E
Ġhol istic
Ġc ough
Ġconf igure
Ġfear ed
ĠG D
Ġpurs ued
n ier
D ear
c reen
Ġp ave
Ġsettle ments
ĠWest minster
NY SE
Ġadd itions
ĠGuid elines
Î ²
Ġmet allic
ĠBar r
Ã© t
Ġfemi nist
g one
ĠSacra mento
ĠN W
... )
ĠG RE
Ġjoint s
Ġpart nered
Ġhas s
Ġtables p
ĠSa t
Ġsh oo
ĠSim ilar
ĠHotel s
Ġposition ing
ĠY ahoo
Ġclim bed
Ġin fer
Ġover ly
Ġal beit
ĠIn ters
ĠMar co
Arg ument
F oot
ĠTe lec
Ġneg lect
Ġbe ast
Ġlog ged
C ry
Ġactiv ate
Ġfl ame
Ġdom inate
ĠCommun ities
Ġtight ly
ĠH ang
ĠCal gary
mal a
ĠLoa n
ĠK oh
ĠL il
rid a
Ġli ning
os to
ab ad
ĠY emen
ie v
ĠF lo
EL D
rowt h
ĠW ai
mic ro
ĠF IFA
art z
I g
Ġco nced
Ġout puts
Ġb aked
ĠMod i
Ġs ins
Ġdis pro
ra k
ĠV M
Ġcris p
ĠMy t
Bri en
S B
ĠBla ir
Ġh alt
ĠPal mer
G ar
Ġf ridge
- ,
Ġtri vial
e lectric
ĠH os
ÃŁ e
Ġcar toon
py thon
AN C
ica tor
Ġhor mo
ve ries
rib ly
Ġprotec tions
Ġacc ounted
Ġcon fined
Ġstretch ed
Ġhor mone
ord inate
Ġsy ntax
ĠDiv ine
Ċĉĉ Ċĉ
ĠRodri guez
R ender
Ġincom plete
Ġratio s
Ġprosec utors
ĠOk ay
Ġl ob
ĠRe ality
Gr and
Ġdemonstra tions
Ġp ond
ĠNo ah
focus ed
Ġsp am
ĠÑģ Ð¾
ĠMcCart hy
ko n
Ġmis leading
w ould
ĠTw enty
ro wer
Ge rman
Ġbrow s
ate l
te k
Ġ} }
ÅĤ o
d ar
ĠCuba n
ewe r
âĢ Ĭ
AN K
Ġver bal
em entioned
ĠSal v
ĠIm agine
âĢ¦ ..
ĠAdva nce
cou nter
ĠV ideos
ĠHar old
Ġsn ack
Ġmi ns
Ġequ als
ĊĊ ĊĠĠĠ
ecu ted
Ġ atom
Ġ? >
ĠM unicipal
Ġd umb
Ġg room
Ġla nes
Ġfle e
Ġbe have
Ġlight ning
-------------------------------- --------------------------------
ÐºÐ¸ Ð¹
=" _
Ġ! ==
ĠSh ell
A u
Ġsuccess es
ĠD omi
ta ny
F un
Ġ" ,
Ġfair y
Ġaccident ally
Ġins ure
Ġtechn icians
C oll
ĠDi agnos
Ġmer chant
ĠP ie
Ġh ints
Ġnav al
b ons
ĠÐ» Ð¸
Ġexha usted
ur us
Ġcompar isons
ĠDer ek
Ġin appropriate
tch es
ÑĢ Ð¾Ð´
te ps
Ġinter faces
app ly
AT T
Ġadhe r
Ġrequ esting
Ġdev il
^{ -\
Ġdetec tor
Ġform ulation
Ġbar n
Ġfr eight
lin ical
Ġinter fe
art y
b ishop
Tra vel
head s
Ġpro g
class es
rom agnetic
h eology
Ġf ucking
Ġemphas ize
Ġboard ing
Ġavera ged
ens is
s ix
ĠDist ribution
Ġtaxpay e
Serv ices
Ġtaxpaye r
ĠDis cussion
Russ ian
ala nces
Ġarti facts
ĠFor mat
Ġwar n
F rance
Ġinv asive
ĠM Ã¼
Ġdoub ts
Ġreproduc tive
Th ird
Ġ$ [
ĠRe i
eal ous
ĠÐ¾ Ð¿
Ġj ed
Ġne ut
S arah
S K
r eport
Ġple a
Ġinv ar
ĠId entity
wri ters
Ġs ab
h ide
Ġprec au
ĠBill board
ĠE valuation
ĠD ry
Ġsens ible
ĠNot r
ong e
Ġun law
' ))
Ġsob r
Ġfactor ies
zz i
P LE
Ġstor ing
Ġtoma to
Ġp ea
Ba nk
Ġr uin
gr ass
Ġair ed
Ġaccele ration
ĠST EM
S omething
ĠAgricul tural
Ġh obby
Ġretir e
ĠNotr e
em pt
Ġsor ted
pr ef
ĠL ecture
Ġin tes
Rec ently
Ġtie r
Ġt ensor
Ġ2 30
IS E
ta d
c b
N i
Ġru ins
Ġpat ents
Ġmic rowave
fer e
ĠAnn ie
ĠEmb assy
Ġtun es
Ġtw eeted
ĠR eds
Ġspi nal
ĠEx pert
M rs
ista ni
................................ ................................
Ġprob able
nt u
Ġafor ementioned
c as
ĠRe ti
ĠL az
set minus
man ent
V ert
Ġsexual ity
ĠD ental
tal k
Ġres igned
Ġcompr ise
: </
ĠBer ry
w d
Ġmar tial
Ġteach ings
19 87
ex c
sh are
Ġmanip ulation
Ġmons ters
ant ha
Ġc ables
Ġdar ker
ĠLou ise
Ġdis ta
ini tial
tine z
H ol
ĠRes cue
dri ver
11 4
ro o
ĠV P
tr u
Ġdis able
ĠR N
ĠDep ression
Ġt heor
ĠR oc
Ġexped ition
Ġres olutions
Ġpromo tions
ĠPop ulation
na h
ĠCons equently
link ed
Ġà¤ ķ
G s
N ING
Ġsuspic ion
Ġdeleg ation
de al
Ġnit rogen
rai rie
Ġvan illa
Ke vin
op lus
ĠTop ics
less ness
I con
Ġum br
eq n
Ġhous ed
Ġval uation
Ġw ishing
Ġver tices
Ġn ou
m n
ĠJ S
Further more
Ġband width
I mm
Ġin ning
Lib rary
Ġprosec utor
Ġsobr e
Ġnutri tional
fe ed
ĠF ans
ĠHend erson
control ler
Ġris en
Ġbomb ing
Ġfier ce
lear ning
ĠNur se
Ġtri angle
Ġno tifications
gene rated
FI LE
trai n
Ġey eb
Ġinf ants
Ġlad der
ĠL opez
Ġpl ag
Ġdra fted
Ġinc urred
Ġover time
Ġde rive
ĠC ards
W rap
ic hi
ra ts
v ian
Ġthri ving
Ġrevel ation
ĠKe r
Ñ ķ
Ġabando n
Ġbe verage
ĠPa tient
ĠE ra
ĠH ua
ĠDec laration
cons cious
ĠExhi bition
r unning
Dir ectory
ĠAndrew s
ĠS kin
Ġemp loys
B IT
le ys
Ġgu iding
ĠS olution
ĠTra iler
ga ting
Ġant enna
han ol
hre r
ĠProcess ing
ĠS V
Ġin box
ticul tural
phi ns
d agger
Ġf oul
V EL
Ġ19 15
h ell
Ġencoura gement
Ġfi nes
Fa t
à¤ ¨
ĠSig nal
ĠFor bes
Ġred und
Ġwilder ness
Ð Ľ
it en
S en
Ġturn over
Ð² ÐµÑĢ
Ġprota gonist
âĢ Ĳ
Ġlear ns
Ġki n
ĠE rn
Ġwave length
Ġinsu fficient
ĠFund ing
Ġw ie
Ġresid ual
Ġfinal s
Ġcoll ar
Ļ Ĥ
h of
Ġpatch es
Ġprojec tions
ĠAthle tic
Ġqu icker
ma terial
Ġcorr ected
ĠF it
li ner
oth ic
xim ately
Ġms g
ĠH amb
ĠCh es
pri nts
ĠEmi rates
Ġe uros
Ġobserv ing
ĠGu inea
Ġbl acks
Ġano nym
ĠNews letter
ass i
Ġintegra ting
line width
ĠSpecial ist
greg ation
Ġrou ter
mit t
ar u
Ġbac terial
Ġpri nce
Ġto e
ĠRuss ians
Ġch olesterol
Ġunder going
Ġcr ashed
Ġfulf illed
Ġun belie
Ġos te
Ġamaz ed
Ġr ider
Ġadop ting
ren a
Ġeine m
ĠÐº Ð°
m un
ĠC it
Ġ12 7
F s
Ġignor ing
Ġgif ted
ĠBeng al
Ġyear ly
Ġinadequ ate
t heir
ia tive
Ġd awn
Ġen gra
Ġge ographical
z t
lo qu
elle ry
a nche
gh ton
Ġhe y
iti gation
ĠPoint s
r ally
ĠRub y
ĠK urt
ĠPa nama
Ġsoc i
ist as
Ġj eans
Ġno tices
xi n
11 6
Ġno tation
Ġlear nt
Ġp s
ay ette
Ġwas ted
Ġsuperv isor
el n
Ġstar ed
it ating
Ġglo ves
D ist
Ġvoc abulary
Ġenthusi asts
Ins ide
F ocus
ĠImm un
un ion
ring s
ver e
/ ?
Ġ ak
ĠFurn iture
Ġrook ie
Ð» Ñİ
w edge
Ġed itions
Ġpredominant ly
ĠS ample
Ġnight mare
Ġpro min
Ġpay able
S ET
ĠBo a
Rad io
ĠCO MM
n tioxid
Ġmiti gate
a ntioxid
nav bar
Ġdesign ation
Ġdef ended
Ġup ward
ĠShip ping
f c
ĠMya nmar
B os
ĠJ O
ĠRichard son
(" #
ĠPlai ntiff
Matt hew
Ġ" \
Ġanti body
A H
Ġpret end
ĠVis ta
ex ception
Ġclass ics
ĠJ ak
Ġres pects
ĠRock y
id ates
11 3
am ount
Ġma iling
ĠB il
ĠL LP
per m
' \
b ly
hur st
Ġr us
T em
Ġex agge
ĠE g
ĠIo T
ĠW ireless
Ġfra med
Ġparliament ary
Ġrecogniz ing
Ġl ion
Ġs hat
ĠCar roll
Ġmir rors
W D
ĠO vers
ĠZ i
ug ges
ĠTh ing
ĠMon ica
n tis
Ġclos es
let ters
ela ide
Ġscream ing
á »
Ġ19 16
amil iar
tima ted
trans form
Ġim perative
ĠMi nim
Ġdess ert
ĠEncy clopedia
Ġexem ption
bal ance
ĠAb original
G N
M Y
Ġsli pped
Ġenjoy ment
b ital
D ou
Ġdefini tive
ĠFac ility
Ġreserv ations
Ġl owered
ĠSch eme
ĠP interest
Ġasy mpto
ĠSupe rior
ĠS ister
Ġceram ic
Ind eed
ĠIm portant
j ab
Ġanticip ate
Ġar ro
Ġcommod ity
Ġinf amous
ĠKen neth
11 7
ĠIN C
Ġtum ors
o nions
I AN
Ġk ings
hol ics
Ġpol ite
pos ite
Ġbelong ed
X ML
Ġco operative
S enior
A Z
Ġmight y
ĠW ool
Add itionally
or se
Ġteam mates
Ġinc ub
ould e
Ġcri tique
ĠAb use
Ġadvance ment
Th ings
19 86
arthe r
for cing
ĠTrad itional
99 9
Ġdet ained
Ġ3 000
Ġwo ke
Ġbel ly
ĠS ens
Ġmon itors
Ġ anne
Ch icago
ff ield
ĠC lea
Ob j
ĠSh aron
ĠE co
ĠDep t
FA ULT
LO G
el ed
ĠAlterna tive
Ġpop ul
Ġdance rs
l iga
ĠIN TER
cover ed
Ġgeomet ric
\ }
ĠInj ury
Ġhands ome
Ġqu a
p ire
Ġmiss iles
20 2
Ġrecover ing
Ġstra ngers
ĠD ating
Ġae rial
ĠG ear
ewe ry
Ġrevers ed
ĠOpera ting
Ġn p
19 85
Ma jor
Ġmean while
ac tors
fund ed
aint enance
ica tes
ĠCa fe
Ġdis sertation
Ġ( $\
Ġdec isive
ĠF lex
ter ror
ĠBur g
Ġsal vation
ĠEngine ers
ĠCond ition
Ġad missions
J ava
Ġden otes
z ar
Ġground ed
Ġcur tain
Educ ation
Ġstic king
Ġsing ers
p adding
omed ical
Ġvill ain
Ġm ars
Ġsimilar ities
ĠI EEE
ex ecute
oulde r
ĠKn ights
hi es
ĠMerc ury
Tex as
ĠSil icon
IC A
Ġcomp ile
Ġminor ities
Ġuni fied
Ġexplan ations
any a
ev or
Ġen um
Ġtw entieth
ula tors
Ġind ef
ĠCrush e
Ġcustom ize
Ġhistor ians
ĠC oo
Ġignor ance
Ġworry ing
ĠCri m
_ *
Ġcomp ilation
Ġtas ting
ĠShe et
izo n
ĠH oo
Ġmar itime
ric ular
ĠKash mir
ant es
Ġdefini te
asse r
Ã¶ n
ĠT B
ĠCrushe r
Ġroutine ly
Ġstri ps
op ic
ĠCol onel
Ġex tern
Ġsha king
cl osure
Ġ antioxid
Ġ onions
Ġbath rooms
ĠN ixon
ĠDef ault
Ġsup porter
ĠB oss
en y
Ġkey word
Ġgra mmar
rep res
U ntil
ĠJama ica
Ġswitch es
ar ta
ĠK iss
our g
Ġp ÅĻ
ĠAb bey
Cons ider
amb oo
ĠN T
ĠCour ts
Ġsigna tures
ĠK ai
Ġinexp ensive
ĠActiv ities
ces ter
ec raft
2 40
Ġemb ro
ĠTr easure
Ġâ ĸ
Ġflav our
L java
Ġad orable
Ġre hab
Ġreal izing
ĠCur tis
Ġexce eded
Com plete
Ġgate way
Ġaccomplish ments
Ġpref ix
ĠS ites
Aud io
ta tor
ĠWi Fi
Ġr h
Ġhalf way
ĠTh ir
ph ase
ĠAc ts
ĠWW E
Ġreal ities
C opy
ux e
aster y
Ġind uce
Ġcompos itions
Ġoverl ap
Ġtur bul
Stand ard
Ġoptim ized
F uture
Ġcons cience
Ġ Ċĉ
Al ong
xo n
Ġhom emade
Ġr ighteous
Ġma ng
Ġf aint
ĠFerg uson
ĠOp ening
Ġeconom ically
Ġf eat
ĠH ack
Ġ" <
Ġpr ema
Ġappe tite
Ġr ust
ĠApp arently
ĠPar ts
Ġto kens
Ġ% }
In v
Ġstim ulus
With i
Ġlone ly
Contin ue
p od
ĠOuts ide
Ġlives tock
Withi n
Ġab used
ar is
Ġen acted
TH ER
man agement
Ġf atty
uc us
us ts
OD E
char ge
Ġsurpr ises
n ad
log o
ĠAu tom
Ġinc lined
ĠRh ode
Ġdis com
ĠA ges
is ors
ĠTra vis
ĠSex ual
ĠGen esis
Ġreal ization
ĠWind ow
G al
Ġh over
ĠPub lish
Ġg odd
k ha
E rr
Ġcrush ed
p ens
ĠF itness
ĠMel issa
r ne
oll ary
sch ema
Ġres ting
ĠVlad imir
Ġdura bility
Ġapp ra
ĠK ha
Stud ent
Ġcas inos
ĠLO VE
Ġale rts
Ð ¤
ĠGram my
Ġcompliment ary
ti ner
à¤ Ĥ
ĠG ren
Ġgra p
res earch
Ġsla ughter
final s
Ġfilm maker
-------- ----
Met adata
ta kes
ĠPro bably
Ġmet ro
000 1
ĠD one
ĠKa ne
Ġf al
pro perties
ĠCy prus
Any one
ĠInves tigation
ĠMa kes
ins pired
Ġte l
Ġm ens
Ġconce ived
ĠMP s
M IN
ĠY o
pos itive
geo n
ĠB right
ĠK ol
Ġp ains
16 8
ĠStep hanie
In ternal
ĠPay ment
Ġanti bodies
ĠT C
Ġselec tive
k ow
Ġrain fall
up iter
ol ent
_ ;
S ir
Ġd eserved
Ġcollec tor
ĠL ocated
ĠG it
Ġd or
Ġtra y
Ġcrew s
c reated
Ð· Ð¾Ð²
ĠBr enda
ella nt
ĠBry ant
Ġv ague
Ġapp end
ĠCol lections
State ment
tr l
Ġgovernment al
nch ester
L ocated
Ġgra ms
Ġco ps
Ġind ices
g ri
s ys
ĠRe ader
Ġacquis itions
ĠCas ey
u o
Ġaccele rated
ĠPeters burg
ĠCom ic
P F
Ġch ees
ĠMo ving
I ll
t te
19 84
ĠÎ ±
Ġma nkind
Ġxml ns
^ ^
ĠSc ore
Ġcatal ogue
Ġclass rooms
h il
ĠPat ent
Ġapproxim ate
ĠFea ture
Ġpublic ity
ãĥ ¼
aranti ne
Ġun le
Ġs ophomore
Ġj ealous
ĠK E
ĠK end
ĠCal c
E ss
Ġpour ed
equ ency
Ġl enders
Ġj umps
Ġbe es
b ay
Ġcr ore
Ġveget ation
Ġ19 32
avi n
Ġhe x
Ġdele gates
ĠP G
laim e
Ġi teration
ĠDep ending
od ore
s ort
Ġrel ent
17 0
ric ks
Ġthreat en
ĠFort une
ven tional
ĠSa nti
Ġsovere ignty
sty lesh
Ġf als
ha gen
Ġpreval ent
Ġpec uliar
iti sm
ley ball
Ġsto c
ĠV IP
and ing
Ġneg lected
Ġcopi ed
Ġste ms
W ord
Ġscatter ing
Ġma ternal
ri ad
D eath
ĠP ure
E ver
laime r
N BC
te b
Ġfri ed
ĠE A
mm etric
ar ts
ide red
__ (
ĠMa ng
M ock
Ġcongreg ation
Ġneglig ence
Ð¾ ÑĢÐ°
Ġt heology
ĠA uth
Ġste aling
Ġcompara tive
Ġpl umbing
Ð± Ð¸
ĠAz ure
Emp loy
ĠD omestic
Ġde gradation
Ġl itter
Ġpol ished
ĠWH ERE
Que ue
Ġpl edge
Ġsc ent
ĠRel ief
Ġenvironment ally
fi elder
Ġcer eb
Ġe u
ĠSh ut
hentic ation
bat h
ĠAp ps
Sec ret
ov ic
N ative
Chi nese
ĠR um
Ġst ark
Ġtrans gender
ĠCr icket
ĠJen kins
pol y
ĠR emote
Ġre ef
As h
truc tural
By te
Ġselec tions
Ð° ÑĢÐ°
c lo
Ġpot ent
ema ntic
ĠB less
za n
ĠÐ± Ñĥ
g ro
Ġinstruc ted
Ġcand le
na nts
us k
ĠM am
Ġemp athy
ĠC ec
Ġhear ings
Ġ13 5
Î º
A rea
ĠGover nance
Ġcor ps
Ġwel comes
g ated
Ġtour naments
Ġbe ha
Ñĭ Ð¹
ĠJ es
Ġadj ustable
Ġexc av
Ġex e
ĠN ames
Ġgl uten
Ġfe rry
` .
Ġtr act
Ġper turb
ti ni
Ġref using
ĠL G
Ġst ur
Ġgra ins
Ġinval uable
Ġmetabol ic
est ry
ĠF I
Ġcompa nions
Ċĉĉĉĉĉĉ ĉ
Ġpat ron
Ġref uses
ĠDra ke
Ġcomm issioner
Ġd well
Ġplace holder
ĠA mp
19 70
t ts
ac hable
ĠS uff
w hy
ĠCha ncellor
ang a
Ġpar as
Ġop ener
ĠElect ronics
ope rate
Ġinflam matory
Sum mer
Ġbr ew
Ġfulf illing
Ġrug by
ĠC lem
ĠHero es
ĠM Ã©
ad j
T our
wer e
ok a
Ġpor ch
rig ation
Ġcy linder
z zy
Ġport raits
C lim
us age
Ġpo iso
ev ity
Ġprolong ed
que z
Ġte asp
y ards
Ġnar ratives
Ġaccum ulated
Ġdestr uctive
ĠR emo
Ġtub es
atell ites
Ġf oil
Ġjud ged
Ġh airs
Ġex quisite
Ġcl ash
ĠJ ill
. **
ous es
Ã¤ nd
Ġdepend ency
ĠWy oming
Ġp ills
om acy
Ġhead ers
Ð½ Ð¾Ð¼
ĠR EC
Ġmir acle
Ġen vision
Ġcondem ned
tili ties
n p
Ġdeb ts
Ġre imburs
Ġcont ributors
En joy
lec tic
Ġderi vatives
utic als
Comp any
mus ic
man ager
ĠMons ter
ĠH eather
Ġcred ible
Ġrec ap
E q
Ġcer tainty
Ġresign ation
U nders
Ġle vera
ĠChai n
g rowing
ĠC ord
ĠSuper man
ĠD w
Ġ( #
Ġdiscip les
20 1
ĠAd ap
f urt
ĠÃ© tÃ©
ĠWho le
ĠK lein
ĠOut door
_ +
amb ia
ĠB ren
Ġcot tage
Ġden ying
Ġreg istry
ĠM oss
Ġ oder
Ġper missions
Ta king
ly s
Ċ ĊĠĠĠĠĠĠĠĠĠĠĠĠĠĠĠĠĠĠĠ
ĠRE AD
Av ailable
Ġdi nos
ĠCong o
ord able
Ġpitch e
ĠV II
els en
ĠP ara
Ġpitche r
ĠHai ti
Ġdec lining
Ġf ocal
RE CT
ĠO bs
Ġapp les
prof its
ĠH orn
Hen ry
Ġbal ancing
m om
ĠU TC
Ġun predic
ĠD oll
ĠSa tan
Step hen
Ġbl amed
Field s
D aily
ĠR ising
ĠRug by
ĊĠĠĠĠĠĠĠĠĠĠĠĠĠĠĠĠĠĠĠĠĠĠĠĠĠĠĠĠĠĠĠĠ ĠĠĠĠĠĠĠ
ĠAch ieve
Deb ug
sha pe
Ġcrash es
ody nam
pos s
ĠZ imbabwe
Ġ ÈĻi
L ED
ĠPack age
li ft
graph ical
Ġvi be
y en
Ġrem embers
Ġrefer enced
Ġ anta
f ty
ĠM eyer
Ġdoub les
Ġanti que
ĠB ing
Ġspeech es
Ġparadig m
Ġspi nning
ĠDev ice
ĠGa t
Ġstretch ing
ĠF olk
Ġsovere ign
Ġm utation
Ġfrag ile
P or
ĠBu ilt
Ġ" '
Ad va
li ter
Ġresona nce
Ġcul inary
ĠB rent
Ġter race
ĠÐ² Ð¾
ĠNor mal
Ġstress ful
ĠM M
ĠJos Ã©
Ġfra gments
Pass word
ĠÐº Ð°Ðº
ĠGriff i
ur ry
ĠM ueller
ĠB P
Un like
ĠP ER
Ġchop ped
ia z
ĠS ey
Ġsoc iet
ĠRoll ing
Ġin acc
ĠC oup
Ġpic nic
u ki
l r
ĠMo hammed
ĠG io
ĠT S
Ġbi odiversity
Ġr ag
ĠLaw yer
ĠGriffi n
Ġwhere by
zer bai
Ñĭ Ðµ
Ġpredec essor
uss i
emiconduc tor
Ġsna ke
Que en
J ud
om orphism
Ġcy bersecurity
Ġpri ncess
Ġadap tive
Ġf Ã¶
ĠMur der
Ġw ird
Ġf oi
z ers
Ġover flow
ĠAd vertising
opa thy
ĠPeter son
Ġexem pl
Ġc ass
Ð Ĺ
Ġinter acting
Ġlaws uits
Ġblog ger
Ġref usal
R R
Ġmem oir
oo oo
li hood
za nia
idel ity
ĠEx c
ou rage
Ġv ag
Ġhar bor
Ġba ts
Tr ace
phi es
s to
Ġcorrid or
Ġnow adays
Ġadequ ately
p it
Ġ19 28
We bsite
ĠRep air
ĠD uty
ĠGu itar
ĠTeam s
M ove
b irth
Ã¼ ck
Ġb illing
ĠW ik
a nter
Ð¼ Ñĥ
Ġuncons cious
ĠOut look
ob o
Ġrespond s
Ġconta mination
Ð¾Ð³ Ð¸
ĠD W
Ġox id
if ty
St rate
Ġunder mi
ĠR ew
H I
B ean
Ġ airs
Ġrein force
Ġfut ures
Ġins ist
ĠApp endix
ĠWhat s
ĠBris bane
Ñĸ Ñı
quis ition
F low
qu ette
Ġk om
am bi
ich te
Ð½Ñĭ Ð¼
Ġper ceptions
Ġc emetery
id ade
Wi n
ques tion
ĠH M
Ġfix tures
ĠS ets
F ast
ĠF ut
ĠN ike
Ġfundament ally
ĠW OR
Prof ile
11 8
Ġrecru ited
are z
Ġfree zing
ĠN obody
M ix
ĠTh eme
Bes ides
ami nation
ĠPo or
Ġma turity
AL E
ĠCar son
ĠRom ance
Ġtat too
Sta y
ĠT ang
Ġhapp ier
ĠCr eam
Ġw ires
ble r
Ġ owe
Ð¾ÑĢ Ð¾Ð´
Ġecos ystems
22 5
Ġg ases
ph il
ÑģÐºÐ¸ Ñħ
ĠD est
ora n
12 1
ĠS ons
ĠV iv
' _
ion a
vis ible
ĠRom ans
ĠLa tino
ĠMo lecular
ĠB eer
Ġ ĊĠĠĠĠĠĠĠĠĠĠĠ
Ġ ain
ĠDav ies
preh ensive
s us
Ġaccum ulation
Ġscal ar
pla tform
Ġcommit ting
Ġflu ores
and ro
Jos eph
ĠLie utenant
ĠH ag
Ġop ted
ĠF ou
Ġdispl aced
Ġintention ally
we ed
ĠPers ian
Ġamplit ude
et to
all o
ĠC able
Ac t
ĠL it
Ġsea food
_{ (
ĠMid west
In valid
Ġprof ic
is ite
elling ton
K i
truc tions
ĠEXP ECT
ĠW ade
Ġmod ular
ĠClaim s
Run time
Ġf uck
ECT ION
Ġ19 11
ĠHer bert
ĠRe fer
Ġcorrec tions
Ġcong rat
Ġal ly
Ġattr acting
ĠS ina
pl aces
Ġspring s
T hink
ĠMethod ist
ĠC red
Ġ ted
T ell
Ġsum s
O uts
ĠPre view
Ġsuccess ive
/ -
Ġn ails
Ġcho ir
Pack age
ĠHealth y
crip tive
lich en
ĠCor onavirus
ĠM AR
Ġnegoti ating
it ars
ĠConf ede
Ġch ess
Ġemploy ing
Ġca nt
Ġcr unch
ĠAp ache
illa n
Ġob server
Ġillness es
ĠB end
ĠAtt ack
ĠR ut
ograph ics
R en
Ġmane u
Ġlung s
ĠRe porter
Ġsix ty
S to
ĠIns titution
c ale
Ġhel m
ĠBo ot
ĠQu i
ci ously
Ġank le
Ġplaintiff s
miss ible
s ample
it ures
ĠField s
ĠO g
ST AT
ri z
ĠMor occo
d id
ĠCor nell
* ,
Ġton nes
produc tion
Ġprivile ged
i Ã³
Ã± os
ĠH ers
ĠG ur
Ġsea ted
bu ntu
per ing
Ġsur render
Sm art
ĠA uckland
Ġscen ic
it ant
Ġtang ible
Ġsuccess ion
Ġsti p
l asting
Ġback wards
Ġ9 11
Ġperiphe ral
Rep ository
wor kers
Ġn asty
Ġenhance ment
az ione
Ġbra ke
ĠS inger
F ederal
tan bul
Rec ent
Ġcli ff
cl ub
run ner
Ġdept hs
Ġske p
Ġtr unk
Ġseam less
=" "
Ġirre levant
Ġche rry
' }
Ġun author
ĠE yes
wi fe
Ġqu asi
la ir
r ell
ĠVietnam ese
ros ity
ĠElli ott
Ġinter nally
ĠSh ot
b itor
Ġd war
accep table
g eant
ĠAd rian
Ġpro ps
Ġgl ow
g ens
L T
Ġast hma
Ġsto ve
pl ess
Ġs enator
La ter
Ġwork flow
Ġcompeti tor
Ġzo om
Sc ope
ĠH ilton
ĠHand book
OD O
Ġ2 10
ĠCh art
Ġma nga
ĠSc ale
ÐµÑģÑĤ Ð²
Ġj ur
Ġg az
fl ower
AD E
ĠT M
Wa it
M uch
Ġl asts
Ġcho oses
n ker
ĠD ES
Ġun aware
ĠJa net
AC C
Ġhon esty
ĠM ela
Ġma trices
Ġlo os
Ġ anni
ĠÐ¸ Ð½
Ġhistor ies
ĠGand hi
ĠParad ise
ta it
r ele
Ġincar ce
Ġbl owing
ING TON
Ġf arther
Ġconf ront
17 5
Ġpredic table
Ð» ÐµÐº
resent ation
Ġvari ability
ĠExt ension
ĠE i
ha ul
eath ers
US D
Ġdig ging
Ġpay roll
Ġm Ã©
Ġbea n
Ñ Ļ
ĠMal colm
Ġlater al
Ġde viation
Ġ ],
R eb
acc ine
Ġthea trical
Ġsh ooter
Ġprejud ice
com plete
uck et
Ġba ke
ĠO ffer
Ġdenti st
ĠV ine
ĠWag ner
ĠSp eaking
Ġconver ting
ugg ling
om ics
ĠR iley
Ġun ter
Ġincorpor ates
Ġsqu ares
get Element
Ġpop ulated
ĠDer by
ĠPr ices
kins o
enni als
Ġn m
Ġnine teenth
ĠTh em
Ġbreath taking
ĠPub lisher
t l
Ġadvertis ements
Jo hns
ric o
Ù İ
Ġ[ ...]
arr ell
Ġkind a
ĠUp dates
Ġin ception
Ġra z
Con nell
m is
Ġio n
Ġ aka
ĠMir ror
M ex
Ġfla ws
kinso n
ring ing
Ġbalco ny
ĠBou levard
ral a
Ġab rupt
ĠVis a
ĠWa it
Ġfi bers
Ġb ullying
Ġr all
ĠDa na
F ire
oc ative
Ġover looking
Ġpri mitive
ĠMar athon
Or ganiz
Ġal titude
Ġ ont
Ġsup reme
Ġal lev
ĠBreak fast
To String
G irl
Ġcohe rent
li f
Ġox ide
Ġmal icious
it ud
ĠF inding
Ġw olf
M eta
W ay
ĠCor i
ĠAdvis or
ĠAdminist rator
ĠEd it
ĠU m
Ġmar athon
ĠAny way
Ġlo ops
var iant
Ġ19 25
w anda
Ġsimilar ity
Ġsta kes
Ġcharacter ization
b ic
Ġconce ption
Ġm p
Ġpar ental
12 9
mer ci
Connec t
ĠJ ets
U AL
lu x
Ġl bs
ĠAd j
O F
ĠP is
Ġche r
res ources
ĠS it
ĠD ial
ĠBudd ha
ĠSh ares
Ġcor related
DA Q
F red
Ã¥ r
ry lic
Ġn aming
ĠBern ie
ĠAdvent ures
Ãª me
Ġcom eb
ĠPent agon
ors che
Ġsimpl est
Ġz ijn
of tware
Ġg iants
Ġback ward
ĠCh icken
B rad
ĠBur ke
Ġwho ever
ĠP ART
ĠSus tainability
Ġd ug
P rop
c ong
en able
Bet ween
ys ts
Ġinc umb
Ġble w
Ġsymm etric
Through out
Ġph y
ĠH ttp
Ġimpriso nment
Ġcolo nies
Ġgra nite
Ġ atro
ĠC opy
ĠS em
po ke
Ġsuns hine
ĠT ik
il ight
ĠB rett
Ġu it
ĠPed ro
Ġ19 31
12 4
ĠH ep
Ð· Ñĭ
ean ut
en abled
ĠÑĤ Ðµ
ess ing
Ġpractition e
en ary
Ġl end
Ġch orus
Ġpractitione r
H ER
ĠJava Script
Ġmulti tude
ĠÑģ Ð²Ð¾
ĠNor folk
Ġmin ia
ĠUS C
Ġtrack ed
Ġma ter
ĠJournal ism
Ġiss u
Ġimpro per
Ġindirect ly
b row
ĠCor ner
Ġr end
Ġhy pe
b ard
Ġtor que
Ġinter fere
a we
ĠAr chae
Ġha ts
ĠS AP
Ġlot tery
circ le
ig ne
p us
Ġfab rics
B UG
IT ED
ar ms
get table
que ue
Ġdefic iency
UT C
uch ar
Ġris ky
Ġhazard ous
ĠT roy
Ġg inger
ĠRo chester
Ġr im
2 30
j query
Ġnega tively
Ð³ Ñĥ
ĠPow ers
ÑģÑĤ Ð²Ð°
to v
ĠA hm
ok ia
Ġm otors
Ðº Ð¾Ð½
n board
ĠEx po
uc le
Ġhug ely
Bey ond
Ġface book
ĠS ally
Ġend uring
Ġendors ed
es tic
Q a
ĠF lat
iga tor
S EC
Ġobs essed
Ġca ncers
han tom
b ands
Res ources
ĠSur face
Ġsle eve
Ġ19 12
Ð¾ Ñı
[...]
