{
  "version": "1.0",
  "truncation": null,
  "padding": null,
  "added_tokens": [
    {
      "id": 0,
      "content": "<|pad|>",
      "single_word": false,
      "lstrip": false,
      "rstrip": false,
      "normalized": false,
      "special": true
    },
    {
      "id": 1,
      "content": "<|startoftext|>",
      "single_word": false,
      "lstrip": false,
      "rstrip": false,
      "normalized": false,
      "special": true
    },
    {
      "id": 2,
      "content": "<|endoftext|>",
      "single_word": false,
      "lstrip": false,
      "rstrip": false,
      "normalized": false,
      "special": true
    },
    {
      "id": 3,
      "content": "<|separation|>",
      "single_word": false,
      "lstrip": false,
      "rstrip": false,
      "normalized": false,
      "special": true
    },
    {
      "id": 4,
      "content": "<|unkown|>",
      "single_word": false,
      "lstrip": false,
      "rstrip": false,
      "normalized": false,
      "special": true
    },
    {
      "id": 5,
      "content": "<|im_start|>",
      "single_word": false,
      "lstrip": false,
      "rstrip": false,
      "normalized": false,
      "special": true
    },
    {
      "id": 6,
      "content": "<|im_end|>",
      "single_word": false,
      "lstrip": false,
      "rstrip": false,
      "normalized": false,
      "special": true
    },
    {
      "id": 7,
      "content": "<repo_name>",
      "single_word": false,
      "lstrip": false,
      "rstrip": false,
      "normalized": false,
      "special": true
    },
    {
      "id": 8,
      "content": "<reponame>",
      "single_word": false,
      "lstrip": false,
      "rstrip": false,
      "normalized": false,
      "special": true
    },
    {
      "id": 9,
      "content": "<file_sep>",
      "single_word": false,
      "lstrip": false,
      "rstrip": false,
      "normalized": false,
      "special": true
    },
    {
      "id": 10,
      "content": "<filename>",
      "single_word": false,
      "lstrip": false,
      "rstrip": false,
      "normalized": false,
      "special": true
    },
    {
      "id": 11,
      "content": "<gh_stars>",
      "single_word": false,
      "lstrip": false,
      "rstrip": false,
      "normalized": false,
      "special": true
    },
    {
      "id": 12,
      "content": "<issue_start>",
      "single_word": false,
      "lstrip": false,
      "rstrip": false,
      "normalized": false,
      "special": true
    },
    {
      "id": 13,
      "content": "<issue_comment>",
      "single_word": false,
      "lstrip": false,
      "rstrip": false,
      "normalized": false,
      "special": true
    },
    {
      "id": 14,
      "content": "<issue_closed>",
      "single_word": false,
      "lstrip": false,
      "rstrip": false,
      "normalized": false,
      "special": true
    },
    {
      "id": 15,
      "content": "<jupyter_start>",
      "single_word": false,
      "lstrip": false,
      "rstrip": false,
      "normalized": false,
      "special": true
    },
    {
      "id": 16,
      "content": "<jupyter_text>",
      "single_word": false,
      "lstrip": false,
      "rstrip": false,
      "normalized": false,
      "special": true
    },
    {
      "id": 17,
      "content": "<jupyter_code>",
      "single_word": false,
      "lstrip": false,
      "rstrip": false,
      "normalized": false,
      "special": true
    },
    {
      "id": 18,
      "content": "<jupyter_output>",
      "single_word": false,
      "lstrip": false,
      "rstrip": false,
      "normalized": false,
      "special": true
    },
    {
      "id": 19,
      "content": "<jupyter_script>",
      "single_word": false,
      "lstrip": false,
      "rstrip": false,
      "normalized": false,
      "special": true
    },
    {
      "id": 20,
      "content": "<empty_output>",
      "single_word": false,
      "lstrip": false,
      "rstrip": false,
      "normalized": false,
      "special": true
    }
  ],
  "normalizer": null,
  "pre_tokenizer": {
    "type": "ByteLevel",
    "add_prefix_space": false,
    "trim_offsets": true,
    "use_regex": true
  },
  "post_processor": null,
  "decoder": {
    "type": "ByteLevel",
    "add_prefix_space": true,
    "trim_offsets": true,
    "use_regex": true
  },
  "model": {
    "type": "BPE",
    "dropout": null,
    "unk_token": null,
    "continuing_subword_prefix": null,
    "end_of_word_suffix": null,
    "fuse_unk": false,
    "byte_fallback": false,
    "ignore_merges": false,
    "vocab": {
      "<|pad|>": 0,
      "<|startoftext|>": 1,
      "<|endoftext|>": 2,
      "<|separation|>": 3,
      "<|unkown|>": 4,
      "<|im_start|>": 5,
      "<|im_end|>": 6,
      "<repo_name>": 7,
      "<reponame>": 8,
      "<file_sep>": 9,
      "<filename>": 10,
      "<gh_stars>": 11,
      "<issue_start>": 12,
      "<issue_comment>": 13,
      "<issue_closed>": 14,
      "<jupyter_start>": 15,
      "<jupyter_text>": 16,
      "<jupyter_code>": 17,
      "<jupyter_output>": 18,
      "<jupyter_script>": 19,
      "<empty_output>": 20,
      "!": 21,
      "\"": 22,
      "#": 23,
      "$": 24,
      "%": 25,
      "&": 26,
      "'": 27,
      "(": 28,
      ")": 29,
      "*": 30,
      "+": 31,
      ",": 32,
      "-": 33,
      ".": 34,
      "/": 35,
      "0": 36,
      "1": 37,
      "2": 38,
      "3": 39,
      "4": 40,
      "5": 41,
      "6": 42,
      "7": 43,
      "8": 44,
      "9": 45,
      ":": 46,
      ";": 47,
      "<": 48,
      "=": 49,
      ">": 50,
      "?": 51,
      "@": 52,
      "A": 53,
      "B": 54,
      "C": 55,
      "D": 56,
      "E": 57,
      "F": 58,
      "G": 59,
      "H": 60,
      "I": 61,
      "J": 62,
      "K": 63,
      "L": 64,
      "M": 65,
      "N": 66,
      "O": 67,
      "P": 68,
      "Q": 69,
      "R": 70,
      "S": 71,
      "T": 72,
      "U": 73,
      "V": 74,
      "W": 75,
      "X": 76,
      "Y": 77,
      "Z": 78,
      "[": 79,
      "\\": 80,
      "]": 81,
      "^": 82,
      "_": 83,
      "`": 84,
      "a": 85,
      "b": 86,
      "c": 87,
      "d": 88,
      "e": 89,
      "f": 90,
      "g": 91,
      "h": 92,
      "i": 93,
      "j": 94,
      "k": 95,
      "l": 96,
      "m": 97,
      "n": 98,
      "o": 99,
      "p": 100,
      "q": 101,
      "r": 102,
      "s": 103,
      "t": 104,
      "u": 105,
      "v": 106,
      "w": 107,
      "x": 108,
      "y": 109,
      "z": 110,
      "{": 111,
      "|": 112,
      "}": 113,
      "~": 114,
      "¡": 115,
      "¢": 116,
      "£": 117,
      "¤": 118,
      "¥": 119,
      "¦": 120,
      "§": 121,
      "¨": 122,
      "©": 123,
      "ª": 124,
      "«": 125,
      "¬": 126,
      "®": 127,
      "¯": 128,
      "°": 129,
      "±": 130,
      "²": 131,
      "³": 132,
      "´": 133,
      "µ": 134,
      "¶": 135,
      "·": 136,
      "¸": 137,
      "¹": 138,
      "º": 139,
      "»": 140,
      "¼": 141,
      "½": 142,
      "¾": 143,
      "¿": 144,
      "À": 145,
      "Á": 146,
      "Â": 147,
      "Ã": 148,
      "Ä": 149,
      "Å": 150,
      "Æ": 151,
      "Ç": 152,
      "È": 153,
      "É": 154,
      "Ê": 155,
      "Ë": 156,
      "Ì": 157,
      "Í": 158,
      "Î": 159,
      "Ï": 160,
      "Ð": 161,
      "Ñ": 162,
      "Ò": 163,
      "Ó": 164,
      "Ô": 165,
      "Õ": 166,
      "Ö": 167,
      "×": 168,
      "Ø": 169,
      "Ù": 170,
      "Ú": 171,
      "Û": 172,
      "Ü": 173,
      "Ý": 174,
      "Þ": 175,
      "ß": 176,
      "à": 177,
      "á": 178,
      "â": 179,
      "ã": 180,
      "ä": 181,
      "å": 182,
      "æ": 183,
      "ç": 184,
      "è": 185,
      "é": 186,
      "ê": 187,
      "ë": 188,
      "ì": 189,
      "í": 190,
      "î": 191,
      "ï": 192,
      "ð": 193,
      "ñ": 194,
      "ò": 195,
      "ó": 196,
      "ô": 197,
      "õ": 198,
      "ö": 199,
      "÷": 200,
      "ø": 201,
      "ù": 202,
      "ú": 203,
      "û": 204,
      "ü": 205,
      "ý": 206,
      "þ": 207,
      "ÿ": 208,
      "Ā": 209,
      "ā": 210,
      "Ă": 211,
      "ă": 212,
      "Ą": 213,
      "ą": 214,
      "Ć": 215,
      "ć": 216,
      "Ĉ": 217,
      "ĉ": 218,
      "Ċ": 219,
      "ċ": 220,
      "Č": 221,
      "č": 222,
      "Ď": 223,
      "ď": 224,
      "Đ": 225,
      "đ": 226,
      "Ē": 227,
      "ē": 228,
      "Ĕ": 229,
      "ĕ": 230,
      "Ė": 231,
      "ė": 232,
      "Ę": 233,
      "ę": 234,
      "Ě": 235,
      "ě": 236,
      "Ĝ": 237,
      "ĝ": 238,
      "Ğ": 239,
      "ğ": 240,
      "Ġ": 241,
      "ġ": 242,
      "Ģ": 243,
      "ģ": 244,
      "Ĥ": 245,
      "ĥ": 246,
      "Ħ": 247,
      "ħ": 248,
      "Ĩ": 249,
      "ĩ": 250,
      "Ī": 251,
      "ī": 252,
      "Ĭ": 253,
      "ĭ": 254,
      "Į": 255,
      "į": 256,
      "İ": 257,
      "ı": 258,
      "Ĳ": 259,
      "ĳ": 260,
      "Ĵ": 261,
      "ĵ": 262,
      "Ķ": 263,
      "ķ": 264,
      "ĸ": 265,
      "Ĺ": 266,
      "ĺ": 267,
      "Ļ": 268,
      "ļ": 269,
      "Ľ": 270,
      "ľ": 271,
      "Ŀ": 272,
      "ŀ": 273,
      "Ł": 274,
      "ł": 275,
      "Ń": 276,
      "Ġi": 277,
      "en": 278,
      "Ġs": 279,
      "or": 280,
      "es": 281,
      "ti": 282,
      "nd": 283,
      "Ġw": 284,
      "ar": 285,
      "al": 286,
      "ng": 287,
      "Ġc": 288,
      "te": 289,
      "ĠĠ": 290,
      "ou": 291,
      "to": 292,
      "Ġf": 293,
      "Ġp": 294,
      "Ġb": 295,
      "and": 296,
      "ed": 297,
      "as": 298,
      "of": 299,
      "Ġh": 300,
      "ing": 301,
      "Ġof": 302,
      "Ġm": 303,
      "Ġto": 304,
      "Ġin": 305,
      "Ġand": 306,
      "is": 307,
      "Ġd": 308,
      "le": 309,
      "ve": 310,
      "it": 311,
      "ro": 312,
      "ic": 313,
      "Ġr": 314,
      "tio": 315,
      "tion": 316,
      "ne": 317,
      "ha": 318,
      "ac": 319,
      "ent": 320,
      "om": 321,
      "Ġl": 322,
      "il": 323,
      "Ġe": 324,
      "ra": 325,
      "us": 326,
      "el": 327,
      "ec": 328,
      "ĠĠĠĠ": 329,
      "ĠS": 330,
      "et": 331,
      "ur": 332,
      "ĠT": 333,
      "ĠI": 334,
      "Ġg": 335,
      "ter": 336,
      "ta": 337,
      "ĠC": 338,
      "ĠA": 339,
      "ol": 340,
      "ad": 341,
      "ri": 342,
      "hat": 343,
      "ly": 344,
      "Ġis": 345,
      "Ġt": 346,
      "rs": 347,
      "Ġfor": 348,
      "ow": 349,
      "id": 350,
      "ot": 351,
      "am": 352,
      "Ġy": 353,
      "ns": 354,
      "Ġn": 355,
      "nt": 356,
      "ay": 357,
      "ig": 358,
      "os": 359,
      "ĠM": 360,
      "Ġbe": 361,
      "Ġthat": 362,
      "ith": 363,
      "ch": 364,
      "ce": 365,
      "ation": 366,
      "ir": 367,
      "Ġre": 368,
      "ĠP": 369,
      "Ġyou": 370,
      "Ġco": 371,
      "ver": 372,
      "ĠB": 373,
      "ted": 374,
      "Ġwh": 375,
      "Ġwith": 376,
      "Ġar": 377,
      "ul": 378,
      "ts": 379,
      "ab": 380,
      "em": 381,
      "Ġ(": 382,
      "ea": 383,
      "ess": 384,
      "ĠTh": 385,
      "'s": 386,
      "Ġas": 387,
      "ag": 388,
      "Ġ1": 389,
      "Ġal": 390,
      "Ġ2": 391,
      "op": 392,
      "ut": 393,
      "ke": 394,
      "ĠH": 395,
      "ĠD": 396,
      "un": 397,
      "ĠW": 398,
      "Ġpro": 399,
      "Ġhe": 400,
      "ĠR": 401,
      "od": 402,
      "ĠF": 403,
      "io": 404,
      "ers": 405,
      "Ġit": 406,
      "um": 407,
      "Ġwe": 408,
      "ap": 409,
      "out": 410,
      "ill": 411,
      "Ġcom": 412,
      "ĠL": 413,
      "Ġv": 414,
      "Ġst": 415,
      "ting": 416,
      "qu": 417,
      "ĠThe": 418,
      "Ġwas": 419,
      "Ġor": 420,
      "ĠN": 421,
      "Ġma": 422,
      "im": 423,
      "Ġare": 424,
      "ĠE": 425,
      "ĠG": 426,
      "ia": 427,
      "Ġne": 428,
      "Ġex": 429,
      "Ġse": 430,
      "ity": 431,
      "rom": 432,
      "up": 433,
      "ld": 434,
      "his": 435,
      "oc": 436,
      "Ġde": 437,
      "igh": 438,
      "Ġsh": 439,
      "ave": 440,
      "ment": 441,
      "our": 442,
      "Ġ\"": 443,
      "Ġby": 444,
      "end": 445,
      "pe": 446,
      "est": 447,
      "ĠĠĠ": 448,
      "me": 449,
      "ore": 450,
      "one": 451,
      "Ġli": 452,
      "Ġfrom": 453,
      "Ġ20": 454,
      "tic": 455,
      "ie": 456,
      "Ġca": 457,
      "ĠĠĠĠĠĠĠĠ": 458,
      "ion": 459,
      "uc": 460,
      "ma": 461,
      "Ġthis": 462,
      "ny": 463,
      "ĠJ": 464,
      "ĠO": 465,
      "nce": 466,
      "ud": 467,
      "Ġhave": 468,
      "Ġpr": 469,
      "ff": 470,
      "be": 471,
      "la": 472,
      "Ġfi": 473,
      "oth": 474,
      "Ġac": 475,
      "ard": 476,
      "âĢ": 477,
      "gh": 478,
      "hi": 479,
      "all": 480,
      "Ġle": 481,
      "ome": 482,
      "li": 483,
      "ni": 484,
      "ge": 485,
      "Ġus": 486,
      "tr": 487,
      "Th": 488,
      "ate": 489,
      "por": 490,
      "tor": 491,
      "ould": 492,
      "Ġpe": 493,
      "Ġnot": 494,
      "Ġdo": 495,
      "ure": 496,
      "ub": 497,
      "Ġwor": 498,
      "ear": 499,
      "ee": 500,
      "Ġcan": 501,
      "Ġab": 502,
      "oo": 503,
      "ous": 504,
      "ĠU": 505,
      "Ġen": 506,
      "The": 507,
      "ally": 508,
      "00": 509,
      "nc": 510,
      "ack": 511,
      "Ġch": 512,
      "Ġwill": 513,
      "Ġj": 514,
      "ich": 515,
      "Ġhas": 516,
      "ide": 517,
      "ey": 518,
      "art": 519,
      "Ġk": 520,
      "Ġhis": 521,
      "Ġall": 522,
      "ame": 523,
      "na": 524,
      "rea": 525,
      "Ġsp": 526,
      "..": 527,
      "ight": 528,
      "ell": 529,
      "for": 530,
      "ll": 531,
      "ue": 532,
      "ber": 533,
      "over": 534,
      "ough": 535,
      "Ġres": 536,
      "Ġ$": 537,
      "mp": 538,
      "Ġti": 539,
      "og": 540,
      "ound": 541,
      "ry": 542,
      "nk": 543,
      "Ġyour": 544,
      "ust": 545,
      "ep": 546,
      "tive": 547,
      "Ġad": 548,
      "ass": 549,
      "ost": 550,
      "ai": 551,
      "Ġbut": 552,
      "fe": 553,
      "ĠK": 554,
      "Ġcomp": 555,
      "ence": 556,
      "so": 557,
      "age": 558,
      "av": 559,
      "hr": 560,
      "Ġte": 561,
      "ble": 562,
      "app": 563,
      "iv": 564,
      "Ġcon": 565,
      "tions": 566,
      "ary": 567,
      "de": 568,
      "ast": 569,
      "ist": 570,
      "ach": 571,
      "eir": 572,
      "ens": 573,
      "heir": 574,
      "Ġtheir": 575,
      "ice": 576,
      "ning": 577,
      "hey": 578,
      "ob": 579,
      "any": 580,
      "Ġup": 581,
      "king": 582,
      "'t": 583,
      "Ġthey": 584,
      "Ġ201": 585,
      "ew": 586,
      "und": 587,
      "othe": 588,
      "Ġher": 589,
      "ĠÐ": 590,
      "other": 591,
      "ial": 592,
      "ys": 593,
      "nal": 594,
      "ong": 595,
      "Ġmore": 596,
      "ace": 597,
      "Ġwhich": 598,
      "Ġgo": 599,
      "ine": 600,
      "Ġone": 601,
      "Ġdis": 602,
      "ĠV": 603,
      "ents": 604,
      "Ġun": 605,
      "Ġno": 606,
      "own": 607,
      "Ġout": 608,
      "ies": 609,
      "Ġsa": 610,
      "ase": 611,
      "ect": 612,
      "Ġpl": 613,
      "Ġsta": 614,
      "lic": 615,
      "Ġta": 616,
      "Ġtra": 617,
      "Ġrec": 618,
      "Ġ\\": 619,
      "hing": 620,
      "Ġinc": 621,
      "very": 622,
      "ks": 623,
      "ĠIn": 624,
      "Ġwho": 625,
      "ned": 626,
      "ite": 627,
      "Ġabout": 628,
      "ven": 629,
      "Ġop": 630,
      "ant": 631,
      "Ġso": 632,
      "ĠâĢ": 633,
      "Ġqu": 634,
      "ĊĠĠĠĠ": 635,
      "Ġ3": 636,
      "ose": 637,
      "ĠY": 638,
      "han": 639,
      "ive": 640,
      "rv": 641,
      "ond": 642,
      "se": 643,
      "Ġcl": 644,
      "Ġ-": 645,
      "vel": 646,
      "Ġ19": 647,
      "Ð¾": 648,
      "able": 649,
      "Ġwer": 650,
      "ese": 651,
      "Ġla": 652,
      "ons": 653,
      "ish": 654,
      "Ġnew": 655,
      "Ġ=": 656,
      "Ġyear": 657,
      "tt": 658,
      "mer": 659,
      "ations": 660,
      "Ġwere": 661,
      "pr": 662,
      "Ġour": 663,
      "uch": 664,
      "iz": 665,
      "ĊĠĠĠ": 666,
      "Ġme": 667,
      "are": 668,
      "ene": 669,
      "Ġhad": 670,
      "Ġalso": 671,
      "ays": 672,
      "ms": 673,
      "Ġthr": 674,
      "ĊĠĠĠĠĠĠĠĠ": 675,
      "Ġag": 676,
      "lec": 677,
      "Ġcons": 678,
      "hen": 679,
      "Ð°": 680,
      "Ġbeen": 681,
      "ord": 682,
      "Ġsome": 683,
      "hem": 684,
      "Ġmo": 685,
      "ps": 686,
      "cess": 687,
      "Ġper": 688,
      "Ġdi": 689,
      "Ġmy": 690,
      "Ġif": 691,
      "ind": 692,
      "lo": 693,
      "Ġpar": 694,
      "tes": 695,
      "iti": 696,
      "Ġtime": 697,
      "red": 698,
      "ty": 699,
      ").": 700,
      "old": 701,
      "Ġits": 702,
      "Ġapp": 703,
      "Ġany": 704,
      "port": 705,
      "ail": 706,
      "ĠHe": 707,
      "Ġwould": 708,
      "Ġinter": 709,
      "ount": 710,
      "ort": 711,
      "ĠIt": 712,
      "Ġother": 713,
      "fic": 714,
      "ild": 715,
      "Ġthem": 716,
      "ical": 717,
      "Ġover": 718,
      "vers": 719,
      "tur": 720,
      "Ġro": 721,
      "ip": 722,
      "oi": 723,
      "use": 724,
      "Ġ'": 725,
      "rst": 726,
      "Ġins": 727,
      "Ġget": 728,
      ".\"": 729,
      "ition": 730,
      "Ġwhen": 731,
      "ook": 732,
      "owe": 733,
      "Ðµ": 734,
      "form": 735,
      "ated": 736,
      "Ġsc": 737,
      "20": 738,
      "Ġlike": 739,
      "nly": 740,
      "ness": 741,
      "ile": 742,
      "Ġcont": 743,
      "les": 744,
      "wo": 745,
      "Ġbec": 746,
      "Ġtr": 747,
      "Ġwhat": 748,
      "ug": 749,
      "gra": 750,
      "Ð¸": 751,
      "ture": 752,
      "we": 753,
      "enc": 754,
      "fter": 755,
      "ople": 756,
      "Ġinto": 757,
      "tai": 758,
      ");": 759,
      "ef": 760,
      "Ġkn": 761,
      "),": 762,
      "ves": 763,
      "Ġim": 764,
      "Ġdes": 765,
      "mo": 766,
      "lud": 767,
      "Ġund": 768,
      "Ġam": 769,
      "co": 770,
      "enti": 771,
      "ade": 772,
      "ho": 773,
      "aw": 774,
      "row": 775,
      "Ġ4": 776,
      "--": 777,
      "per": 778,
      "Ġsaid": 779,
      "xt": 780,
      "nes": 781,
      "Ġ&": 782,
      "ual": 783,
      "ark": 784,
      "Ġthan": 785,
      "vi": 786,
      "oll": 787,
      "ple": 788,
      "ĊĠĠĠĠĠĠĠ": 789,
      "Ġexp": 790,
      "ga": 791,
      "duc": 792,
      "ring": 793,
      "ĠâĢĵ": 794,
      "com": 795,
      "ph": 796,
      "eth": 797,
      "Ġind": 798,
      "Ġsup": 799,
      "ica": 800,
      "ian": 801,
      "//": 802,
      "Ġpeople": 803,
      "Ġcha": 804,
      "ters": 805,
      "Ġfirst": 806,
      "iew": 807,
      "nge": 808,
      "Ġ5": 809,
      "reat": 810,
      "act": 811,
      "Ġwork": 812,
      "fi": 813,
      "Ġda": 814,
      "Ġsec": 815,
      "ton": 816,
      "Ġgr": 817,
      "Ġjust": 818,
      "Ġneed": 819,
      "Ð½": 820,
      "Ġ{": 821,
      "ss": 822,
      "only": 823,
      "tem": 824,
      "rent": 825,
      "ead": 826,
      "Ġshe": 827,
      "res": 828,
      "Ġhel": 829,
      "Ġbet": 830,
      "iss": 831,
      "Ġonly": 832,
      "ain": 833,
      "ful": 834,
      "no": 835,
      "ÑĢ": 836,
      "fer": 837,
      "Ġpos": 838,
      "Ġcomm": 839,
      "Ġpri": 840,
      "ress": 841,
      ",\"": 842,
      "ove": 843,
      "Ġtwo": 844,
      "elf": 845,
      "Ġimp": 846,
      "ational": 847,
      "Ġpla": 848,
      "Ġinclud": 849,
      "Ġadd": 850,
      "Ġra": 851,
      "Ġoff": 852,
      "ors": 853,
      "Ġmay": 854,
      "Ġpa": 855,
      "ick": 856,
      "ĠWe": 857,
      "ise": 858,
      "ÑĤ": 859,
      "Ġuse": 860,
      "Ġrel": 861,
      "ĠThis": 862,
      "Ġmost": 863,
      "Ġman": 864,
      "day": 865,
      "ool": 866,
      "ffe": 867,
      "ft": 868,
      "ree": 869,
      "Ġhow": 870,
      "ved": 871,
      "Ġthrough": 872,
      "after": 873,
      "mi": 874,
      "der": 875,
      "ration": 876,
      "Ġwa": 877,
      "ities": 878,
      "In": 879,
      "Ġknow": 880,
      "Ġ0": 881,
      "Ġreg": 882,
      "ĠMa": 883,
      "Ġwhe": 884,
      "olog": 885,
      "Ġafter": 886,
      "Ġdec": 887,
      "ign": 888,
      "tin": 889,
      "Ñģ": 890,
      "ĠCh": 891,
      "ral": 892,
      "ublic": 893,
      "Ġback": 894,
      "Ġprov": 895,
      "ĠCom": 896,
      "pl": 897,
      "hese": 898,
      "Ġhigh": 899,
      "Ġthese": 900,
      "Ġstud": 901,
      "Ġcould": 902,
      "ĉĉ": 903,
      "Ġass": 904,
      "Ġmake": 905,
      "ner": 906,
      "Ġpart": 907,
      "Ġyears": 908,
      "Ġ<": 909,
      "Ġev": 910,
      "=\"": 911,
      "Ġsee": 912,
      "Ġwher": 913,
      "Ġwell": 914,
      "tu": 915,
      "Ġwhere": 916,
      "ĠRe": 917,
      "gi": 918,
      "ĠSh": 919,
      "ĠCo": 920,
      "alt": 921,
      "Ð¾Ð": 922,
      "ased": 923,
      "tis": 924,
      "Ġhim": 925,
      "Ġcar": 926,
      "Ġevery": 927,
      "Ġcol": 928,
      "Ã©": 929,
      "Ġserv": 930,
      "ular": 931,
      "Ġ200": 932,
      "nment": 933,
      "Ġbu": 934,
      "ause": 935,
      "ily": 936,
      "_{": 937,
      "Ġset": 938,
      "ions": 939,
      "19": 940,
      "Ġ6": 941,
      "tch": 942,
      "ĊĠ": 943,
      "urn": 944,
      "ues": 945,
      "Ġplay": 946,
      "ĠAr": 947,
      "ory": 948,
      "pec": 949,
      "Ġbl": 950,
      "als": 951,
      "pa": 952,
      "Ġthen": 953,
      "Ġsub": 954,
      "oint": 955,
      "ĠNew": 956,
      "ode": 957,
      "ans": 958,
      "Ġsuch": 959,
      "att": 960,
      "Ġmany": 961,
      "ex": 962,
      "Ġmi": 963,
      "Ġpol": 964,
      "ari": 965,
      "velop": 966,
      "ely": 967,
      "rib": 968,
      "ility": 969,
      "Ġvery": 970,
      "ĠUni": 971,
      "Ġob": 972,
      "va": 973,
      "ĠSta": 974,
      "erso": 975,
      "Ġway": 976,
      "Ġfe": 977,
      "ren": 978,
      "Ġnow": 979,
      "man": 980,
      "ction": 981,
      "ments": 982,
      "tory": 983,
      "tle": 984,
      "Ġke": 985,
      "au": 986,
      "Ġacc": 987,
      "Ġeven": 988,
      "ins": 989,
      "its": 990,
      "ower": 991,
      "ĠSt": 992,
      "Ġdid": 993,
      "Ġcou": 994,
      "Ġshould": 995,
      "Ġloc": 996,
      "ib": 997,
      "ible": 998,
      "Ġspec": 999,
      "ries": 1000,
      "Ġret": 1001,
      "Ġhelp": 1002,
      "Ġ*": 1003,
      "ull": 1004,
      "ĠMar": 1005,
      "tant": 1006,
      "hough": 1007,
      "eat": 1008,
      "st": 1009,
      "Ġes": 1010,
      "ire": 1011,
      "ward": 1012,
      "ult": 1013,
      "usi": 1014,
      "ork": 1015,
      "ject": 1016,
      "ement": 1017,
      "ĠAnd": 1018,
      "alth": 1019,
      "Ġeff": 1020,
      "Ġproduc": 1021,
      "Ġtrans": 1022,
      "ok": 1023,
      "get": 1024,
      "Ġshow": 1025,
      "Ġend": 1026,
      "Ġsi": 1027,
      "Ġpres": 1028,
      "Ġbecause": 1029,
      "Ġ10": 1030,
      "Ġdiffe": 1031,
      "Ġunde": 1032,
      "Ġthi": 1033,
      "Ġ}": 1034,
      "Ġ7": 1035,
      "line": 1036,
      "chool": 1037,
      "ices": 1038,
      "hip": 1039,
      "rate": 1040,
      "ler": 1041,
      "Ġunder": 1042,
      "ten": 1043,
      "Ġsur": 1044,
      "Ġgood": 1045,
      "Ġbeing": 1046,
      "ĠFor": 1047,
      "10": 1048,
      "peri": 1049,
      "nn": 1050,
      "tiv": 1051,
      "Ġlong": 1052,
      "ale": 1053,
      "ollow": 1054,
      "ĠPro": 1055,
      "Ġclass": 1056,
      "ood": 1057,
      "land": 1058,
      "uring": 1059,
      "ĠYou": 1060,
      "eld": 1061,
      "usiness": 1062,
      "Ġworld": 1063,
      "Ġpre": 1064,
      "air": 1065,
      "oy": 1066,
      "Ġcrea": 1067,
      "formation": 1068,
      "...": 1069,
      "Ġrequ": 1070,
      "Ġmuch": 1071,
      "Ġnum": 1072,
      "Ġthink": 1073,
      "aso": 1074,
      "hose": 1075,
      "ĠAl": 1076,
      "ings": 1077,
      "Ġcall": 1078,
      "Ġ8": 1079,
      "con": 1080,
      "fore": 1081,
      "Ġ[": 1082,
      "Ġdown": 1083,
      "led": 1084,
      "ween": 1085,
      "Ġaw": 1086,
      "Ġthing": 1087,
      "Ġgu": 1088,
      "Ġmade": 1089,
      "Ġthose": 1090,
      "Ġval": 1091,
      "Ġfam": 1092,
      "pos": 1093,
      "ars": 1094,
      "Ġinv": 1095,
      "Ġwant": 1096,
      "ving": 1097,
      "'r": 1098,
      "'re": 1099,
      "Ġbel": 1100,
      "Ġdoes": 1101,
      "ci": 1102,
      "pp": 1103,
      "kes": 1104,
      "mes": 1105,
      "Ġchar": 1106,
      "Ġsti": 1107,
      "ier": 1108,
      "Ġdevelop": 1109,
      "Ġmem": 1110,
      "Ġbefore": 1111,
      "Ġsys": 1112,
      "Ġstr": 1113,
      "uth": 1114,
      "Ġdon": 1115,
      "view": 1116,
      "ĊĠĠĠĠĠĠĠĠĠĠĠ": 1117,
      "Ġfind": 1118,
      "gin": 1119,
      "</": 1120,
      "ock": 1121,
      "Ġsim": 1122,
      "pt": 1123,
      "Ġce": 1124,
      "merica": 1125,
      "Ġdisc": 1126,
      "lish": 1127,
      "Ġbetween": 1128,
      "Ġhere": 1129,
      "tain": 1130,
      "Ġused": 1131,
      "ethe": 1132,
      "Ġgene": 1133,
      "Ġdata": 1134,
      "ĠSe": 1135,
      "Ġgra": 1136,
      "Ġsm": 1137,
      "**": 1138,
      "Ġ9": 1139,
      "mat": 1140,
      "Ġmea": 1141,
      "ether": 1142,
      "ash": 1143,
      "{\\": 1144,
      "Ġmed": 1145,
      "ason": 1146,
      "Ġcount": 1147,
      "Ġbo": 1148,
      "earch": 1149,
      "000": 1150,
      "Ð»": 1151,
      "ouse": 1152,
      "olu": 1153,
      "Ġexperi": 1154,
      "Ġcur": 1155,
      "Ġpublic": 1156,
      "Ġ.": 1157,
      "Ġlife": 1158,
      "Ġfollow": 1159,
      "ĠCa": 1160,
      "tors": 1161,
      "Ġread": 1162,
      "ĠAs": 1163,
      "Ġfun": 1164,
      "Ġtake": 1165,
      "Ġperso": 1166,
      "Ġbr": 1167,
      "ges": 1168,
      "Ġap": 1169,
      "Ġed": 1170,
      "Ġav": 1171,
      "oup": 1172,
      "ets": 1173,
      "nth": 1174,
      "ize": 1175,
      "rac": 1176,
      "tical": 1177,
      "Ġday": 1178,
      "Ġid": 1179,
      "Ġcor": 1180,
      "tter": 1181,
      "Ġstate": 1182,
      "Ġright": 1183,
      "Ġeach": 1184,
      "Ġgreat": 1185,
      "Ġatt": 1186,
      "eg": 1187,
      "Ġfac": 1188,
      "uss": 1189,
      "par": 1190,
      "Ġwhile": 1191,
      "We": 1192,
      "Ġfil": 1193,
      "ker": 1194,
      "nis": 1195,
      "rop": 1196,
      "ru": 1197,
      "Ġdir": 1198,
      "Ġresp": 1199,
      "ang": 1200,
      "equ": 1201,
      "Ġcommun": 1202,
      "âĢĶ": 1203,
      "ĠBut": 1204,
      "Ġhand": 1205,
      "ĠAmerica": 1206,
      "Ġvis": 1207,
      ".,": 1208,
      "Ġter": 1209,
      "ital": 1210,
      "Ġfound": 1211,
      "ric": 1212,
      "Ġown": 1213,
      "Ġsame": 1214,
      "Ġlast": 1215,
      "nti": 1216,
      "Ġbest": 1217,
      "bs": 1218,
      "Ġboth": 1219,
      "Ġ|": 1220,
      "Ġfl": 1221,
      "Ġdel": 1222,
      "Ġbusiness": 1223,
      "Ġmod": 1224,
      "ession": 1225,
      "ance": 1226,
      "ology": 1227,
      "Ġcomple": 1228,
      "Ġ18": 1229,
      "gram": 1230,
      "ĠAc": 1231,
      "ĠJo": 1232,
      "Ġinformation": 1233,
      "az": 1234,
      "Ġwee": 1235,
      "Ġhome": 1236,
      "ght": 1237,
      "Ġph": 1238,
      "Ġchild": 1239,
      "tom": 1240,
      "ĠIf": 1241,
      "ross": 1242,
      "Ġreal": 1243,
      "Ġstill": 1244,
      "Ġthough": 1245,
      "Ġ$\\": 1246,
      "Ġaround": 1247,
      "ident": 1248,
      "ames": 1249,
      "Ġlead": 1250,
      "ER": 1251,
      "outh": 1252,
      "ina": 1253,
      "niz": 1254,
      "arly": 1255,
      "rol": 1256,
      "Ġstar": 1257,
      "Ġdifferent": 1258,
      "bo": 1259,
      "gy": 1260,
      "Ðº": 1261,
      "This": 1262,
      "ww": 1263,
      "med": 1264,
      "ref": 1265,
      "rn": 1266,
      "ains": 1267,
      "era": 1268,
      "ĠAd": 1269,
      "jec": 1270,
      "Ġthree": 1271,
      "Ġteam": 1272,
      "Ġty": 1273,
      "Ġel": 1274,
      "Ġlar": 1275,
      "Ġlook": 1276,
      "ety": 1277,
      "ĠSa": 1278,
      "'ve": 1279,
      "'m": 1280,
      "ĠInd": 1281,
      "ron": 1282,
      "Ġpoint": 1283,
      "ĊĊ": 1284,
      "Ġvo": 1285,
      "ages": 1286,
      "Ġsto": 1287,
      "bers": 1288,
      "ics": 1289,
      "ĠIs": 1290,
      "Ġsay": 1291,
      "Ġsig": 1292,
      "eam": 1293,
      "Ñĥ": 1294,
      "Ġcr": 1295,
      "ak": 1296,
      "Ġreally": 1297,
      "nother": 1298,
      "Ġpartic": 1299,
      "ĠZ": 1300,
      "Ġduring": 1301,
      "Ġtech": 1302,
      "Ġgiv": 1303,
      "Ġint": 1304,
      "ĠNo": 1305,
      "Ġprocess": 1306,
      "://": 1307,
      "els": 1308,
      "hn": 1309,
      "cri": 1310,
      "Ġgoing": 1311,
      "Ġprovid": 1312,
      "til": 1313,
      "rr": 1314,
      "truc": 1315,
      "nu": 1316,
      "une": 1317,
      "Ġcap": 1318,
      "if": 1319,
      "Ġmar": 1320,
      "omet": 1321,
      "ption": 1322,
      "ĠGr": 1323,
      "It": 1324,
      "Ġinf": 1325,
      "ision": 1326,
      "gr": 1327,
      "Ġusing": 1328,
      "Ġcontin": 1329,
      "ĠQ": 1330,
      "12": 1331,
      "ĠPe": 1332,
      "ody": 1333,
      "een": 1334,
      "Ġtri": 1335,
      "Ġemp": 1336,
      "nter": 1337,
      "ights": 1338,
      "ency": 1339,
      "tures": 1340,
      "Ġsoc": 1341,
      "son": 1342,
      "read": 1343,
      "eb": 1344,
      "orth": 1345,
      "Ġba": 1346,
      "----": 1347,
      "Ġnumber": 1348,
      "Ġwi": 1349,
      "Ġdri": 1350,
      "....": 1351,
      "overnment": 1352,
      "que": 1353,
      "owever": 1354,
      "Ġconf": 1355,
      "ĠThey": 1356,
      "Ġste": 1357,
      "uma": 1358,
      "Ġimpor": 1359,
      "Ġcle": 1360,
      "âĢ¦": 1361,
      "Ġplace": 1362,
      "ĠEx": 1363,
      "Ġfa": 1364,
      "min": 1365,
      "ĠUnivers": 1366,
      "ways": 1367,
      "illion": 1368,
      "Ġpur": 1369,
      "ends": 1370,
      "ense": 1371,
      "()": 1372,
      "Ġiss": 1373,
      "Ġincluding": 1374,
      "\",": 1375,
      "ared": 1376,
      "Ġgl": 1377,
      "ĠĠĠĠĠĠĠ": 1378,
      "ĠâĢĶ": 1379,
      "Ġprof": 1380,
      "Ġsystem": 1381,
      "Ġopen": 1382,
      "mit": 1383,
      "loy": 1384,
      "Ġcond": 1385,
      "ĠShe": 1386,
      "Ġ/": 1387,
      "Ġschool": 1388,
      "Ġpass": 1389,
      "tw": 1390,
      "ura": 1391,
      "ties": 1392,
      "Ġna": 1393,
      "11": 1394,
      "tance": 1395,
      "Ġexam": 1396,
      "Ġdef": 1397,
      "Ġposs": 1398,
      "ked": 1399,
      "tra": 1400,
      "ently": 1401,
      "ustr": 1402,
      "tern": 1403,
      "cl": 1404,
      "ger": 1405,
      "Ġsecond": 1406,
      "Ġhealth": 1407,
      "\">": 1408,
      "ific": 1409,
      "Ġ12": 1410,
      "ged": 1411,
      "ism": 1412,
      "ainst": 1413,
      "Ġlo": 1414,
      "Ġsk": 1415,
      "Ġorga": 1416,
      "Ġhapp": 1417,
      "Ġet": 1418,
      "Ġtoo": 1419,
      "Ġform": 1420,
      "ĠBe": 1421,
      "ittle": 1422,
      "Ġtop": 1423,
      "nted": 1424,
      "ember": 1425,
      "ray": 1426,
      "ze": 1427,
      "lease": 1428,
      "rit": 1429,
      "ĠCol": 1430,
      "Ġred": 1431,
      "ners": 1432,
      "hy": 1433,
      "Ġbuild": 1434,
      "Ġfew": 1435,
      "Ġlaw": 1436,
      "ired": 1437,
      "tics": 1438,
      "ating": 1439,
      "Ġmus": 1440,
      "ours": 1441,
      "Ġvari": 1442,
      "aving": 1443,
      "ences": 1444,
      "lect": 1445,
      "ribu": 1446,
      "Ġsu": 1447,
      "bi": 1448,
      "Ġmust": 1449,
      "Ġmonth": 1450,
      "ases": 1451,
      "Ġsince": 1452,
      "IN": 1453,
      "ĠLi": 1454,
      "ential": 1455,
      "Ġincr": 1456,
      "omen": 1457,
      "Ġmai": 1458,
      "Co": 1459,
      "arm": 1460,
      "ĠLa": 1461,
      "val": 1462,
      "hoto": 1463,
      "Ġsl": 1464,
      "thing": 1465,
      "ata": 1466,
      "omething": 1467,
      "ists": 1468,
      "Ġagainst": 1469,
      "ĊĠĠĠĠĠĠĠĠĠĠĠĠĠĠĠĠ": 1470,
      "ĠSo": 1471,
      "50": 1472,
      "Ġrun": 1473,
      "Ġlot": 1474,
      "Ġname": 1475,
      "tely": 1476,
      "nks": 1477,
      "21": 1478,
      "ands": 1479,
      "Ġmin": 1480,
      "ĠGe": 1481,
      "ON": 1482,
      "âĢĵ": 1483,
      "ĠUniversity": 1484,
      "another": 1485,
      "Ġallow": 1486,
      "Ð²": 1487,
      "Ġcase": 1488,
      "Ġincre": 1489,
      "du": 1490,
      "Ġmark": 1491,
      "Ġappro": 1492,
      "ffic": 1493,
      "Ġanother": 1494,
      "ality": 1495,
      "titu": 1496,
      "Ġcompany": 1497,
      "oss": 1498,
      "enter": 1499,
      "Ġcer": 1500,
      "ope": 1501,
      "tice": 1502,
      "ulti": 1503,
      "nts": 1504,
      "Ġweek": 1505,
      "ara": 1506,
      "Ġdem": 1507,
      "eath": 1508,
      "ailable": 1509,
      "Ġeas": 1510,
      "ĠMi": 1511,
      "Ġcome": 1512,
      "Ġlear": 1513,
      "Ġfamily": 1514,
      "Ġrece": 1515,
      "fied": 1516,
      "nta": 1517,
      "Ġwithout": 1518,
      "Ġsupport": 1519,
      "Ġwri": 1520,
      "Ġequ": 1521,
      "ĠMo": 1522,
      "'ll": 1523,
      "Ġleg": 1524,
      "18": 1525,
      "Ġmen": 1526,
      "Ġgame": 1527,
      "ĠÂ": 1528,
      "Ġthings": 1529,
      "ized": 1530,
      "Ġve": 1531,
      "math": 1532,
      "Ġlove": 1533,
      "Ġgrow": 1534,
      "Ġpower": 1535,
      "Ġnext": 1536,
      "ĠTr": 1537,
      "Ġtal": 1538,
      "Ġhead": 1539,
      "ĠPa": 1540,
      "ĠJa": 1541,
      "ling": 1542,
      "Ġcri": 1543,
      "right": 1544,
      "ĠDe": 1545,
      "Ġpop": 1546,
      "Ġques": 1547,
      "ĠUS": 1548,
      "}}": 1549,
      "ck": 1550,
      "pro": 1551,
      "mb": 1552,
      "uthor": 1553,
      "ean": 1554,
      "ĠRo": 1555,
      "Ġsomething": 1556,
      "ley": 1557,
      "tural": 1558,
      "Ġ199": 1559,
      "rt": 1560,
      "rong": 1561,
      "Ġtry": 1562,
      "ĠPr": 1563,
      "ump": 1564,
      "ape": 1565,
      "Ġdep": 1566,
      "Ġreturn": 1567,
      "rid": 1568,
      "Ġsuc": 1569,
      "lection": 1570,
      "Ġconce": 1571,
      "Ġproble": 1572,
      "Ġappe": 1573,
      "Ġcurrent": 1574,
      "Ċĉĉ": 1575,
      "ĠTher": 1576,
      "Ġlevel": 1577,
      "ards": 1578,
      "aff": 1579,
      "ĠTo": 1580,
      "ission": 1581,
      "eck": 1582,
      "ann": 1583,
      "Ġ+": 1584,
      "ury": 1585,
      "Ġfeel": 1586,
      "nel": 1587,
      "tand": 1588,
      "30": 1589,
      "Ġconside": 1590,
      "amp": 1591,
      "Ġbig": 1592,
      "oma": 1593,
      "ative": 1594,
      "igi": 1595,
      "eed": 1596,
      "ourt": 1597,
      "Ġalways": 1598,
      "ĠRes": 1599,
      "Ġlittle": 1600,
      "ection": 1601,
      "ĠCl": 1602,
      "Ġloo": 1603,
      "go": 1604,
      "Ġnever": 1605,
      "ces": 1606,
      "pi": 1607,
      "Ċĉ": 1608,
      "Ġbetter": 1609,
      "Ġprogram": 1610,
      "Ġfri": 1611,
      "ĠThere": 1612,
      "Ġcus": 1613,
      "Ġdra": 1614,
      "Ġsit": 1615,
      "Ġimportant": 1616,
      "Ġmight": 1617,
      "by": 1618,
      "Ġresearch": 1619,
      "Ġstand": 1620,
      "ĠChr": 1621,
      "Ġkeep": 1622,
      "Ġfree": 1623,
      "ird": 1624,
      "lin": 1625,
      "^{": 1626,
      "less": 1627,
      "15": 1628,
      "sta": 1629,
      "ĠTra": 1630,
      "AT": 1631,
      "Ġlist": 1632,
      "Ġfea": 1633,
      "Ġ:": 1634,
      "ivid": 1635,
      "ken": 1636,
      "Ġu": 1637,
      "ret": 1638,
      "tal": 1639,
      "Ġref": 1640,
      "rse": 1641,
      "Ġavailable": 1642,
      "16": 1643,
      "ĊĠĠĠĠĠ": 1644,
      "ĠAt": 1645,
      "ports": 1646,
      "Ġprovide": 1647,
      "tric": 1648,
      "Ġtechn": 1649,
      "ĠIns": 1650,
      "ES": 1651,
      "text": 1652,
      "eng": 1653,
      "ĠBl": 1654,
      "Ġcent": 1655,
      "Ġ15": 1656,
      "Ġwithi": 1657,
      "Ġwithin": 1658,
      "He": 1659,
      "ource": 1660,
      "ba": 1661,
      "Ġwater": 1662,
      "Ġplan": 1663,
      "22": 1664,
      "Ġcare": 1665,
      "ĠCha": 1666,
      "Ġput": 1667,
      "ots": 1668,
      "Ġgot": 1669,
      "Ġunders": 1670,
      "urt": 1671,
      "Ġproper": 1672,
      "uman": 1673,
      "ĠAll": 1674,
      "Ġseem": 1675,
      "ethod": 1676,
      "Ġgovernment": 1677,
      "conom": 1678,
      "Ġpay": 1679,
      "Ġsays": 1680,
      "ording": 1681,
      "vious": 1682,
      "oon": 1683,
      "Ġbelie": 1684,
      "Ġrespons": 1685,
      "ults": 1686,
      "kers": 1687,
      "nline": 1688,
      "For": 1689,
      "net": 1690,
      "Ġbook": 1691,
      "AR": 1692,
      "tec": 1693,
      "Ġexperience": 1694,
      "nces": 1695,
      "vent": 1696,
      "Ġdr": 1697,
      "ining": 1698,
      "ush": 1699,
      "Ġsmall": 1700,
      "}\\": 1701,
      "Ġ_": 1702,
      "Ġcame": 1703,
      "ĠMay": 1704,
      "Ġbro": 1705,
      "Ġless": 1706,
      "Ġsing": 1707,
      "rage": 1708,
      "uck": 1709,
      "Ġservice": 1710,
      "ney": 1711,
      "Ġgroup": 1712,
      "ited": 1713,
      "itch": 1714,
      "ran": 1715,
      "Ġorder": 1716,
      "==": 1717,
      "}$": 1718,
      "As": 1719,
      "Ġaff": 1720,
      "ures": 1721,
      "Ġchange": 1722,
      "Ġlocal": 1723,
      "ĠDo": 1724,
      "Ġview": 1725,
      "Ġz": 1726,
      "olution": 1727,
      "ĠEng": 1728,
      "way": 1729,
      "mon": 1730,
      "Ġhard": 1731,
      "ates": 1732,
      "Ġperson": 1733,
      "ĠWor": 1734,
      "Ġdoc": 1735,
      "Ġline": 1736,
      "tems": 1737,
      "cha": 1738,
      "Ġfull": 1739,
      "oney": 1740,
      "14": 1741,
      "Ñı": 1742,
      "Ġmet": 1743,
      "ĠAn": 1744,
      "ĠCar": 1745,
      "ani": 1746,
      "ised": 1747,
      "Ġaccess": 1748,
      "jor": 1749,
      "Ġable": 1750,
      "ying": 1751,
      "Ġchang": 1752,
      "17": 1753,
      "Ġmain": 1754,
      "Ġworking": 1755,
      "Ġbas": 1756,
      "ĠSp": 1757,
      "nced": 1758,
      "Ġsever": 1759,
      "Ġfunction": 1760,
      "Ġdays": 1761,
      "Ġstart": 1762,
      "urs": 1763,
      "ĠHis": 1764,
      "cent": 1765,
      "Ð¼": 1766,
      "ĠPh": 1767,
      "Ġstor": 1768,
      "OR": 1769,
      "ume": 1770,
      "Ġvalue": 1771,
      "',": 1772,
      "Ġchildren": 1773,
      "ĠThat": 1774,
      "ĠFi": 1775,
      "Ġcountry": 1776,
      "ales": 1777,
      "anal": 1778,
      "ument": 1779,
      "13": 1780,
      "Ġau": 1781,
      "agement": 1782,
      "Ġwar": 1783,
      "aster": 1784,
      "ented": 1785,
      "erv": 1786,
      "ali": 1787,
      "Ġsw": 1788,
      "Ġann": 1789,
      "Ð´": 1790,
      "Ġagain": 1791,
      "ah": 1792,
      "occ": 1793,
      "Ġaddition": 1794,
      "AN": 1795,
      "ĠMan": 1796,
      "nec": 1797,
      "Ġho": 1798,
      "Ġarea": 1799,
      "Ġsuccess": 1800,
      "Ġcho": 1801,
      "table": 1802,
      "Ġeng": 1803,
      "ually": 1804,
      "If": 1805,
      "ros": 1806,
      "ĠAmerican": 1807,
      "tation": 1808,
      "ax": 1809,
      "Ġ16": 1810,
      "Ġgive": 1811,
      "ĠCon": 1812,
      "ĠOr": 1813,
      "Ġprac": 1814,
      "ĠPar": 1815,
      "unch": 1816,
      "laim": 1817,
      "ply": 1818,
      "Ñĸ": 1819,
      "Ġsy": 1820,
      "ĠPri": 1821,
      "Ġstudents": 1822,
      "ient": 1823,
      "aring": 1824,
      "Ġactiv": 1825,
      "Ġpo": 1826,
      "tring": 1827,
      "ending": 1828,
      "Ġpi": 1829,
      "tab": 1830,
      "ĠFra": 1831,
      "Ġstory": 1832,
      "Ġrest": 1833,
      "uly": 1834,
      "ocus": 1835,
      "Ġair": 1836,
      "ule": 1837,
      "tel": 1838,
      "ĊĠĠĠĠĠĠĠĠĠĠĠĠĠĠĠ": 1839,
      "Ġapplic": 1840,
      "ĠX": 1841,
      "Ġcommunity": 1842,
      "Ġrecord": 1843,
      "Ġevent": 1844,
      "Ġdet": 1845,
      "Ġcharac": 1846,
      "ĠUnited": 1847,
      "iver": 1848,
      "put": 1849,
      "Ġlet": 1850,
      "Ġleft": 1851,
      "Ġservices": 1852,
      "ected": 1853,
      "author": 1854,
      "Ġ17": 1855,
      "Ġ30": 1856,
      "Ġold": 1857,
      "Ġword": 1858,
      "ĠDec": 1859,
      "viro": 1860,
      "Ġmusic": 1861,
      "wh": 1862,
      "ĠBo": 1863,
      "wn": 1864,
      "pres": 1865,
      "uture": 1866,
      "sh": 1867,
      "ulation": 1868,
      "Ġnon": 1869,
      "Ġrem": 1870,
      "Ġmaking": 1871,
      "hile": 1872,
      "Ġ2018": 1873,
      "Ġaway": 1874,
      "vironment": 1875,
      "Ġcontrol": 1876,
      "edic": 1877,
      "ows": 1878,
      "ended": 1879,
      "Ġmillion": 1880,
      "Ġfar": 1881,
      "ĠSc": 1882,
      "Ġemploy": 1883,
      "Ġ#": 1884,
      "ID": 1885,
      "lor": 1886,
      "Ġmove": 1887,
      "ĠCan": 1888,
      "ĠComm": 1889,
      "Ġ@": 1890,
      "gether": 1891,
      "Ġspecial": 1892,
      "Ġ2019": 1893,
      "itions": 1894,
      "orn": 1895,
      "Ġsocial": 1896,
      "Ġ14": 1897,
      "Ġanal": 1898,
      "Ġtoday": 1899,
      "Ġ//": 1900,
      "forma": 1901,
      "Ġalong": 1902,
      "Ġfund": 1903,
      "Ġuntil": 1904,
      "Ġfour": 1905,
      "nia": 1906,
      "Ġcalled": 1907,
      "nor": 1908,
      "Ġeffec": 1909,
      "Ġbased": 1910,
      "ecu": 1911,
      "EN": 1912,
      "ĠAss": 1913,
      "ees": 1914,
      "Ġpriv": 1915,
      "Ġoffic": 1916,
      "ĊĊĠĠĠ": 1917,
      "Ġocc": 1918,
      "br": 1919,
      "Ġfollowing": 1920,
      "abel": 1921,
      "ĠEu": 1922,
      "ĠDis": 1923,
      "ĠWith": 1924,
      "Ã¡": 1925,
      "Ġou": 1926,
      "lished": 1927,
      "irc": 1928,
      "Ġwhy": 1929,
      "You": 1930,
      "ready": 1931,
      "200": 1932,
      "idd": 1933,
      "arch": 1934,
      "Ġunderstand": 1935,
      "Ġdev": 1936,
      "Ġlim": 1937,
      "time": 1938,
      "terial": 1939,
      "ung": 1940,
      "itor": 1941,
      "(\\": 1942,
      "Ġ11": 1943,
      "Ġimpro": 1944,
      "Ġpost": 1945,
      "ki": 1946,
      "ST": 1947,
      "\".": 1948,
      "Ġsol": 1949,
      "Ġ,": 1950,
      "Ġjob": 1951,
      "lan": 1952,
      "ser": 1953,
      "Ġsure": 1954,
      "icy": 1955,
      "int": 1956,
      "Ġmil": 1957,
      "->": 1958,
      "Ġrema": 1959,
      "oot": 1960,
      "Ġorganiz": 1961,
      "Ġvers": 1962,
      "Ġtimes": 1963,
      "'d": 1964,
      "Ġopera": 1965,
      "Ġfr": 1966,
      "alf": 1967,
      "irt": 1968,
      "Ġacross": 1969,
      "Ġpoli": 1970,
      "Ġlarge": 1971,
      "urth": 1972,
      "acy": 1973,
      "ividual": 1974,
      "Ġself": 1975,
      "Ġkind": 1976,
      "Ġtogether": 1977,
      "Ġcourse": 1978,
      "load": 1979,
      "omm": 1980,
      "ende": 1981,
      "Ġmajor": 1982,
      "Ġmembers": 1983,
      "ference": 1984,
      "Ġent": 1985,
      "Ġ13": 1986,
      "Ex": 1987,
      "urity": 1988,
      "Ġext": 1989,
      "What": 1990,
      "ially": 1991,
      "urthe": 1992,
      "ically": 1993,
      "ably": 1994,
      "Ġwomen": 1995,
      "ris": 1996,
      "Ġoften": 1997,
      "ĠChi": 1998,
      "org": 1999,
      "Ġris": 2000,
      "ader": 2001,
      "ĠSouth": 2002,
      "Ġbecome": 2003,
      "Ġfield": 2004,
      "Ġphoto": 2005,
      "__": 2006,
      "ria": 2007,
      "ede": 2008,
      "urther": 2009,
      "others": 2010,
      "Ġenti": 2011,
      "Ġele": 2012,
      "ttp": 2013,
      "Ġexample": 2014,
      "ĠWhat": 2015,
      "Ġhaving": 2016,
      "Ġbring": 2017,
      "ĠState": 2018,
      "Ġgiven": 2019,
      "Ġpossible": 2020,
      "Ġdidn": 2021,
      "online": 2022,
      "Ġfin": 2023,
      "oci": 2024,
      "Ġsch": 2025,
      "eet": 2026,
      "Ġrepres": 2027,
      "ought": 2028,
      "fac": 2029,
      "ideo": 2030,
      "Ġdevelopment": 2031,
      "ime": 2032,
      "Ġalready": 2033,
      "ĠBa": 2034,
      "ĠPol": 2035,
      "artment": 2036,
      "cal": 2037,
      "new": 2038,
      "Ġeduc": 2039,
      "anti": 2040,
      "ivers": 2041,
      "Ġear": 2042,
      "AL": 2043,
      "tee": 2044,
      "Ġeconom": 2045,
      "Ġside": 2046,
      "utes": 2047,
      "graph": 2048,
      "Ġinteres": 2049,
      "Ġauthor": 2050,
      "Ġcity": 2051,
      "Ġwin": 2052,
      "ids": 2053,
      "Ġinclude": 2054,
      "urch": 2055,
      "ector": 2056,
      "Ġfocus": 2057,
      "Ġcul": 2058,
      "obal": 2059,
      "rc": 2060,
      "Ġseveral": 2061,
      "po": 2062,
      "mber": 2063,
      "ills": 2064,
      "eta": 2065,
      "ĠÐ¿": 2066,
      "Ġtrad": 2067,
      "ithe": 2068,
      "Ġproject": 2069,
      "Ġdefi": 2070,
      "ttps": 2071,
      "Ġmethod": 2072,
      "Ġparticular": 2073,
      "\\\\": 2074,
      "ined": 2075,
      "Ġdesig": 2076,
      "Ġnews": 2077,
      "Ġroom": 2078,
      "ka": 2079,
      "Ġmulti": 2080,
      "ĠOc": 2081,
      "ium": 2082,
      "Ġtype": 2083,
      "Ġ2017": 2084,
      "Ġmarket": 2085,
      "(\"": 2086,
      "Ã³": 2087,
      "Ġsha": 2088,
      "Ġfilm": 2089,
      "tually": 2090,
      "py": 2091,
      "ĠTe": 2092,
      "Ġidenti": 2093,
      "ÑģÑĤ": 2094,
      "ior": 2095,
      "ĠYork": 2096,
      "ĠWhen": 2097,
      "Ġleast": 2098,
      "ither": 2099,
      "Ġtur": 2100,
      "Ġonline": 2101,
      "Ġtell": 2102,
      "Ġorigi": 2103,
      "Ġindividual": 2104,
      "Ġfood": 2105,
      "begin": 2106,
      "gan": 2107,
      "ĠPres": 2108,
      "Ġhuman": 2109,
      "ability": 2110,
      "set": 2111,
      "Ġpati": 2112,
      "Ġfact": 2113,
      "jects": 2114,
      "ported": 2115,
      "Ġmoney": 2116,
      "nam": 2117,
      "Ġmeans": 2118,
      "Ġfuture": 2119,
      "ĠĠĠĠĠĠĠĠĠĠĠĠĠĠĠĠ": 2120,
      "Ġever": 2121,
      "amb": 2122,
      "portun": 2123,
      "omes": 2124,
      "Ġvi": 2125,
      "ĠÃ": 2126,
      "nific": 2127,
      "ĠHer": 2128,
      "Ġpast": 2129,
      "Ġknown": 2130,
      "::": 2131,
      "ĠNorth": 2132,
      "Ġrele": 2133,
      "ĠLe": 2134,
      "Ġlater": 2135,
      "fr": 2136,
      "test": 2137,
      "Ġwo": 2138,
      "idence": 2139,
      "Ġpersonal": 2140,
      "ooks": 2141,
      "gle": 2142,
      "Ġlooking": 2143,
      "my": 2144,
      "AS": 2145,
      "ĠNational": 2146,
      "Ġworks": 2147,
      "Ġinvol": 2148,
      "Ġenter": 2149,
      "Ġenough": 2150,
      "ources": 2151,
      "ued": 2152,
      "Ġkey": 2153,
      "Ġwebs": 2154,
      "Ġlive": 2155,
      "ca": 2156,
      "Ġothers": 2157,
      "Ġhouse": 2158,
      "eer": 2159,
      "ustry": 2160,
      "Ġearly": 2161,
      "Ġdesign": 2162,
      "Ġconc": 2163,
      "Ġdone": 2164,
      "Ġhistory": 2165,
      "not": 2166,
      "ĠSte": 2167,
      "Ġperi": 2168,
      "Ġpot": 2169,
      "Ġpresent": 2170,
      "Ġ2016": 2171,
      "mail": 2172,
      "ging": 2173,
      "ĠWorld": 2174,
      "ati": 2175,
      "nation": 2176,
      "ived": 2177,
      "rie": 2178,
      "ÑĮ": 2179,
      "25": 2180,
      "Ġsite": 2181,
      "Ġ198": 2182,
      "lu": 2183,
      "Ġcreate": 2184,
      "ÃŃ": 2185,
      "gest": 2186,
      "Ġseason": 2187,
      "mal": 2188,
      "Ġbi": 2189,
      "once": 2190,
      "ĠGu": 2191,
      "Ġstudy": 2192,
      "reak": 2193,
      "Ġrep": 2194,
      "wards": 2195,
      "23": 2196,
      "ians": 2197,
      "ĠEd": 2198,
      "Ġshort": 2199,
      "Ġfra": 2200,
      "Pro": 2201,
      "ĠStates": 2202,
      "Ġsci": 2203,
      "Ġlight": 2204,
      "ĠSep": 2205,
      "Ġfina": 2206,
      "nger": 2207,
      "Sh": 2208,
      "press": 2209,
      "Ġhold": 2210,
      "abor": 2211,
      "Ġsug": 2212,
      "oud": 2213,
      "Ġdetail": 2214,
      "Ġ2020": 2215,
      "IT": 2216,
      ")$": 2217,
      "pan": 2218,
      "Ġtook": 2219,
      "ensive": 2220,
      "rel": 2221,
      "sc": 2222,
      "RE": 2223,
      "allen": 2224,
      "Ġfinal": 2225,
      "joy": 2226,
      "Ġreview": 2227,
      "off": 2228,
      "back": 2229,
      "Ġpat": 2230,
      "ront": 2231,
      "Ġbene": 2232,
      "Ġopportun": 2233,
      "ĠSec": 2234,
      "Ġmakes": 2235,
      "Ġamong": 2236,
      "most": 2237,
      "Ġmom": 2238,
      "Ġresult": 2239,
      "ious": 2240,
      "ball": 2241,
      "To": 2242,
      "Ġmodel": 2243,
      "Ġsum": 2244,
      "Ġseries": 2245,
      "Ġene": 2246,
      "nuary": 2247,
      "Ġsus": 2248,
      "play": 2249,
      "Ġclaim": 2250,
      "aper": 2251,
      "Ġinte": 2252,
      "Ġartic": 2253,
      "inc": 2254,
      "ĠCity": 2255,
      "Ġteach": 2256,
      "ĠDr": 2257,
      "();": 2258,
      "Ġdiscuss": 2259,
      "Ġener": 2260,
      "Ġspace": 2261,
      "Ġpub": 2262,
      "lege": 2263,
      "Ġthought": 2264,
      "Ġcli": 2265,
      "Ġnight": 2266,
      "Ġspecific": 2267,
      "aces": 2268,
      "ada": 2269,
      "ĠCons": 2270,
      "wa": 2271,
      "ĠUn": 2272,
      "ĠApr": 2273,
      "times": 2274,
      "ĠCount": 2275,
      "IC": 2276,
      "Ġadva": 2277,
      "ĠSchool": 2278,
      "ides": 2279,
      "col": 2280,
      "Ġneeds": 2281,
      "ĠJohn": 2282,
      "Ġenc": 2283,
      "ĠMe": 2284,
      "Ġenvironment": 2285,
      "Ġmeas": 2286,
      "ĠSup": 2287,
      "}{": 2288,
      "_{\\": 2289,
      "By": 2290,
      "ister": 2291,
      "ĠÐ²": 2292,
      "Ġdoing": 2293,
      "Ġ25": 2294,
      "Ġlow": 2295,
      "Ġbody": 2296,
      "Ġonce": 2297,
      "ĠBar": 2298,
      "},": 2299,
      "ĠOn": 2300,
      "ĠGod": 2301,
      "Ġclose": 2302,
      "):": 2303,
      "osp": 2304,
      "Ġoffice": 2305,
      "ĠPl": 2306,
      "othing": 2307,
      "ham": 2308,
      "Ġresults": 2309,
      "And": 2310,
      "Ġcustom": 2311,
      "Ġyoung": 2312,
      "Ġx": 2313,
      "Ġhappen": 2314,
      "ĠMy": 2315,
      "Ġseen": 2316,
      "Ġmaterial": 2317,
      "Ġmedia": 2318,
      "Ġbar": 2319,
      "oman": 2320,
      "ĠHowever": 2321,
      "ncial": 2322,
      "tional": 2323,
      "Ġvol": 2324,
      "Ġtrue": 2325,
      "Ġouts": 2326,
      "Ġbit": 2327,
      "Ġmode": 2328,
      "ĠDep": 2329,
      "Ġremo": 2330,
      "Ġperiod": 2331,
      "Ch": 2332,
      "Ġfive": 2333,
      "Ġproblem": 2334,
      "formance": 2335,
      "Ġ2015": 2336,
      "ĠMed": 2337,
      "Ġdoesn": 2338,
      "rror": 2339,
      "Ġdue": 2340,
      "ĠAug": 2341,
      "ĠHar": 2342,
      "www": 2343,
      "ĠMarch": 2344,
      "da": 2345,
      "do": 2346,
      "wer": 2347,
      "ĠOne": 2348,
      "Ġsingle": 2349,
      "ye": 2350,
      "Ġwal": 2351,
      "ĠCor": 2352,
      "Ġwent": 2353,
      "ĠNe": 2354,
      "Ġtyp": 2355,
      "eme": 2356,
      "ĠMc": 2357,
      "Ġquestion": 2358,
      "ounds": 2359,
      "Ġdeter": 2360,
      "Ġwon": 2361,
      "Ġtes": 2362,
      "aud": 2363,
      "Ther": 2364,
      "nf": 2365,
      "irl": 2366,
      "ĠAb": 2367,
      "now": 2368,
      "Ġmind": 2369,
      "Ġcomes": 2370,
      "ental": 2371,
      "40": 2372,
      "Ġcover": 2373,
      "But": 2374,
      "Ġadv": 2375,
      "Ġrelations": 2376,
      "Ġwhether": 2377,
      "Ġwatch": 2378,
      "Ġnor": 2379,
      "nim": 2380,
      "Ġsignific": 2381,
      "Ñĭ": 2382,
      "self": 2383,
      "Ġ100": 2384,
      "ĠChris": 2385,
      "onde": 2386,
      "ournal": 2387,
      "Ġtreat": 2388,
      "Ġabove": 2389,
      "Ġprofession": 2390,
      "Ġfir": 2391,
      "ĠThese": 2392,
      "Ġstarted": 2393,
      "ÑĢÐ°": 2394,
      "Ġvisit": 2395,
      "frac": 2396,
      "Ġactually": 2397,
      "sy": 2398,
      "Ġtax": 2399,
      "Ġser": 2400,
      "ĠRep": 2401,
      "Ġcost": 2402,
      "Ġindustry": 2403,
      "There": 2404,
      "Ġtold": 2405,
      "Ġstra": 2406,
      "No": 2407,
      "Ġprob": 2408,
      "Re": 2409,
      "Ġmonths": 2410,
      "Ġreach": 2411,
      "Ġpic": 2412,
      "AC": 2413,
      "tings": 2414,
      "ender": 2415,
      "Ġprivate": 2416,
      "let": 2417,
      "Ġcell": 2418,
      "Ġfav": 2419,
      "Ġuni": 2420,
      "Ġtw": 2421,
      "Ġpress": 2422,
      "though": 2423,
      "ĠJanuary": 2424,
      "Ġland": 2425,
      "Ar": 2426,
      "Ġrequir": 2427,
      "Ġproducts": 2428,
      "lected": 2429,
      "Ġiniti": 2430,
      "Ġreason": 2431,
      "Ġyet": 2432,
      "ED": 2433,
      "Ġens": 2434,
      "Ġinvest": 2435,
      "xim": 2436,
      "Ġquality": 2437,
      "Ñĩ": 2438,
      "rated": 2439,
      "Ġapproach": 2440,
      "tively": 2441,
      "Ġide": 2442,
      "IS": 2443,
      "tm": 2444,
      "illed": 2445,
      "Al": 2446,
      "Ġgetting": 2447,
      "Ġenjoy": 2448,
      "Ġpercent": 2449,
      "?\"": 2450,
      "ements": 2451,
      "Ma": 2452,
      "igure": 2453,
      "Ġmag": 2454,
      "Ġwebsite": 2455,
      "Ġexc": 2456,
      "ĠSch": 2457,
      "ĠWill": 2458,
      "Ġenergy": 2459,
      "elves": 2460,
      "book": 2461,
      "Ġaddress": 2462,
      "ĠHow": 2463,
      "oin": 2464,
      "Ġ24": 2465,
      "ĠInter": 2466,
      "ants": 2467,
      "room": 2468,
      "ilities": 2469,
      "ech": 2470,
      "fy": 2471,
      "ĠServ": 2472,
      "ĠJune": 2473,
      "face": 2474,
      "Ġ2014": 2475,
      "--------": 2476,
      "tober": 2477,
      "Ġfurther": 2478,
      "60": 2479,
      "Ġsof": 2480,
      "iso": 2481,
      "Ġstrong": 2482,
      "Ġcharacter": 2483,
      "Ġabs": 2484,
      "Ġwind": 2485,
      "Ġcommit": 2486,
      "tember": 2487,
      "ĠApril": 2488,
      "ĠWar": 2489,
      "Ġbegin": 2490,
      "Ð½Ð¸": 2491,
      "Ġcal": 2492,
      "Ġsty": 2493,
      "ilar": 2494,
      "ix": 2495,
      "kely": 2496,
      "ula": 2497,
      "ming": 2498,
      "Ġnear": 2499,
      "Ġnetw": 2500,
      "ilt": 2501,
      "Ġbuilding": 2502,
      "oun": 2503,
      "Ġfail": 2504,
      "used": 2505,
      "ief": 2506,
      "lex": 2507,
      "Ġmor": 2508,
      "Ġoffer": 2509,
      "Ġdeal": 2510,
      "Ġdirect": 2511,
      "Ġshare": 2512,
      "Ġconnec": 2513,
      "hird": 2514,
      "ced": 2515,
      "tead": 2516,
      "Ġpage": 2517,
      "ece": 2518,
      "ization": 2519,
      "Ġdiffer": 2520,
      "fect": 2521,
      "Ġmess": 2522,
      "Ġstruc": 2523,
      "ping": 2524,
      "Ġrole": 2525,
      "anies": 2526,
      "Ġ197": 2527,
      "anc": 2528,
      "Ġacce": 2529,
      "Ġcompanies": 2530,
      "uff": 2531,
      "ern": 2532,
      "ovember": 2533,
      "mary": 2534,
      "asing": 2535,
      "ugh": 2536,
      "Ġclos": 2537,
      "serv": 2538,
      "ĠJuly": 2539,
      "ams": 2540,
      "ately": 2541,
      "Ġphys": 2542,
      "ager": 2543,
      "Ġgeneral": 2544,
      "ĠFeb": 2545,
      "Ġdeath": 2546,
      "Ġissues": 2547,
      "Ġvideo": 2548,
      "Ġinves": 2549,
      "pped": 2550,
      "ished": 2551,
      "ibility": 2552,
      "Ġscr": 2553,
      "Ġelse": 2554,
      "Ġago": 2555,
      "ox": 2556,
      "ĠBr": 2557,
      "ocia": 2558,
      "action": 2559,
      "hol": 2560,
      "Ġaccount": 2561,
      "ising": 2562,
      "epend": 2563,
      "Ġcompe": 2564,
      "top": 2565,
      "Ġreport": 2566,
      "add": 2567,
      "work": 2568,
      "Ġcontent": 2569,
      "Ġrange": 2570,
      "24": 2571,
      "Ġhalf": 2572,
      "tim": 2573,
      "Ġface": 2574,
      "Ġhy": 2575,
      "Ġflo": 2576,
      "temp": 2577,
      "Ġprotec": 2578,
      "Ġaction": 2579,
      "tan": 2580,
      "Ġannou": 2581,
      "duce": 2582,
      "ille": 2583,
      "eak": 2584,
      "pecially": 2585,
      "ĠĊ": 2586,
      "Ġprevious": 2587,
      "Ġdeb": 2588,
      "men": 2589,
      "Ġaud": 2590,
      "ov": 2591,
      "Ġtest": 2592,
      "ĠComp": 2593,
      "ension": 2594,
      "Ġtechnology": 2595,
      "Ġprep": 2596,
      "Ġwhole": 2597,
      "Ġsignificant": 2598,
      "frica": 2599,
      "('": 2600,
      "itive": 2601,
      "bb": 2602,
      "lick": 2603,
      "Ġbelow": 2604,
      "ĠNews": 2605,
      "Ġhours": 2606,
      "Ġ50": 2607,
      "ama": 2608,
      "Ac": 2609,
      "ĠÑģ": 2610,
      "Ġeasy": 2611,
      "ules": 2612,
      "raph": 2613,
      "Ð¾Ð²": 2614,
      "Ġbenef": 2615,
      "Ġow": 2616,
      "uation": 2617,
      "Ġposition": 2618,
      "mm": 2619,
      "ĠStr": 2620,
      "Ġcirc": 2621,
      "Ġans": 2622,
      "ysis": 2623,
      "hie": 2624,
      "ried": 2625,
      "Ã¤": 2626,
      "ided": 2627,
      "EC": 2628,
      "gress": 2629,
      "ĠMic": 2630,
      "Ġage": 2631,
      "ask": 2632,
      "ĠCO": 2633,
      "che": 2634,
      "hind": 2635,
      "roll": 2636,
      "tig": 2637,
      "Ġ2013": 2638,
      "Ġeither": 2639,
      "Ġparticip": 2640,
      "ĠMus": 2641,
      "tall": 2642,
      "Ġquick": 2643,
      "ustral": 2644,
      "Ġfriends": 2645,
      "cite": 2646,
      "Ġperformance": 2647,
      "Ġtaken": 2648,
      "Ġbelieve": 2649,
      "Ġdou": 2650,
      "achi": 2651,
      "ĠWh": 2652,
      "Ġarg": 2653,
      "ured": 2654,
      "When": 2655,
      "ĠBy": 2656,
      "Ġnational": 2657,
      "Ġalmost": 2658,
      "year": 2659,
      "rm": 2660,
      "Ġsong": 2661,
      "ĠStud": 2662,
      "pera": 2663,
      "Ġrad": 2664,
      "Ġthird": 2665,
      "log": 2666,
      "ĠSci": 2667,
      "Ad": 2668,
      "Ġpain": 2669,
      "Ġexce": 2670,
      "Ġcompu": 2671,
      "Ġrat": 2672,
      "ĠSeptember": 2673,
      "ledge": 2674,
      "ĠWa": 2675,
      "AM": 2676,
      "ison": 2677,
      "posed": 2678,
      "ĠDecember": 2679,
      "ĠOctober": 2680,
      "Ġestab": 2681,
      "Ġamount": 2682,
      "Ġtaking": 2683,
      "ering": 2684,
      "Ġtour": 2685,
      "Com": 2686,
      "arth": 2687,
      "Ġperform": 2688,
      "........": 2689,
      "ĠAfter": 2690,
      "engt": 2691,
      "ĠInc": 2692,
      "ondo": 2693,
      "Ġmiss": 2694,
      "matic": 2695,
      "key": 2696,
      "ĠDav": 2697,
      "ky": 2698,
      "div": 2699,
      "media": 2700,
      "Ġissue": 2701,
      "Ġspe": 2702,
      "tus": 2703,
      "Ġeverything": 2704,
      "Ġdist": 2705,
      "anim": 2706,
      "Ġvarious": 2707,
      "lement": 2708,
      "Ġ</": 2709,
      "minist": 2710,
      "Ġlog": 2711,
      "Ġidea": 2712,
      "ĠNovember": 2713,
      "Ð·": 2714,
      "Ġmov": 2715,
      "Ġregion": 2716,
      "national": 2717,
      "Ġque": 2718,
      "Ġgames": 2719,
      "Ġhea": 2720,
      "Ġaccording": 2721,
      "St": 2722,
      "Ġextr": 2723,
      "acks": 2724,
      "rec": 2725,
      "!!": 2726,
      "ĠReg": 2727,
      "Ġstrate": 2728,
      "Ġentir": 2729,
      "etty": 2730,
      "ĠHealth": 2731,
      "Ġclear": 2732,
      "Ġartis": 2733,
      "Ġproduct": 2734,
      "ngu": 2735,
      "ncil": 2736,
      "))": 2737,
      "pha": 2738,
      "ĠPresident": 2739,
      "pose": 2740,
      "eq": 2741,
      "Ġtar": 2742,
      "umb": 2743,
      "label": 2744,
      "Ġ2012": 2745,
      "Ġess": 2746,
      "Fi": 2747,
      "Ġdig": 2748,
      "ĠDes": 2749,
      "Ġnecess": 2750,
      "rad": 2751,
      "tima": 2752,
      "ava": 2753,
      "Ġchallen": 2754,
      "uts": 2755,
      "ĠOff": 2756,
      "ĠGer": 2757,
      "crib": 2758,
      "Ġsearch": 2759,
      "Ġhowever": 2760,
      "Ġshows": 2761,
      "ype": 2762,
      "Ð¹": 2763,
      "mar": 2764,
      "ĠCou": 2765,
      "cle": 2766,
      "On": 2767,
      "eli": 2768,
      "Ġevents": 2769,
      "Ġrequired": 2770,
      "Ġoriginal": 2771,
      "Ġupd": 2772,
      "ĠAfrica": 2773,
      "Ġart": 2774,
      "ĠCounty": 2775,
      "ev": 2776,
      "Ġ2021": 2777,
      "Ġrath": 2778,
      "Ġsimilar": 2779,
      "Ġrathe": 2780,
      "Ġ--": 2781,
      "Ġrather": 2782,
      "oogle": 2783,
      "hic": 2784,
      "Ġtotal": 2785,
      "ternational": 2786,
      "Ġareas": 2787,
      "zo": 2788,
      "tia": 2789,
      "ological": 2790,
      "ĠChar": 2791,
      "How": 2792,
      "Ġtrying": 2793,
      "Ġcam": 2794,
      "ĠAg": 2795,
      "Ġcheck": 2796,
      "Ġsupe": 2797,
      "Ġsize": 2798,
      "whe": 2799,
      "Ġanything": 2800,
      "Ġtool": 2801,
      "tific": 2802,
      "nese": 2803,
      "Ġpoints": 2804,
      "Ġwrit": 2805,
      "Ġsix": 2806,
      "Ġheld": 2807,
      "ĠRec": 2808,
      "Ġpers": 2809,
      "Ġlikely": 2810,
      "ites": 2811,
      "ĠBri": 2812,
      "Ð¿": 2813,
      "ua": 2814,
      "ĠWest": 2815,
      "Ġmass": 2816,
      "Ġtraining": 2817,
      "Ġsomeone": 2818,
      "Ġproperty": 2819,
      "ones": 2820,
      "ĠHouse": 2821,
      "pri": 2822,
      "ĠGl": 2823,
      "hanks": 2824,
      "ĠCent": 2825,
      "ĠSy": 2826,
      "ĠGene": 2827,
      "Ġmee": 2828,
      "ruary": 2829,
      "fully": 2830,
      "Ġmanagement": 2831,
      "Ġmember": 2832,
      "Ġprovided": 2833,
      "bor": 2834,
      "Ġimprove": 2835,
      "name": 2836,
      "ied": 2837,
      "Ġmean": 2838,
      "Ġperfect": 2839,
      "Ġfile": 2840,
      "Ġfeatures": 2841,
      "ĠRuss": 2842,
      "Ġachie": 2843,
      "Ġpolitical": 2844,
      "Ġact": 2845,
      "Ġrecog": 2846,
      "Ġheart": 2847,
      "ĠAugust": 2848,
      "Ġespecially": 2849,
      "****": 2850,
      "Ġmis": 2851,
      "Ġformer": 2852,
      "Do": 2853,
      "elt": 2854,
      "Ġoffe": 2855,
      "Ġcontinue": 2856,
      "Ġave": 2857,
      "So": 2858,
      "Ġpack": 2859,
      "HE": 2860,
      "ĠCenter": 2861,
      "ondon": 2862,
      "Ġfat": 2863,
      "Ġcoll": 2864,
      "Ġagr": 2865,
      "tate": 2866,
      "Ġadded": 2867,
      "Ġmatch": 2868,
      "roduc": 2869,
      "rial": 2870,
      "gs": 2871,
      "ude": 2872,
      "ĠVe": 2873,
      "Ġelec": 2874,
      "bert": 2875,
      "Ġsent": 2876,
      "Ġtable": 2877,
      "ya": 2878,
      "Ġcred": 2879,
      "à¤": 2880,
      "Ġblack": 2881,
      "ouch": 2882,
      "nto": 2883,
      "Ġbreak": 2884,
      "Ġanti": 2885,
      "Ġquite": 2886,
      "isting": 2887,
      "leb": 2888,
      "sp": 2889,
      "ena": 2890,
      "ĠIndia": 2891,
      "Ġconstruc": 2892,
      "ik": 2893,
      "rself": 2894,
      "Ġbehind": 2895,
      "ention": 2896,
      "Ġdiffic": 2897,
      "adem": 2898,
      "oid": 2899,
      "Ġauto": 2900,
      "ico": 2901,
      "##": 2902,
      "Ġ>": 2903,
      "Ġeducation": 2904,
      "osts": 2905,
      "Ġofficial": 2906,
      "cons": 2907,
      "ĠAustral": 2908,
      "ĠPart": 2909,
      "Ġliving": 2910,
      "ength": 2911,
      "Ġminutes": 2912,
      "Ġreceived": 2913,
      "Ġpolicy": 2914,
      "Ġturn": 2915,
      "iddle": 2916,
      "Ġfront": 2917,
      "Ġcode": 2918,
      "den": 2919,
      "ET": 2920,
      "Ġfamil": 2921,
      "ĠHigh": 2922,
      "Ġrecent": 2923,
      "Ġshall": 2924,
      "ped": 2925,
      "Ġasked": 2926,
      "Ġtravel": 2927,
      "hips": 2928,
      "roid": 2929,
      "80": 2930,
      "oups": 2931,
      "Ġviol": 2932,
      "za": 2933,
      "Ġcoming": 2934,
      "rai": 2935,
      "ĠOur": 2936,
      "Ġwanted": 2937,
      "Ġchanges": 2938,
      "bit": 2939,
      "aged": 2940,
      "Ġfall": 2941,
      "Ġsimple": 2942,
      "Ġmatter": 2943,
      "left": 2944,
      "leg": 2945,
      "Ġden": 2946,
      "ories": 2947,
      "rown": 2948,
      "Ġ21": 2949,
      "Ġleaders": 2950,
      "var": 2951,
      "Ġglobal": 2952,
      "Ġcommon": 2953,
      "Ġcases": 2954,
      "wher": 2955,
      "Ġmon": 2956,
      "ĠRa": 2957,
      "ĠDir": 2958,
      "this": 2959,
      "Ġsecurity": 2960,
      "ĠAp": 2961,
      "where": 2962,
      "Ġinterest": 2963,
      "Ġneeded": 2964,
      "US": 2965,
      "$.": 2966,
      "Ġrights": 2967,
      "Ġinternational": 2968,
      "ĠSome": 2969,
      "Ġforward": 2970,
      "Ñħ": 2971,
      "ĠUK": 2972,
      "ĠLaw": 2973,
      "ystem": 2974,
      "tition": 2975,
      "Ġsystems": 2976,
      "Ġexpla": 2977,
      "99": 2978,
      "hank": 2979,
      "Ġprice": 2980,
      "uge": 2981,
      "ĠÐ½": 2982,
      "Ġstaff": 2983,
      "orts": 2984,
      "Ġmat": 2985,
      "apa": 2986,
      "Ġversion": 2987,
      "$,": 2988,
      "ita": 2989,
      "Ġprovides": 2990,
      "Ġdate": 2991,
      "ously": 2992,
      "Ġbad": 2993,
      "AP": 2994,
      "With": 2995,
      "based": 2996,
      "mod": 2997,
      "27": 2998,
      "rup": 2999,
      "Ġcreated": 3000,
      "Ġrecomm": 3001,
      "nos": 3002,
      "Ġemb": 3003,
      "Ġupo": 3004,
      "tish": 3005,
      "Ġupon": 3006,
      "itary": 3007,
      "Res": 3008,
      "Ġregard": 3009,
      "Ġmys": 3010,
      "Ġarticle": 3011,
      "Ġ23": 3012,
      "RO": 3013,
      "Ġlearn": 3014,
      "ises": 3015,
      "Ġwords": 3016,
      "Ġpath": 3017,
      "Ġlangu": 3018,
      "ederal": 3019,
      "Ġwhite": 3020,
      "Ġanim": 3021,
      "Ġtem": 3022,
      "emi": 3023,
      "itional": 3024,
      "tained": 3025,
      "Ġquestions": 3026,
      "Ġrisk": 3027,
      "Ġterms": 3028,
      "Ġill": 3029,
      "Ġpatients": 3030,
      "ĠInternational": 3031,
      "ĠCont": 3032,
      "Ġconcer": 3033,
      "Ġfinancial": 3034,
      "Ġ2011": 3035,
      "Ġcertain": 3036,
      "ored": 3037,
      "Ġpotential": 3038,
      "astic": 3039,
      "ĠMr": 3040,
      "come": 3041,
      "Ġincrease": 3042,
      "ĠNot": 3043,
      "Ġpurch": 3044,
      "bum": 3045,
      "idt": 3046,
      "try": 3047,
      "Ġbecame": 3048,
      "ras": 3049,
      "aging": 3050,
      "Name": 3051,
      "Ġnothing": 3052,
      "aced": 3053,
      "ider": 3054,
      "ully": 3055,
      "hood": 3056,
      "Ġ2010": 3057,
      "uel": 3058,
      "Ġcountries": 3059,
      "Ġpopular": 3060,
      "26": 3061,
      "Ġrate": 3062,
      "Ġsubs": 3063,
      "Ġrefer": 3064,
      "ĠWas": 3065,
      "Ġcut": 3066,
      "ĠApp": 3067,
      "ĠFebruary": 3068,
      "Ġwriting": 3069,
      "Ġimm": 3070,
      "Ġmoment": 3071,
      "Ġeveryone": 3072,
      "oil": 3073,
      "Ġuser": 3074,
      "Ġproduction": 3075,
      "Ġhighe": 3076,
      "ubs": 3077,
      "Ġparty": 3078,
      "Ġhigher": 3079,
      "onder": 3080,
      "tains": 3081,
      "elling": 3082,
      "Ġfla": 3083,
      "ĠSm": 3084,
      "Ġep": 3085,
      "Ġrepresent": 3086,
      "Ġretur": 3087,
      "Ã¶": 3088,
      "Ġcannot": 3089,
      "ĠPer": 3090,
      "Ġimage": 3091,
      "bf": 3092,
      "ground": 3093,
      "ĠBro": 3094,
      "Ġways": 3095,
      "Ġroad": 3096,
      "New": 3097,
      "Ġcra": 3098,
      "Ġcy": 3099,
      "Ġincludes": 3100,
      "Ã¼": 3101,
      "45": 3102,
      "Ġprobably": 3103,
      "nch": 3104,
      "Ġcomplete": 3105,
      "ida": 3106,
      "ĠSw": 3107,
      "ĠNa": 3108,
      "hold": 3109,
      "Ġbur": 3110,
      "ĠGra": 3111,
      "Ġseems": 3112,
      "Ġlives": 3113,
      "Ġ40": 3114,
      "Ġcontact": 3115,
      "Ġfriend": 3116,
      "Ġvar": 3117,
      "ĠQu": 3118,
      "Ġlink": 3119,
      "lied": 3120,
      "Ġengine": 3121,
      "Ġoutside": 3122,
      "ault": 3123,
      "cription": 3124,
      "uty": 3125,
      "trict": 3126,
      "Ġcombi": 3127,
      "ÐµÑĢ": 3128,
      "Ġtakes": 3129,
      "Ġsound": 3130,
      "Ġcontribu": 3131,
      "Ġdefini": 3132,
      "ĠEl": 3133,
      "Ġur": 3134,
      "ĠLondon": 3135,
      "des": 3136,
      "usion": 3137,
      "Ġoffers": 3138,
      "tware": 3139,
      "ĠFri": 3140,
      "ester": 3141,
      "alle": 3142,
      "Ġemail": 3143,
      "Ġdam": 3144,
      "Ġhor": 3145,
      "28": 3146,
      "tured": 3147,
      "Ġsense": 3148,
      "At": 3149,
      "LE": 3150,
      "ĠChina": 3151,
      "ĠOp": 3152,
      "Id": 3153,
      "Ġinstall": 3154,
      "iction": 3155,
      "Ġreduc": 3156,
      "Ġnatural": 3157,
      "fety": 3158,
      "field": 3159,
      "gen": 3160,
      "Ġexper": 3161,
      "eless": 3162,
      "ncer": 3163,
      "alse": 3164,
      "Ġfoot": 3165,
      "ĠPark": 3166,
      "Ġlay": 3167,
      "Ġstay": 3168,
      "isted": 3169,
      "ivil": 3170,
      "ux": 3171,
      "Ġisn": 3172,
      "Ġlaunch": 3173,
      "Ġdu": 3174,
      "Ġvia": 3175,
      "Ġdecision": 3176,
      "idth": 3177,
      "zy": 3178,
      "hite": 3179,
      "ĠEn": 3180,
      "ncip": 3181,
      "lim": 3182,
      "Ġpaper": 3183,
      "nic": 3184,
      "Ġencou": 3185,
      "Ġgen": 3186,
      "Ġcourt": 3187,
      "ĠDepartment": 3188,
      "Ġhope": 3189,
      "Ġsimply": 3190,
      "Ġapplication": 3191,
      "Ġbeau": 3192,
      "Ġworked": 3193,
      "Ġhit": 3194,
      "Ġbegan": 3195,
      "Ġvic": 3196,
      "ford": 3197,
      "ĠSha": 3198,
      "ding": 3199,
      "aily": 3200,
      "29": 3201,
      "Ġexecu": 3202,
      "Ġgirl": 3203,
      "ince": 3204,
      "})": 3205,
      "Ġgrowt": 3206,
      "ĠAir": 3207,
      "Ġprote": 3208,
      "Ġgrowth": 3209,
      "Ġcareer": 3210,
      "Ð±": 3211,
      "Ġmix": 3212,
      "ĠOf": 3213,
      "Ġprec": 3214,
      "All": 3215,
      "Ġbuy": 3216,
      "ema": 3217,
      "Ġitself": 3218,
      ".)": 3219,
      "nary": 3220,
      "uments": 3221,
      "Ġfit": 3222,
      "tiful": 3223,
      "Ġproblems": 3224,
      "ĠChrist": 3225,
      "Ġstri": 3226,
      "Ġloss": 3227,
      "Ġlate": 3228,
      "Ġpromo": 3229,
      "ospital": 3230,
      "ĠMor": 3231,
      "Ġimpact": 3232,
      "Ġsaw": 3233,
      "Ġtreatment": 3234,
      "ĠMore": 3235,
      "Ġclea": 3236,
      "titute": 3237,
      "Ġrev": 3238,
      "33": 3239,
      "tit": 3240,
      "Ġcurrently": 3241,
      "ease": 3242,
      "ĠEuro": 3243,
      "uce": 3244,
      "ext": 3245,
      "Ġcolor": 3246,
      "Ġunique": 3247,
      "Ġreported": 3248,
      "Ġbooks": 3249,
      "ĠAng": 3250,
      "Ð³": 3251,
      "nister": 3252,
      "ande": 3253,
      "Ġaccom": 3254,
      "Ġfavor": 3255,
      "Ġpor": 3256,
      "ĠHol": 3257,
      "ops": 3258,
      "ociation": 3259,
      "Ġcontr": 3260,
      "ÐµÐ½": 3261,
      "pons": 3262,
      "Ġprior": 3263,
      "ishing": 3264,
      ",\\": 3265,
      "Ġsens": 3266,
      "urance": 3267,
      "ION": 3268,
      "Ġ27": 3269,
      "ĠOb": 3270,
      "Con": 3271,
      "Ġtrack": 3272,
      "Ġder": 3273,
      "selves": 3274,
      "emb": 3275,
      "Ġsection": 3276,
      "OT": 3277,
      "ĠII": 3278,
      "Ġdescrib": 3279,
      "ĠVal": 3280,
      "pon": 3281,
      "grams": 3282,
      "rain": 3283,
      "ĠAm": 3284,
      "ridge": 3285,
      "LL": 3286,
      "Ġplayers": 3287,
      "Ġknowledge": 3288,
      "ĠKing": 3289,
      "Ġgroups": 3290,
      "amed": 3291,
      "lies": 3292,
      "Ġthemselves": 3293,
      "eds": 3294,
      "Ġsoon": 3295,
      "Ġsource": 3296,
      "itter": 3297,
      "Ġstyle": 3298,
      "tian": 3299,
      "Ġnetwork": 3300,
      "Ġinj": 3301,
      "ĠTa": 3302,
      "porting": 3303,
      "mathcal": 3304,
      "Ġrecently": 3305,
      "ĊĠĠĠĠĠĠĠĠĠĠĠĠĠĠĠĠĠĠĠ": 3306,
      "ami": 3307,
      "Ġopportunity": 3308,
      "Ġ28": 3309,
      "Ġinflu": 3310,
      "Ġthroughout": 3311,
      "Ġsugges": 3312,
      "Ġdiv": 3313,
      "Ġresponse": 3314,
      "obile": 3315,
      "refore": 3316,
      "ror": 3317,
      "Ġhistor": 3318,
      "Ġdeep": 3319,
      "Âł": 3320,
      "Ġten": 3321,
      "Ġincluded": 3322,
      "Ġassocia": 3323,
      "ĠTV": 3324,
      "havi": 3325,
      "alifor": 3326,
      "wi": 3327,
      "import": 3328,
      "ĠEnglish": 3329,
      "resh": 3330,
      "Ġrunning": 3331,
      "Ġ26": 3332,
      "orge": 3333,
      "Ġope": 3334,
      "Ġ22": 3335,
      "Ġwritten": 3336,
      "Ġhol": 3337,
      "bu": 3338,
      "span": 3339,
      "Ġmeet": 3340,
      "35": 3341,
      "gt": 3342,
      "Ġconditions": 3343,
      "Ġsex": 3344,
      "Ġclim": 3345,
      "tml": 3346,
      "Ġprofessional": 3347,
      "Ġrelated": 3348,
      "UR": 3349,
      "Ġstep": 3350,
      "ott": 3351,
      "}.": 3352,
      "Ġlonge": 3353,
      "====": 3354,
      "erson": 3355,
      "Ġground": 3356,
      "Ġbase": 3357,
      "lood": 3358,
      "Ġlonger": 3359,
      "Ġlegal": 3360,
      "ĠDay": 3361,
      "Ġport": 3362,
      "arter": 3363,
      "ĠTrump": 3364,
      "ING": 3365,
      "ĠYour": 3366,
      "ĠÐ¸": 3367,
      "rab": 3368,
      "Ġfore": 3369,
      "Ġtext": 3370,
      "Ġlearning": 3371,
      "mission": 3372,
      "Ġjud": 3373,
      "Ġbuilt": 3374,
      "Ġexpected": 3375,
      "ocal": 3376,
      "ĠTim": 3377,
      "ĠMark": 3378,
      "ĠCourt": 3379,
      "equation": 3380,
      "ĠNow": 3381,
      "uses": 3382,
      "alifornia": 3383,
      "Se": 3384,
      "uk": 3385,
      "Ġstop": 3386,
      "Pr": 3387,
      "Ġvehic": 3388,
      "Ġpolice": 3389,
      "Cl": 3390,
      "String": 3391,
      "yes": 3392,
      "order": 3393,
      "Is": 3394,
      "ĠFrom": 3395,
      "Ġeffect": 3396,
      "tives": 3397,
      "Ġcommunic": 3398,
      "Ġcustomers": 3399,
      "ĠCommun": 3400,
      "ift": 3401,
      "Ġemer": 3402,
      "iting": 3403,
      "Ġpractice": 3404,
      "sych": 3405,
      "AD": 3406,
      "td": 3407,
      "ĊĊĠĠĠĠĠĠĠ": 3408,
      "Ġhimself": 3409,
      "ago": 3410,
      "Ġsepar": 3411,
      "enced": 3412,
      "ropean": 3413,
      "Ġplease": 3414,
      "ĠJe": 3415,
      "tick": 3416,
      "Ġ196": 3417,
      "ttemp": 3418,
      "irth": 3419,
      "Ġrepl": 3420,
      "Ġconduc": 3421,
      "Ġcampa": 3422,
      "attemp": 3423,
      "class": 3424,
      "Ġinvolved": 3425,
      "Ġpublished": 3426,
      "iet": 3427,
      "ening": 3428,
      "Ġproduce": 3429,
      "Ġinside": 3430,
      "iant": 3431,
      "Ġresid": 3432,
      "Ġdistribu": 3433,
      "ache": 3434,
      "Ġvac": 3435,
      "ĠBlack": 3436,
      "ĠSan": 3437,
      "Ġver": 3438,
      "ĠDem": 3439,
      "\")": 3440,
      "Ġmedical": 3441,
      "https": 3442,
      "ĠPla": 3443,
      "Ġhear": 3444,
      "ĠWi": 3445,
      "ÑĨ": 3446,
      "Ġrelease": 3447,
      "Ġcross": 3448,
      "pression": 3449,
      "aps": 3450,
      "Ġarri": 3451,
      "ĠÐ¾": 3452,
      "type": 3453,
      "cont": 3454,
      "Ġsea": 3455,
      "Ġdesigned": 3456,
      "unction": 3457,
      "alls": 3458,
      "istic": 3459,
      "pm": 3460,
      "Ġattemp": 3461,
      "Ġstates": 3462,
      "Ġanalysis": 3463,
      "Ġboard": 3464,
      "wood": 3465,
      "Ġextra": 3466,
      "ĠBu": 3467,
      "Ġlost": 3468,
      "eas": 3469,
      "Ġweeks": 3470,
      "Ġpick": 3471,
      "keting": 3472,
      "Ġwort": 3473,
      "Ġensure": 3474,
      "Ġadditional": 3475,
      "lation": 3476,
      "Ġinstead": 3477,
      "Ġleave": 3478,
      "ĠOffice": 3479,
      "Ġcard": 3480,
      "Ġcomplex": 3481,
      "Ġleading": 3482,
      "Ġplat": 3483,
      "Ġpretty": 3484,
      "Ġwoman": 3485,
      "Ġled": 3486,
      "BC": 3487,
      "Ġtalk": 3488,
      "Ġregular": 3489,
      "Ġarch": 3490,
      "vention": 3491,
      "di": 3492,
      "Ġfath": 3493,
      "phe": 3494,
      "iety": 3495,
      "lam": 3496,
      "ĠPhil": 3497,
      "hington": 3498,
      "lev": 3499,
      "Ġmachi": 3500,
      "olutions": 3501,
      "Ġoptions": 3502,
      "rang": 3503,
      "iving": 3504,
      "hael": 3505,
      "Ġsqu": 3506,
      "wide": 3507,
      "Pa": 3508,
      "ĠAct": 3509,
      "hannel": 3510,
      "bar": 3511,
      "haps": 3512,
      "ona": 3513,
      "Ġmeeting": 3514,
      "itation": 3515,
      "bl": 3516,
      "tial": 3517,
      "Ġsil": 3518,
      "nde": 3519,
      "Ġdetails": 3520,
      "Ġdiscover": 3521,
      "}(": 3522,
      "ĠResearch": 3523,
      "ĠIm": 3524,
      "ĠHo": 3525,
      "ulations": 3526,
      "Ġhop": 3527,
      "Ġblog": 3528,
      "01": 3529,
      "box": 3530,
      "Ġson": 3531,
      "Ġexact": 3532,
      "Ġaverage": 3533,
      "ades": 3534,
      "Ġstandard": 3535,
      "ĠCollege": 3536,
      "My": 3537,
      "Ġdeliver": 3538,
      "Ġoil": 3539,
      "Ġdie": 3540,
      "pite": 3541,
      "ĠDavid": 3542,
      "Ġceleb": 3543,
      "Ġcand": 3544,
      "Ġanyone": 3545,
      "Ġ2009": 3546,
      "Ġbea": 3547,
      "Ġdom": 3548,
      "body": 3549,
      "http": 3550,
      "irit": 3551,
      "isions": 3552,
      "ĠTrans": 3553,
      "Ġactivities": 3554,
      "fort": 3555,
      "iner": 3556,
      "uns": 3557,
      "Ġalbum": 3558,
      "Ġintroduc": 3559,
      "Col": 3560,
      "Type": 3561,
      "ĠHa": 3562,
      "rep": 3563,
      "aries": 3564,
      "turing": 3565,
      "light": 3566,
      "Ġ*/": 3567,
      "Ġdrug": 3568,
      "ĠMil": 3569,
      "Ġplayed": 3570,
      "bur": 3571,
      "Ġbeautiful": 3572,
      "Ġdocument": 3573,
      "Ġcusto": 3574,
      "ĠWhile": 3575,
      "Ġbox": 3576,
      "Ġlanguage": 3577,
      "Ġconsidered": 3578,
      "Ġweb": 3579,
      "Ġevidence": 3580,
      "Pe": 3581,
      "useum": 3582,
      "Ġfix": 3583,
      "Ġcenter": 3584,
      "Ġstudent": 3585,
      "CO": 3586,
      "nte": 3587,
      "ival": 3588,
      "Ġcause": 3589,
      "Ġusers": 3590,
      "iance": 3591,
      "Ġentire": 3592,
      "ttr": 3593,
      "ĠDa": 3594,
      "Ġlatest": 3595,
      "Ġprojects": 3596,
      "Ġeconomic": 3597,
      "Ġremember": 3598,
      "Ġreleased": 3599,
      "Ġplaying": 3600,
      "ufac": 3601,
      "vy": 3602,
      "ĠGroup": 3603,
      "Ġ2022": 3604,
      "Ð¾ÑĢ": 3605,
      "Ġsubject": 3606,
      "Ġband": 3607,
      "ĠCalifornia": 3608,
      "ĠJapa": 3609,
      "inf": 3610,
      "}^": 3611,
      "Ġhttps": 3612,
      "Ġtitle": 3613,
      "Ġlevels": 3614,
      "Ġtarget": 3615,
      "Ġreceive": 3616,
      "Ġdifficult": 3617,
      "90": 3618,
      "Ġappear": 3619,
      "Ð¾Ð´": 3620,
      "Ġmother": 3621,
      "Ġreading": 3622,
      "Ġetc": 3623,
      "32": 3624,
      "Ġvalues": 3625,
      "rench": 3626,
      "vey": 3627,
      "Ġscreen": 3628,
      "asons": 3629,
      "Ġequip": 3630,
      "That": 3631,
      "Ġmultiple": 3632,
      "Ġ2008": 3633,
      "tivity": 3634,
      "One": 3635,
      "ĊĊĠ": 3636,
      "ino": 3637,
      "nking": 3638,
      "Ġlower": 3639,
      "lers": 3640,
      "ĠÐº": 3641,
      "Ġdisplay": 3642,
      "Ġseri": 3643,
      "ĠFirst": 3644,
      "Ġmer": 3645,
      "eek": 3646,
      "ĠLea": 3647,
      "ala": 3648,
      "ĠAcc": 3649,
      "List": 3650,
      "dom": 3651,
      "Ġwasn": 3652,
      "ĠEuropean": 3653,
      "ĠThen": 3654,
      "Ġtown": 3655,
      "Ġterm": 3656,
      "OS": 3657,
      "ustice": 3658,
      "Ġmanufac": 3659,
      "ience": 3660,
      "rect": 3661,
      "Ġcouple": 3662,
      "].": 3663,
      "Ġobserv": 3664,
      "Ġnecessary": 3665,
      "ĠWilli": 3666,
      "ĊĠĠ": 3667,
      "Ġelect": 3668,
      "ute": 3669,
      "minal": 3670,
      "nna": 3671,
      "Ġmodern": 3672,
      "attr": 3673,
      "ependent": 3674,
      "ĠUp": 3675,
      "emo": 3676,
      "Ġimmedia": 3677,
      "illing": 3678,
      "Ġmention": 3679,
      "Ġsold": 3680,
      "Ġtouch": 3681,
      "raw": 3682,
      "late": 3683,
      "ocra": 3684,
      "ares": 3685,
      "ĠStreet": 3686,
      "Ġmovie": 3687,
      "ĠDi": 3688,
      "Ġapply": 3689,
      ".'": 3690,
      "ables": 3691,
      "Ġask": 3692,
      "Ġgoal": 3693,
      "Ġfathe": 3694,
      "Ġconsider": 3695,
      "lier": 3696,
      "Ġprograms": 3697,
      "Ġhands": 3698,
      "wise": 3699,
      "Ġha": 3700,
      "uit": 3701,
      "Ġbed": 3702,
      "}_": 3703,
      "ĠSim": 3704,
      "Ġreve": 3705,
      "70": 3706,
      "Ġfather": 3707,
      "mas": 3708,
      "Ġability": 3709,
      "Ġ...": 3710,
      "Ġdraw": 3711,
      "ified": 3712,
      "Val": 3713,
      "Ġge": 3714,
      "oul": 3715,
      "Li": 3716,
      "Ġparents": 3717,
      "ograph": 3718,
      "ques": 3719,
      "\":": 3720,
      "ĠCouncil": 3721,
      "Ġsuper": 3722,
      "elta": 3723,
      "Ġren": 3724,
      "ception": 3725,
      "hous": 3726,
      "tera": 3727,
      "Ġsolution": 3728,
      "itiz": 3729,
      "dis": 3730,
      "html": 3731,
      "like": 3732,
      "ĠBritish": 3733,
      "Ġstring": 3734,
      "Ġbrand": 3735,
      "Ġwonder": 3736,
      "umn": 3737,
      "Ġusually": 3738,
      "Ġhttp": 3739,
      "cial": 3740,
      "echn": 3741,
      "Ġwrite": 3742,
      "umber": 3743,
      "Ġ29": 3744,
      "ords": 3745,
      "Ġlocated": 3746,
      "Ġfelt": 3747,
      "taining": 3748,
      "36": 3749,
      "Ġfast": 3750,
      "ĠNet": 3751,
      "ffer": 3752,
      "ĠCap": 3753,
      "tone": 3754,
      "Ġsoftware": 3755,
      "ĠEurope": 3756,
      "~\\": 3757,
      "Ġwrong": 3758,
      "eal": 3759,
      "Ġphone": 3760,
      "Ġsurpr": 3761,
      "nner": 3762,
      "ĠEast": 3763,
      "ronic": 3764,
      "Ġgave": 3765,
      "Ġplans": 3766,
      "Ġple": 3767,
      "View": 3768,
      "Ð°Ð½": 3769,
      "44": 3770,
      "rd": 3771,
      "EL": 3772,
      "nection": 3773,
      "Ġspea": 3774,
      "ĊĠĠĠĠĠĠĠĠĠ": 3775,
      "Ġexpress": 3776,
      "ĠIN": 3777,
      "Ġbehavi": 3778,
      "Ġsales": 3779,
      "ĠTw": 3780,
      "Ġresources": 3781,
      "Ġeffic": 3782,
      "miss": 3783,
      "Ġadminist": 3784,
      "Ġdead": 3785,
      "alpha": 3786,
      "ado": 3787,
      "Ġnature": 3788,
      "estern": 3789,
      "ĠRed": 3790,
      "Ð¾Ð¼": 3791,
      "ĠCanada": 3792,
      "gue": 3793,
      "Ġannounced": 3794,
      "Ġunivers": 3795,
      "tri": 3796,
      "Ġshown": 3797,
      "Ġideas": 3798,
      "Ġpartners": 3799,
      "Ġjoi": 3800,
      "base": 3801,
      "onto": 3802,
      "Par": 3803,
      "Ġlooks": 3804,
      "ags": 3805,
      "Cont": 3806,
      "ĠBur": 3807,
      "Ġinterview": 3808,
      "ville": 3809,
      "Ġculture": 3810,
      "ĠArt": 3811,
      "Ġprogress": 3812,
      "Ġva": 3813,
      "oming": 3814,
      "ample": 3815,
      "An": 3816,
      "Ġworth": 3817,
      "mercial": 3818,
      "Ġdeg": 3819,
      "Ġshop": 3820,
      "Ġinvestig": 3821,
      "IG": 3822,
      "rote": 3823,
      "Ġprincip": 3824,
      "Ġrelationship": 3825,
      "Ġmorning": 3826,
      "100": 3827,
      "Ġkids": 3828,
      "aim": 3829,
      "Ġgoes": 3830,
      "ĠWashington": 3831,
      "Ġattention": 3832,
      "75": 3833,
      "Ġsle": 3834,
      "Ġdeveloped": 3835,
      "Ġquickly": 3836,
      "ĠProf": 3837,
      "Ġdro": 3838,
      "ĠOt": 3839,
      "ĠBen": 3840,
      "phi": 3841,
      "Ġdrive": 3842,
      "Ġalter": 3843,
      "rian": 3844,
      "estiv": 3845,
      "Ġwhose": 3846,
      "ĠSund": 3847,
      "Ġdigital": 3848,
      "Ġminim": 3849,
      "Ã¨": 3850,
      "Ġcapital": 3851,
      "af": 3852,
      "Ġready": 3853,
      "ont": 3854,
      "ropri": 3855,
      "aint": 3856,
      "Ġinteresting": 3857,
      "ĠRepublic": 3858,
      "Ð¾Ð»": 3859,
      "Ġstore": 3860,
      "Ġknew": 3861,
      "38": 3862,
      "Ġcollection": 3863,
      "Ġâ": 3864,
      "Ġstories": 3865,
      "Ġbrought": 3866,
      "ja": 3867,
      "non": 3868,
      "Ð°Ð»": 3869,
      "Ġparts": 3870,
      "Ġtowards": 3871,
      "echan": 3872,
      "Ġcamp": 3873,
      "Ġsafety": 3874,
      "yl": 3875,
      "Ġstren": 3876,
      "Ġaward": 3877,
      "mu": 3878,
      "Ġhous": 3879,
      "ĠBer": 3880,
      "Ġmid": 3881,
      "sum": 3882,
      "round": 3883,
      "Ġpositive": 3884,
      "itec": 3885,
      "ĠGo": 3886,
      "Ġeffective": 3887,
      "encies": 3888,
      "ÑģÐº": 3889,
      "eement": 3890,
      "Ġsafe": 3891,
      "fig": 3892,
      "Ġmilitary": 3893,
      "ĠMag": 3894,
      "band": 3895,
      "Ġgradu": 3896,
      "Ġestima": 3897,
      "erc": 3898,
      "Ġnorth": 3899,
      "Ġcosts": 3900,
      "Ġsummer": 3901,
      "Ġ)": 3902,
      "Ġmessage": 3903,
      "Ġprom": 3904,
      "Our": 3905,
      "ellow": 3906,
      "Ġnote": 3907,
      "Ġsaying": 3908,
      "Ġstage": 3909,
      "ĠPaul": 3910,
      "ĠIsra": 3911,
      "EO": 3912,
      "ĠÐ´": 3913,
      "Ġdirector": 3914,
      "Ġhar": 3915,
      "34": 3916,
      "Ġsmo": 3917,
      "essor": 3918,
      "mitted": 3919,
      "enty": 3920,
      "zz": 3921,
      "Ġsouth": 3922,
      "Ġflow": 3923,
      "Ġpresident": 3924,
      "Ġship": 3925,
      "Ġeyes": 3926,
      "istance": 3927,
      "Ġattack": 3928,
      "Ġwide": 3929,
      "After": 3930,
      "Ġchoose": 3931,
      "Ġchoice": 3932,
      "Ġpopulation": 3933,
      "lem": 3934,
      "cer": 3935,
      "Ġfair": 3936,
      "eathe": 3937,
      "Ġstrengt": 3938,
      "ocial": 3939,
      "Ġdoor": 3940,
      "Ġheard": 3941,
      "Ġski": 3942,
      "cap": 3943,
      "Ġgives": 3944,
      "Ġsituation": 3945,
      "ĠĠĠĠĠ": 3946,
      "Ġrou": 3947,
      "Ġacqu": 3948,
      "Ġ60": 3949,
      "Data": 3950,
      "ighting": 3951,
      "ulated": 3952,
      "55": 3953,
      "Ġdecided": 3954,
      "airs": 3955,
      "Ġanswer": 3956,
      "gl": 3957,
      "Ġdirectly": 3958,
      "ĠJames": 3959,
      "ranch": 3960,
      "ĠBusiness": 3961,
      "ests": 3962,
      "orks": 3963,
      "Ġborn": 3964,
      "Ġaim": 3965,
      "Ġlocation": 3966,
      "data": 3967,
      "Ġtemp": 3968,
      "enior": 3969,
      "Ġyourself": 3970,
      "Ġround": 3971,
      "ils": 3972,
      "ĠAN": 3973,
      "down": 3974,
      "Ġchance": 3975,
      "Ġ!": 3976,
      "Ġrequest": 3977,
      "ĠHere": 3978,
      "Ġeffects": 3979,
      "rve": 3980,
      "ives": 3981,
      "Ġnation": 3982,
      "],": 3983,
      "ĠFace": 3984,
      "Ġorganization": 3985,
      "Ġball": 3986,
      "nder": 3987,
      "UT": 3988,
      "taura": 3989,
      "Ġhappy": 3990,
      "Ġskills": 3991,
      "Ġscienti": 3992,
      "Ġmic": 3993,
      "Ġdevice": 3994,
      "37": 3995,
      "pective": 3996,
      "Ġturned": 3997,
      "Ca": 3998,
      "nion": 3999,
      "Ġones": 4000,
      "39": 4001,
      "Ġallows": 4002,
      "Ġsched": 4003,
      "Ġstudies": 4004,
      "Ġfire": 4005,
      "oft": 4006,
      "Ind": 4007,
      "tices": 4008,
      "position": 4009,
      "Ġdemons": 4010,
      "ĠGeneral": 4011,
      "cript": 4012,
      "Ġcas": 4013,
      "ĠTechn": 4014,
      "Ġassociated": 4015,
      "Ġcondition": 4016,
      "force": 4017,
      "nally": 4018,
      "Ġoccur": 4019,
      "older": 4020,
      "rations": 4021,
      "reg": 4022,
      "ĠFound": 4023,
      "Ġinno": 4024,
      "Ġaccep": 4025,
      "CC": 4026,
      "Ġblock": 4027,
      "Ġcompo": 4028,
      "igned": 4029,
      "Ġforce": 4030,
      "Ġneigh": 4031,
      "Ġgiving": 4032,
      "ĠLet": 4033,
      "Ġproviding": 4034,
      "Ġfrequ": 4035,
      "ambda": 4036,
      "Ġhum": 4037,
      "ĠAdd": 4038,
      "Ġbillion": 4039,
      "ĠKa": 4040,
      "Ġchurch": 4041,
      "Ġfeature": 4042,
      "Ġcompon": 4043,
      "Ġexci": 4044,
      "more": 4045,
      "Ġconvers": 4046,
      "Ġmeaning": 4047,
      "Ġerror": 4048,
      "Ġschools": 4049,
      "Ġtypes": 4050,
      "eather": 4051,
      "ini": 4052,
      "Ġplaye": 4053,
      "nate": 4054,
      "Ġstructure": 4055,
      "Ġscience": 4056,
      "Ġdownload": 4057,
      "Ġplayer": 4058,
      "low": 4059,
      "change": 4060,
      "vis": 4061,
      "Ġang": 4062,
      "Ġbri": 4063,
      "board": 4064,
      "Ġstatement": 4065,
      "Ġamaz": 4066,
      "Ġlic": 4067,
      "ĠTex": 4068,
      "aby": 4069,
      "Ġbroad": 4070,
      "Ġgas": 4071,
      "Ġuns": 4072,
      "rant": 4073,
      "ination": 4074,
      "Ġattr": 4075,
      "sec": 4076,
      "Ġphysical": 4077,
      "pond": 4078,
      "usive": 4079,
      "Ġinstitu": 4080,
      "ĠUs": 4081,
      "Ġsal": 4082,
      "house": 4083,
      "ĠChurch": 4084,
      "48": 4085,
      "ĠCompany": 4086,
      "ĠCong": 4087,
      "ĠFriday": 4088,
      "></": 4089,
      "Ġadj": 4090,
      "aves": 4091,
      "hrow": 4092,
      "tre": 4093,
      "ĠWhite": 4094,
      "eh": 4095,
      "Ġgets": 4096,
      "reater": 4097,
      "><": 4098,
      "IM": 4099,
      "osed": 4100,
      "Ġassess": 4101,
      "Ġlimited": 4102,
      "ĠEduc": 4103,
      "iles": 4104,
      "ĠFlor": 4105,
      "ĠRich": 4106,
      "Ġil": 4107,
      "ĠTHE": 4108,
      "lde": 4109,
      "Ġhighly": 4110,
      "actions": 4111,
      "ntage": 4112,
      "Ġachieve": 4113,
      "emp": 4114,
      "ĠGoogle": 4115,
      "Ġbud": 4116,
      "Ġtrade": 4117,
      "ĠÐ½Ð°": 4118,
      "Ġune": 4119,
      "ĠJack": 4120,
      "Ġbeginning": 4121,
      "amma": 4122,
      "teg": 4123,
      "Ġ`": 4124,
      "Ġ=>": 4125,
      "Ġrequire": 4126,
      "Ġeasily": 4127,
      "../": 4128,
      "tine": 4129,
      "Ġoption": 4130,
      "Ġ2007": 4131,
      "Ð¾Ð³": 4132,
      "IP": 4133,
      "lands": 4134,
      "aled": 4135,
      "def": 4136,
      "oke": 4137,
      "ĠPublic": 4138,
      "Ġbot": 4139,
      "omb": 4140,
      "turday": 4141,
      "ynam": 4142,
      "Ġvariety": 4143,
      "ĠWal": 4144,
      "ternal": 4145,
      "ert": 4146,
      "Ġtried": 4147,
      "Ġincreasing": 4148,
      "Ġrecogniz": 4149,
      "Ġfirm": 4150,
      "Ġlooked": 4151,
      "ĠScience": 4152,
      "Ġsuccessful": 4153,
      "Ċĉĉĉĉ": 4154,
      "Ġsign": 4155,
      "ĠYear": 4156,
      "Ġfamilies": 4157,
      "Ġcredit": 4158,
      "ĠReview": 4159,
      "ceed": 4160,
      "Ġrespond": 4161,
      "Ġconsum": 4162,
      "ĠNor": 4163,
      "Ġnovel": 4164,
      "!\"": 4165,
      "inge": 4166,
      "05": 4167,
      "Ġwrote": 4168,
      "Ġslow": 4169,
      "ĠBel": 4170,
      "ube": 4171,
      "Ġphotograph": 4172,
      "yond": 4173,
      "Ġrecommend": 4174,
      "Ġsurv": 4175,
      "ĠInstitute": 4176,
      "ecause": 4177,
      "ĠCat": 4178,
      "active": 4179,
      "Ġcentury": 4180,
      "Ġcampaign": 4181,
      "ĠAustralia": 4182,
      "Ġactivity": 4183,
      "Ġincreased": 4184,
      "using": 4185,
      "rite": 4186,
      "ĠSur": 4187,
      "ĠIS": 4188,
      "Ġframe": 4189,
      "Ġdifference": 4190,
      "osing": 4191,
      "Ġhuge": 4192,
      "Ġdemand": 4193,
      "head": 4194,
      "Ġvir": 4195,
      "$\\": 4196,
      "Ġdark": 4197,
      "with": 4198,
      "osted": 4199,
      "mbol": 4200,
      "Ġtas": 4201,
      "otes": 4202,
      "Ġcomputer": 4203,
      "ncing": 4204,
      "ĠRet": 4205,
      "Ġfine": 4206,
      "Ġblood": 4207,
      "Ġindividuals": 4208,
      "Ġdegree": 4209,
      "ĠCr": 4210,
      "ĠTur": 4211,
      "date": 4212,
      "Ġpull": 4213,
      "Ġ==": 4214,
      "64": 4215,
      "ĠDevelop": 4216,
      "Ġdisease": 4217,
      "Ġnearly": 4218,
      "Ġvoid": 4219,
      "unk": 4220,
      "ĠAssociation": 4221,
      "ĠService": 4222,
      "UN": 4223,
      "Ob": 4224,
      "Ġexpl": 4225,
      "pect": 4226,
      "Ġexist": 4227,
      "ĠBoard": 4228,
      "eserv": 4229,
      ")\\": 4230,
      "Ġparticularly": 4231,
      "undred": 4232,
      "VID": 4233,
      "Ġgrowing": 4234,
      "CH": 4235,
      "Ġwood": 4236,
      "Ġrace": 4237,
      "Ġnamed": 4238,
      "fa": 4239,
      "IL": 4240,
      "tex": 4241,
      "lear": 4242,
      "eep": 4243,
      "Ġbeyond": 4244,
      "ught": 4245,
      "Ġ31": 4246,
      "Ġthinking": 4247,
      "Ġdetermi": 4248,
      "Ġbenefits": 4249,
      "Ġpredic": 4250,
      "Wh": 4251,
      "Ġitems": 4252,
      "Ġmodels": 4253,
      "Ġcandid": 4254,
      "Ġexpect": 4255,
      "Ġsometimes": 4256,
      "ibly": 4257,
      "Ġlack": 4258,
      "ĠStar": 4259,
      "Her": 4260,
      "ui": 4261,
      "ĠFa": 4262,
      "lude": 4263,
      "ĠItal": 4264,
      "Ġwife": 4265,
      "ole": 4266,
      "Ġearlier": 4267,
      "cast": 4268,
      "Ġcompletely": 4269,
      "Ġthous": 4270,
      "IV": 4271,
      "Ġcomment": 4272,
      "ÑĢÐµ": 4273,
      "night": 4274,
      "Ġnar": 4275,
      "etch": 4276,
      "town": 4277,
      "Ġclin": 4278,
      "Ġunderstanding": 4279,
      "Ġfully": 4280,
      "acing": 4281,
      "ĠVol": 4282,
      "=\\": 4283,
      "urrent": 4284,
      "raft": 4285,
      "Ġcoach": 4286,
      "Ġgreen": 4287,
      "ĠPress": 4288,
      "Ġpiece": 4289,
      "Ġwish": 4290,
      "Ġcateg": 4291,
      "ĠJew": 4292,
      "Ġexcell": 4293,
      "ĠSunday": 4294,
      "ĠSpec": 4295,
      "Ġbus": 4296,
      "Ġclients": 4297,
      "Ġintegra": 4298,
      "Ġlargest": 4299,
      "iding": 4300,
      "rable": 4301,
      "iga": 4302,
      "ige": 4303,
      "onday": 4304,
      "Ġsave": 4305,
      "Ġspent": 4306,
      "Ġmyself": 4307,
      "Ġsociety": 4308,
      "Ġtraditional": 4309,
      "Ġfalse": 4310,
      "ened": 4311,
      "Ġseven": 4312,
      "Ġplaces": 4313,
      "Ġconfir": 4314,
      "nar": 4315,
      "She": 4316,
      "ĠÂ£": 4317,
      "'.": 4318,
      "ram": 4319,
      "anda": 4320,
      "Ġstarting": 4321,
      "pes": 4322,
      "ĠFrench": 4323,
      "Ġemployees": 4324,
      "ĠEngland": 4325,
      "Ġlines": 4326,
      "Ġbirth": 4327,
      "ĠMichael": 4328,
      "Ġbasis": 4329,
      "EM": 4330,
      "Ġgener": 4331,
      "ĠKe": 4332,
      "Ġnumbers": 4333,
      "ÑĪ": 4334,
      "Ġdest": 4335,
      "ban": 4336,
      "Ġbal": 4337,
      "tainly": 4338,
      "Ġlaws": 4339,
      "mine": 4340,
      "Ñİ": 4341,
      "Ph": 4342,
      "Ġallowed": 4343,
      "Ġimages": 4344,
      "Ġcivil": 4345,
      "Ġcustomer": 4346,
      "199": 4347,
      "Ġstrateg": 4348,
      "Ġcollec": 4349,
      "ij": 4350,
      "Ins": 4351,
      "31": 4352,
      "ĠFacebook": 4353,
      "From": 4354,
      "ĠFe": 4355,
      "ĠWed": 4356,
      "hreat": 4357,
      "Ġtempera": 4358,
      "ĠJournal": 4359,
      "oring": 4360,
      "ĠWind": 4361,
      "Ġfinally": 4362,
      "Ġcarry": 4363,
      "ural": 4364,
      "Ġcompared": 4365,
      "olf": 4366,
      "ĠHall": 4367,
      "PS": 4368,
      "Ġjournal": 4369,
      "Ġnormal": 4370,
      "ando": 4371,
      "ĠHome": 4372,
      "ĠThom": 4373,
      "Ġreports": 4374,
      "ĠGreen": 4375,
      "pping": 4376,
      "Ġdied": 4377,
      "itar": 4378,
      "Ġvoice": 4379,
      "Ġuses": 4380,
      "venue": 4381,
      "liz": 4382,
      "Ġpurpose": 4383,
      "ĠMac": 4384,
      "Ġfresh": 4385,
      "tinc": 4386,
      "Ġrespect": 4387,
      "Ġdescribed": 4388,
      "Ġnull": 4389,
      "lay": 4390,
      "attle": 4391,
      "ĠGovernment": 4392,
      "hus": 4393,
      "ughter": 4394,
      "Ġconstruction": 4395,
      "Ġchanged": 4396,
      "vo": 4397,
      "49": 4398,
      "ĠLife": 4399,
      "ĠCommit": 4400,
      "ENT": 4401,
      "Ġserved": 4402,
      "vation": 4403,
      "Ġwel": 4404,
      "Ġinvestment": 4405,
      "Ġoperation": 4406,
      "Ġregister": 4407,
      "ĠDirector": 4408,
      "Ġcopy": 4409,
      "Ġcontinu": 4410,
      "Ġmoved": 4411,
      "berg": 4412,
      "Ġgold": 4413,
      "ander": 4414,
      "ota": 4415,
      "Ġfear": 4416,
      "Ġactive": 4417,
      "eps": 4418,
      "atives": 4419,
      "verage": 4420,
      "Ġload": 4421,
      "Ġemo": 4422,
      "cel": 4423,
      "Ġhon": 4424,
      "Ġavoid": 4425,
      "47": 4426,
      "odd": 4427,
      "estival": 4428,
      "tically": 4429,
      "Ġrules": 4430,
      "II": 4431,
      "itable": 4432,
      "acity": 4433,
      "igma": 4434,
      "Ġpen": 4435,
      "Ġfederal": 4436,
      "Ġworkers": 4437,
      "ĠArch": 4438,
      "ĠCal": 4439,
      "Ġobject": 4440,
      "Ġmoving": 4441,
      "Ġdaily": 4442,
      "Ġeval": 4443,
      "mathbb": 4444,
      "ola": 4445,
      "Ġprem": 4446,
      "Ġbrot": 4447,
      "Ġpaid": 4448,
      "Get": 4449,
      "Ġbusinesses": 4450,
      "ĠFil": 4451,
      "Ġbroth": 4452,
      "Ġmaterials": 4453,
      "Ġfeed": 4454,
      "Ġindic": 4455,
      "Ġ\\\\": 4456,
      "Ġsolutions": 4457,
      "rap": 4458,
      "ĠâĢ¦": 4459,
      "hes": 4460,
      "izing": 4461,
      "hate": 4462,
      "mark": 4463,
      "Ċĉĉĉ": 4464,
      "Ġeight": 4465,
      "Ġdirec": 4466,
      "Tr": 4467,
      "llig": 4468,
      "Ġcorpor": 4469,
      "Ġrelative": 4470,
      "amily": 4471,
      "gu": 4472,
      "Ġcreating": 4473,
      "Ġcorrect": 4474,
      "Ġplatform": 4475,
      "65": 4476,
      "Ġdream": 4477,
      "Ġcollabor": 4478,
      "Ġappropri": 4479,
      "Ġsend": 4480,
      "Ġweight": 4481,
      "Ġcharacters": 4482,
      "Ġconstant": 4483,
      "Ġalthough": 4484,
      "oday": 4485,
      "Ġmachine": 4486,
      "ĠBi": 4487,
      "Ġimag": 4488,
      "Ġgrand": 4489,
      "Ġ?": 4490,
      "ulate": 4491,
      "Ġimpress": 4492,
      "iation": 4493,
      "Ġvill": 4494,
      "code": 4495,
      "ĠServices": 4496,
      "ÑĢÐ¸": 4497,
      "ĠSee": 4498,
      "Ġpatter": 4499,
      "ĠGet": 4500,
      "Ġhot": 4501,
      "They": 4502,
      "Ġnice": 4503,
      "ĠGold": 4504,
      "has": 4505,
      "Ġestablished": 4506,
      "Ġfollowed": 4507,
      "Ġsurface": 4508,
      "Ġeffort": 4509,
      "ĠMal": 4510,
      "pter": 4511,
      "ĠSaturday": 4512,
      "Ġstatus": 4513,
      "ĠSystem": 4514,
      "Ġcells": 4515,
      "oph": 4516,
      "ĠProgram": 4517,
      "respond": 4518,
      "Ġmechan": 4519,
      "forms": 4520,
      "Ġepis": 4521,
      "Ġspeed": 4522,
      "ÅĤ": 4523,
      "ointed": 4524,
      "Ġcommercial": 4525,
      "but": 4526,
      "Ġteams": 4527,
      "Ġ||": 4528,
      "Ġopportunities": 4529,
      "Ġstrug": 4530,
      "crip": 4531,
      "Ġplanning": 4532,
      "oyal": 4533,
      "_\\": 4534,
      "otor": 4535,
      "Ġtrea": 4536,
      "ĠMost": 4537,
      "Ġwalk": 4538,
      "Ġexactly": 4539,
      "ÑĤÐ°": 4540,
      "Ġamazing": 4541,
      "Ġmiles": 4542,
      "Ġthrow": 4543,
      "ĠRead": 4544,
      "eness": 4545,
      "return": 4546,
      "Ġdoub": 4547,
      "ĠÃł": 4548,
      "Des": 4549,
      "Ġinsurance": 4550,
      "ĠBra": 4551,
      "Ġdeli": 4552,
      "ĠGeorge": 4553,
      "Ġinstruc": 4554,
      "aling": 4555,
      "Ġefforts": 4556,
      "porary": 4557,
      "ĠDef": 4558,
      "tream": 4559,
      "iring": 4560,
      "unc": 4561,
      "ĠMusic": 4562,
      "ilo": 4563,
      "Ġtransfer": 4564,
      "ĠBest": 4565,
      "Ġfans": 4566,
      "ricul": 4567,
      "pects": 4568,
      "ĠAngel": 4569,
      "Ġspot": 4570,
      "gment": 4571,
      "hs": 4572,
      "rry": 4573,
      "Ġcool": 4574,
      "Ġwall": 4575,
      "ĠEvery": 4576,
      "Ġwea": 4577,
      "Ġtools": 4578,
      "Ġ2006": 4579,
      "ÐµÐ»": 4580,
      "Ġdouble": 4581,
      "Ġthreat": 4582,
      "weet": 4583,
      "pla": 4584,
      "DA": 4585,
      "Ġmarketing": 4586,
      "Ġfarm": 4587,
      "bon": 4588,
      "ĠEven": 4589,
      "Ġwai": 4590,
      "ĠOth": 4591,
      "opy": 4592,
      "Ġfeet": 4593,
      "ĠPlay": 4594,
      "Ġdiag": 4595,
      "Ġinterested": 4596,
      "Ġorganis": 4597,
      "')": 4598,
      "tyle": 4599,
      "Ġhundred": 4600,
      "tos": 4601,
      "Ġga": 4602,
      "ĠTexas": 4603,
      "Ġexpand": 4604,
      "ĠClass": 4605,
      "inger": 4606,
      "odes": 4607,
      "Ġalone": 4608,
      "ooking": 4609,
      "ĠGreat": 4610,
      "ĠData": 4611,
      "ĠLou": 4612,
      "Ġspirit": 4613,
      "Ġmethods": 4614,
      "side": 4615,
      "point": 4616,
      "Ġvan": 4617,
      "Ġmovement": 4618,
      "Ġskin": 4619,
      "arden": 4620,
      "Ġhotel": 4621,
      "ĠSoci": 4622,
      "ĠOut": 4623,
      "Ġconsist": 4624,
      "hea": 4625,
      "ĠMary": 4626,
      "Ġsatis": 4627,
      "Ġrestaura": 4628,
      "ĠChristian": 4629,
      "ĠOver": 4630,
      "MS": 4631,
      "ĠCe": 4632,
      "Ġbenefit": 4633,
      "Ġstream": 4634,
      "Ġcollege": 4635,
      "Ġrock": 4636,
      "Ġ%": 4637,
      "item": 4638,
      "Ġnames": 4639,
      "Ġexhi": 4640,
      "reate": 4641,
      "ores": 4642,
      "Ġtechni": 4643,
      "Ð¾Ð½": 4644,
      "Ġmap": 4645,
      "Ġadop": 4646,
      "Ġmiddle": 4647,
      "Ġpsych": 4648,
      "Ġfavorite": 4649,
      "ener": 4650,
      "zer": 4651,
      "Ġroll": 4652,
      "Ġcontinued": 4653,
      "hera": 4654,
      "Ġcontext": 4655,
      "ĠFr": 4656,
      "Ġcommunities": 4657,
      "Ġoffering": 4658,
      "Ġgreater": 4659,
      "46": 4660,
      "Be": 4661,
      "\");": 4662,
      "Ġapplications": 4663,
      "Ġbound": 4664,
      "ĠEducation": 4665,
      "ĠIndian": 4666,
      "rative": 4667,
      "Ġhom": 4668,
      "08": 4669,
      "inter": 4670,
      "aven": 4671,
      "Ġequipment": 4672,
      "Bu": 4673,
      "ĠLeg": 4674,
      "ĠFranc": 4675,
      "}^{": 4676,
      "ĠMonday": 4677,
      "AG": 4678,
      "Ġcertainly": 4679,
      "ĠOF": 4680,
      "nown": 4681,
      "Ġhappened": 4682,
      "Ð¶": 4683,
      "Ġinsp": 4684,
      "}_{": 4685,
      "Ġhair": 4686,
      "Ġhospital": 4687,
      "ĠÐ·": 4688,
      "Ġpressure": 4689,
      "width": 4690,
      "Ġpoor": 4691,
      "Ġrap": 4692,
      "ĠST": 4693,
      "Ġcentral": 4694,
      "mpions": 4695,
      "Ġrequirements": 4696,
      "Ġmobile": 4697,
      "tations": 4698,
      "Ġquarter": 4699,
      "many": 4700,
      "Mar": 4701,
      "NA": 4702,
      "Ġinitial": 4703,
      "ament": 4704,
      "cribe": 4705,
      "Ã©s": 4706,
      "Ġelements": 4707,
      "Ġbat": 4708,
      "ĠPen": 4709,
      "rest": 4710,
      "hor": 4711,
      "iled": 4712,
      "-\\": 4713,
      "Ġproced": 4714,
      "Ġbank": 4715,
      "Tra": 4716,
      "emic": 4717,
      "eedom": 4718,
      "Ġserve": 4719,
      "Ġclean": 4720,
      "gor": 4721,
      "Ġwants": 4722,
      "Ġmaxim": 4723,
      "Ġscene": 4724,
      "iling": 4725,
      "Ġpassed": 4726,
      "Ġhour": 4727,
      "Ġimplement": 4728,
      "78": 4729,
      "Ġcritical": 4730,
      "ote": 4731,
      "lea": 4732,
      "Ġshot": 4733,
      "ursday": 4734,
      "ĠPort": 4735,
      "04": 4736,
      "Ġcook": 4737,
      "Ġcalc": 4738,
      "Sc": 4739,
      "ĠCommittee": 4740,
      "Ġah": 4741,
      "term": 4742,
      "Ġoverall": 4743,
      "Ġopi": 4744,
      "Ġexisting": 4745,
      "ĠJos": 4746,
      "OL": 4747,
      "Ġcancer": 4748,
      "Ġstock": 4749,
      "ĠDel": 4750,
      "Jo": 4751,
      "asion": 4752,
      "erefore": 4753,
      "uesday": 4754,
      "tar": 4755,
      "rator": 4756,
      "edia": 4757,
      "list": 4758,
      "Ġprimary": 4759,
      "Ġrates": 4760,
      "Ġpeace": 4761,
      "acts": 4762,
      "Ġannual": 4763,
      "Ġconven": 4764,
      "ologies": 4765,
      "Ġmedic": 4766,
      "De": 4767,
      "herefore": 4768,
      "andom": 4769,
      "tery": 4770,
      "ĠRel": 4771,
      "ĠSam": 4772,
      "Ġcharge": 4773,
      "07": 4774,
      "ĠÐ¼": 4775,
      "Ġsites": 4776,
      "Ġhelped": 4777,
      "Ġpurchase": 4778,
      "Ġsetting": 4779,
      "Ġindust": 4780,
      "____": 4781,
      "Ġrecover": 4782,
      "ĠPM": 4783,
      "AB": 4784,
      "ĠRoad": 4785,
      "dy": 4786,
      "ĠLib": 4787,
      "ĠKen": 4788,
      "Ġproduced": 4789,
      "02": 4790,
      "vert": 4791,
      "Ġextrem": 4792,
      "tage": 4793,
      "ĠManagement": 4794,
      "rew": 4795,
      "Ġeconomy": 4796,
      "ady": 4797,
      "Ġfloor": 4798,
      "06": 4799,
      "ntic": 4800,
      "Ġsequ": 4801,
      "Ġfight": 4802,
      "Ġspread": 4803,
      "ĠPost": 4804,
      "ĠHam": 4805,
      "Ġimmediately": 4806,
      "Ġalterna": 4807,
      "Ġstuff": 4808,
      "Ġserious": 4809,
      "Ġnume": 4810,
      "Ġunit": 4811,
      "Ġoperations": 4812,
      "Ġbill": 4813,
      "IR": 4814,
      "ĠChinese": 4815,
      "Cha": 4816,
      "Ġleader": 4817,
      "Ġlimit": 4818,
      "rating": 4819,
      "Ġtherefore": 4820,
      "Ġclimate": 4821,
      "pher": 4822,
      "Ġpros": 4823,
      "Ġ195": 4824,
      "eful": 4825,
      "----------------": 4826,
      "Ġremai": 4827,
      "Ġperhaps": 4828,
      "Ġremain": 4829,
      "odel": 4830,
      "09": 4831,
      "ashion": 4832,
      "Ġelectric": 4833,
      "cape": 4834,
      "Ġpicture": 4835,
      "Ġsupply": 4836,
      "ĠAnn": 4837,
      "Ġpresented": 4838,
      "ĠCongress": 4839,
      "uro": 4840,
      "Ġconnection": 4841,
      "Ġremains": 4842,
      "hle": 4843,
      "ien": 4844,
      "ourney": 4845,
      "SS": 4846,
      "Im": 4847,
      "ulty": 4848,
      "ko": 4849,
      "App": 4850,
      "oli": 4851,
      "ĠÐ³": 4852,
      "Ġresponsible": 4853,
      "Ġletter": 4854,
      "Ġpush": 4855,
      "east": 4856,
      "word": 4857,
      "Ġparame": 4858,
      "Ġsale": 4859,
      "Ġreduce": 4860,
      "Ġelement": 4861,
      "cy": 4862,
      "ouble": 4863,
      "While": 4864,
      "roy": 4865,
      "ĠUSA": 4866,
      "Ġtrip": 4867,
      "ĠTri": 4868,
      "Ġclient": 4869,
      "nesday": 4870,
      "state": 4871,
      "Add": 4872,
      "Ġbackground": 4873,
      "ĠBay": 4874,
      "Ġcitiz": 4875,
      "ĠSing": 4876,
      "lines": 4877,
      "ĠAM": 4878,
      "Ġcry": 4879,
      "Now": 4880,
      "ĠGood": 4881,
      "Ġshared": 4882,
      "Ġfem": 4883,
      "CT": 4884,
      "ocation": 4885,
      "Ġincome": 4886,
      "fra": 4887,
      "ĠDemocra": 4888,
      "\\\\\\\\": 4889,
      "Ġstrategy": 4890,
      "eline": 4891,
      "Ġwarm": 4892,
      "Ġsort": 4893,
      "ĠIsrael": 4894,
      "Ġexerc": 4895,
      "ek": 4896,
      "Ġtalking": 4897,
      "ĠWell": 4898,
      "ĠJust": 4899,
      "ĊĠĠĠĠĠĠĠĠĠĠĠĠĠĠĠĠĠĠĠĠĠĠĠĠ": 4900,
      "Ġsignal": 4901,
      "88": 4902,
      "ĠQue": 4903,
      "ĠAP": 4904,
      "La": 4905,
      "ulf": 4906,
      "ĠChild": 4907,
      "Ġcontract": 4908,
      "hatever": 4909,
      "Ġcouldn": 4910,
      "ĠEs": 4911,
      "Ġplant": 4912,
      "gative": 4913,
      "sub": 4914,
      "CA": 4915,
      "hns": 4916,
      "ĠRob": 4917,
      "Ġstress": 4918,
      "yer": 4919,
      "Ġlength": 4920,
      "Ġmaybe": 4921,
      "ĠChristmas": 4922,
      "Ġfunc": 4923,
      "âĢ¢": 4924,
      "Ġthus": 4925,
      "win": 4926,
      "Ġgoals": 4927,
      "Ġlarger": 4928,
      "Ġcatch": 4929,
      "ĠDon": 4930,
      "ĠVir": 4931,
      "Ġhelps": 4932,
      "Ġchallenge": 4933,
      "param": 4934,
      "gency": 4935,
      "ĠSea": 4936,
      "ĠDevelopment": 4937,
      "03": 4938,
      "Ã³n": 4939,
      "Ġclub": 4940,
      "ĠFrance": 4941,
      "Ġdoll": 4942,
      "Ġfeeling": 4943,
      "istant": 4944,
      "Ġhost": 4945,
      "Ġenha": 4946,
      "inated": 4947,
      "tled": 4948,
      "rem": 4949,
      "Ġ2000": 4950,
      "Ġsun": 4951,
      "Ġabsolu": 4952,
      "ĠHistory": 4953,
      "Ġlif": 4954,
      "Ġblue": 4955,
      "Ġthera": 4956,
      "ĠAlex": 4957,
      "Ġchem": 4958,
      "Ġexpec": 4959,
      "value": 4960,
      "Ġjoin": 4961,
      "Ġforeign": 4962,
      "Ġstraight": 4963,
      "uto": 4964,
      "ĠMet": 4965,
      "Ġbasic": 4966,
      "Ġinform": 4967,
      "mate": 4968,
      "Ġvehicle": 4969,
      "ĠWil": 4970,
      "vin": 4971,
      "umer": 4972,
      "Ġowners": 4973,
      "Ġoffered": 4974,
      "Ġprotect": 4975,
      "Ġchannel": 4976,
      "ware": 4977,
      "ĠBill": 4978,
      "Ġindependent": 4979,
      "Ġscen": 4980,
      "Ġfigure": 4981,
      "Ġmission": 4982,
      "ĠPeople": 4983,
      "];": 4984,
      "Ġreasons": 4985,
      "Ġahead": 4986,
      "^{\\": 4987,
      "Ġmill": 4988,
      "iar": 4989,
      "entially": 4990,
      "Ġ2005": 4991,
      "Man": 4992,
      "ĠSal": 4993,
      "Ġrule": 4994,
      "Ġpowerful": 4995,
      "hon": 4996,
      "ĠSocial": 4997,
      "Ġlegis": 4998,
      "Ġacadem": 4999,
      "nated": 5000,
      "life": 5001,
      "nald": 5002,
      "Ġhref": 5003,
      "ĠSociety": 5004,
      "pected": 5005,
      "ĠMiss": 5006,
      "Ġsports": 5007,
      "ples": 5008,
      "Ġstation": 5009,
      "lambda": 5010,
      "Ġgone": 5011,
      "Ġgraph": 5012,
      "Ġrich": 5013,
      "Ġtruth": 5014,
      "Ġdedic": 5015,
      "Ġconsul": 5016,
      "Ġsurround": 5017,
      "Ġbudget": 5018,
      "Ġwild": 5019,
      "irtual": 5020,
      "enting": 5021,
      "ĠSupe": 5022,
      "izes": 5023,
      "ĠPhoto": 5024,
      "rates": 5025,
      "acted": 5026,
      "lying": 5027,
      "Ġprefer": 5028,
      "Ġvote": 5029,
      "tress": 5030,
      "Ġwait": 5031,
      "Ġopening": 5032,
      "Ġlands": 5033,
      "Ġcorrespond": 5034,
      "Set": 5035,
      "iate": 5036,
      "ĠFlorida": 5037,
      "Ġorganizations": 5038,
      "zon": 5039,
      "tainment": 5040,
      "Ġhighest": 5041,
      "ĠSmith": 5042,
      "Ġcomments": 5043,
      "Ġexcellent": 5044,
      "ĠSince": 5045,
      "Ġer": 5046,
      "Ġcompeti": 5047,
      "Ġmemory": 5048,
      "string": 5049,
      "Ġpanel": 5050,
      "Ġpatient": 5051,
      "Ġinstance": 5052,
      "Ġpurs": 5053,
      "Ġexplor": 5054,
      "Ġdirection": 5055,
      "pat": 5056,
      "Ġentry": 5057,
      "ĠBank": 5058,
      "ĠFree": 5059,
      "Ġobvious": 5060,
      "mination": 5061,
      "lip": 5062,
      "Ġsell": 5063,
      "Over": 5064,
      "ĠAlso": 5065,
      "ette": 5066,
      "vant": 5067,
      "Ġtoward": 5068,
      "ĠCOVID": 5069,
      "Ġcontrac": 5070,
      "ĠLo": 5071,
      "Ġpages": 5072,
      "Ġpolic": 5073,
      "ator": 5074,
      "see": 5075,
      "Ġhus": 5076,
      "ruit": 5077,
      "tified": 5078,
      "ĠFoundation": 5079,
      "tructure": 5080,
      "ĠSto": 5081,
      "Ġchallenges": 5082,
      "Ġagreement": 5083,
      "ĠDen": 5084,
      "Ġmaster": 5085,
      "ines": 5086,
      "Ġcompleted": 5087,
      "Ġelection": 5088,
      "Ġfig": 5089,
      "cd": 5090,
      "ĠString": 5091,
      "ires": 5092,
      "Ġsector": 5093,
      "itchen": 5094,
      "Gr": 5095,
      "Ġsav": 5096,
      "Value": 5097,
      "urr": 5098,
      "Ġeye": 5099,
      "ĠEv": 5100,
      "Ġspecies": 5101,
      "ĠBig": 5102,
      "public": 5103,
      "vertis": 5104,
      "Ġles": 5105,
      "care": 5106,
      "IA": 5107,
      "ĠMem": 5108,
      "rary": 5109,
      "Ġmur": 5110,
      "Ġplus": 5111,
      "Ġapproxim": 5112,
      "ĠMich": 5113,
      "istan": 5114,
      "ĠMex": 5115,
      "Ġnotice": 5116,
      "Ġcompr": 5117,
      "Ġ35": 5118,
      "95": 5119,
      "Ġactual": 5120,
      "bility": 5121,
      "ĠKor": 5122,
      "aut": 5123,
      "eces": 5124,
      "eory": 5125,
      "Ġdefined": 5126,
      "heory": 5127,
      "nting": 5128,
      "asc": 5129,
      "OM": 5130,
      "Ġadap": 5131,
      "Ġ{\\": 5132,
      "ĠEm": 5133,
      "SE": 5134,
      "ĠThursday": 5135,
      "($": 5136,
      "Ġclaims": 5137,
      "Ġwindow": 5138,
      "ĠTime": 5139,
      "ĠUN": 5140,
      "Ġqual": 5141,
      "ĠTuesday": 5142,
      "ĠBook": 5143,
      "Ġgover": 5144,
      "Ġconcept": 5145,
      "Ġjobs": 5146,
      "inary": 5147,
      "Ġdevices": 5148,
      "Ġsmart": 5149,
      "Ġapprec": 5150,
      "nute": 5151,
      "igious": 5152,
      "iverse": 5153,
      "Ġdepend": 5154,
      "Ġsleep": 5155,
      "Ġarchitec": 5156,
      "ÑĤÐ¸": 5157,
      "Some": 5158,
      "RA": 5159,
      "Ġea": 5160,
      "ify": 5161,
      "Ġnom": 5162,
      "66": 5163,
      "Ġparties": 5164,
      "Ġresul": 5165,
      "essage": 5166,
      "Ġattend": 5167,
      "ountain": 5168,
      "Ġfactors": 5169,
      "Ġclick": 5170,
      "Ġsymp": 5171,
      "ĠTimes": 5172,
      "Ġspend": 5173,
      "Ġreality": 5174,
      "Ġprotection": 5175,
      "Ġregarding": 5176,
      "eation": 5177,
      "SP": 5178,
      "Ġlab": 5179,
      "ĠPeter": 5180,
      "ĠWhy": 5181,
      "Ġprices": 5182,
      "ĠMinister": 5183,
      "Ġagree": 5184,
      "................": 5185,
      "Ġappropriate": 5186,
      "Ġvalid": 5187,
      "ĠPo": 5188,
      "Ġanaly": 5189,
      "Ġshowed": 5190,
      "Ġprevent": 5191,
      "Ġcounter": 5192,
      "eau": 5193,
      "ii": 5194,
      "icago": 5195,
      "ĠLeague": 5196,
      "Dis": 5197,
      "Ġig": 5198,
      "Ġglass": 5199,
      "Ġloved": 5200,
      "Ġdim": 5201,
      "coming": 5202,
      "Ġtick": 5203,
      "Ġkept": 5204,
      "ĠUnion": 5205,
      "ĠTop": 5206,
      "BA": 5207,
      "ela": 5208,
      "Ġrestric": 5209,
      "overs": 5210,
      "ĠVis": 5211,
      "well": 5212,
      "azine": 5213,
      "77": 5214,
      "ĠDistrict": 5215,
      "Ed": 5216,
      "Ġbecomes": 5217,
      "ĠRiver": 5218,
      "Ġgenerally": 5219,
      "Ġreti": 5220,
      "jo": 5221,
      "Ġproperties": 5222,
      "ĠMuseum": 5223,
      "pace": 5224,
      "Ġaudience": 5225,
      "ĠSen": 5226,
      "itness": 5227,
      "fo": 5228,
      "aller": 5229,
      "Ġsecret": 5230,
      "********": 5231,
      "ield": 5232,
      "ĠMon": 5233,
      "Ġopened": 5234,
      "ĠClub": 5235,
      "Ġlibr": 5236,
      "wor": 5237,
      "ĠTom": 5238,
      "Ġdaughter": 5239,
      "Ġgar": 5240,
      "Ġrecords": 5241,
      "Ġsources": 5242,
      "df": 5243,
      "ĠAward": 5244,
      "ÑĦ": 5245,
      "gins": 5246,
      "ĠPre": 5247,
      "Ġsteps": 5248,
      "asy": 5249,
      "ague": 5250,
      "ĠSpr": 5251,
      "ict": 5252,
      "mathbf": 5253,
      "Ġtheory": 5254,
      "Ġprint": 5255,
      "??": 5256,
      "Ġtraffic": 5257,
      "Ġinfluence": 5258,
      "ĠIsland": 5259,
      "Ġviews": 5260,
      "Ġforms": 5261,
      "Ġfaith": 5262,
      "42": 5263,
      "bles": 5264,
      "ĠOthe": 5265,
      "ĠTor": 5266,
      "ĠWednesday": 5267,
      "Ġpreviously": 5268,
      "ĠOther": 5269,
      "elle": 5270,
      "Ġcris": 5271,
      "zen": 5272,
      "ĠAfrican": 5273,
      "Ġobjec": 5274,
      "Ġartist": 5275,
      "ĠJan": 5276,
      "Ġec": 5277,
      "Ġheat": 5278,
      "Ġche": 5279,
      "esus": 5280,
      "Ġmonitor": 5281,
      "Ġtruly": 5282,
      "ĠVic": 5283,
      "Ġdefinitely": 5284,
      "Ġproposed": 5285,
      "from": 5286,
      "rous": 5287,
      "Here": 5288,
      "apers": 5289,
      "ĠTwitter": 5290,
      "Ġdistribution": 5291,
      "Bl": 5292,
      "Ġguide": 5293,
      "Pri": 5294,
      "ĠVa": 5295,
      "ĠPlease": 5296,
      "500": 5297,
      "ĠÐ±": 5298,
      "Ġcrow": 5299,
      "Ġstatic": 5300,
      "prof": 5301,
      "levision": 5302,
      "Ġkilled": 5303,
      "43": 5304,
      "Ġrequires": 5305,
      "Ġsolid": 5306,
      "Ġdecl": 5307,
      "Ġdamage": 5308,
      "ãģ": 5309,
      "ĠRobert": 5310,
      "Ġfunding": 5311,
      "ĠGerman": 5312,
      "ĠHill": 5313,
      "Acc": 5314,
      "Ġfiles": 5315,
      "Ġmajority": 5316,
      "uration": 5317,
      "Ġtrust": 5318,
      "Ġpresence": 5319,
      "Ġbiggest": 5320,
      "Ġanc": 5321,
      "ĠCommission": 5322,
      "Ġest": 5323,
      "ĠEconom": 5324,
      "Ġcalls": 5325,
      "Ġclosed": 5326,
      "ĠPlan": 5327,
      "Ġcontains": 5328,
      "ocks": 5329,
      "ĠMany": 5330,
      "Ð½Ð°": 5331,
      "Ġestablish": 5332,
      "Ġslight": 5333,
      ".[": 5334,
      "Ġsn": 5335,
      "Ġcast": 5336,
      "OD": 5337,
      "Ġmine": 5338,
      "Ġofficials": 5339,
      "ĠParty": 5340,
      "Ġcontinues": 5341,
      "ĠWilliam": 5342,
      "Ġarray": 5343,
      "Ġselected": 5344,
      "ĠEmp": 5345,
      "ded": 5346,
      "Ġdanger": 5347,
      "ius": 5348,
      "osure": 5349,
      "Ġupdate": 5350,
      "ification": 5351,
      "Ġspeak": 5352,
      "ĠFina": 5353,
      "Ġtrial": 5354,
      "OP": 5355,
      "Ġcapacity": 5356,
      "nne": 5357,
      "Ġreference": 5358,
      "Ġcash": 5359,
      "Ġfactor": 5360,
      "gers": 5361,
      "Ġleadership": 5362,
      "CE": 5363,
      "Ġthank": 5364,
      "En": 5365,
      "ĠBal": 5366,
      "Ġvs": 5367,
      "Ġguid": 5368,
      "Ab": 5369,
      "uction": 5370,
      "Ġscale": 5371,
      "orrow": 5372,
      "Up": 5373,
      "orial": 5374,
      "gar": 5375,
      "Ġdetec": 5376,
      "Ġdespite": 5377,
      "war": 5378,
      "Ġgat": 5379,
      "ĊĠĠĠĠĠĠĠĠĠĠĠĠĠĠĠĠĠĠĠĠĠĠĠ": 5380,
      "Ġlearned": 5381,
      "ips": 5382,
      "ls": 5383,
      "Ġfish": 5384,
      "Ġboy": 5385,
      "Ġonto": 5386,
      "till": 5387,
      "IF": 5388,
      "Ġseeing": 5389,
      "illa": 5390,
      "Ġuseful": 5391,
      "ĠGermany": 5392,
      "Ġ80": 5393,
      "cell": 5394,
      "ecutive": 5395,
      "ĠCentral": 5396,
      "ilon": 5397,
      "ĠPal": 5398,
      "Ġadvice": 5399,
      "ĠCarol": 5400,
      "Ġhusband": 5401,
      "ĠJohns": 5402,
      "Ġconst": 5403,
      "Ġfootball": 5404,
      "ĠFrancis": 5405,
      "Why": 5406,
      "ario": 5407,
      "Ġstorage": 5408,
      "Ġpm": 5409,
      "perty": 5410,
      "41": 5411,
      "ĠRock": 5412,
      "ested": 5413,
      "Ġ2004": 5414,
      "Cons": 5415,
      "Ġdynam": 5416,
      "lication": 5417,
      "fri": 5418,
      "Ġrelevant": 5419,
      "fying": 5420,
      "riage": 5421,
      "Ġgath": 5422,
      "ĠJud": 5423,
      "pre": 5424,
      "ĠMad": 5425,
      "Ġfinish": 5426,
      "function": 5427,
      "lli": 5428,
      "ĠDiv": 5429,
      "Ġhomes": 5430,
      "Ġsustain": 5431,
      "ĠAma": 5432,
      "Ġdeveloping": 5433,
      "Ġconfig": 5434,
      "nit": 5435,
      "js": 5436,
      "align": 5437,
      "Or": 5438,
      "ĠFrank": 5439,
      "Ġjourney": 5440,
      "Ġbehavior": 5441,
      "ios": 5442,
      "85": 5443,
      "ĠAcadem": 5444,
      "ĠDoc": 5445,
      "ncy": 5446,
      "Ġreserv": 5447,
      "char": 5448,
      "eated": 5449,
      "Ġphotos": 5450,
      "big": 5451,
      "More": 5452,
      "ĠHel": 5453,
      "Ġraised": 5454,
      "hand": 5455,
      "Ġappears": 5456,
      "Ġsongs": 5457,
      "Op": 5458,
      "rance": 5459,
      "ione": 5460,
      "vest": 5461,
      "Ġcaused": 5462,
      "Ġgri": 5463,
      "nom": 5464,
      "Ġradio": 5465,
      "Ġdress": 5466,
      "ĠCri": 5467,
      "Ġactions": 5468,
      "2019": 5469,
      "Ġposted": 5470,
      "verse": 5471,
      "Ã§": 5472,
      "These": 5473,
      "which": 5474,
      "Ġforces": 5475,
      "Ġinput": 5476,
      "cover": 5477,
      "Ġliter": 5478,
      "Ġaren": 5479,
      "Ġperformed": 5480,
      "ĠRussia": 5481,
      "ĠSub": 5482,
      "ĠMedia": 5483,
      "Ġindica": 5484,
      "PA": 5485,
      "Ġseemed": 5486,
      "Ġhelping": 5487,
      "Ġessential": 5488,
      "Ġdetermine": 5489,
      "Ġclearly": 5490,
      "Ġartists": 5491,
      "asts": 5492,
      "Let": 5493,
      "ĠInternet": 5494,
      "Ġweekend": 5495,
      "Ġdog": 5496,
      "ĠAny": 5497,
      "OW": 5498,
      "Ġrow": 5499,
      "ero": 5500,
      "Sta": 5501,
      "Ġcommand": 5502,
      "////": 5503,
      "Ġswitch": 5504,
      "Ġfamous": 5505,
      "Ġbottom": 5506,
      "ĠSum": 5507,
      "ders": 5508,
      "ĠPi": 5509,
      "Ġfollows": 5510,
      "tification": 5511,
      "ĠWomen": 5512,
      "enses": 5513,
      "TS": 5514,
      "Ġpropos": 5515,
      "offee": 5516,
      "\";": 5517,
      "uled": 5518,
      "Ġstandards": 5519,
      "ĠClin": 5520,
      "Ġfort": 5521,
      "Ġspi": 5522,
      "BS": 5523,
      "Ġfant": 5524,
      "ĠJapan": 5525,
      "Ġtesting": 5526,
      "link": 5527,
      "Ġheavy": 5528,
      "Ġreturned": 5529,
      "Ġreached": 5530,
      "Ġconference": 5531,
      "Ġpartner": 5532,
      "lient": 5533,
      "Exception": 5534,
      "Ġhab": 5535,
      "Ġ90": 5536,
      "Ġcomfor": 5537,
      "phone": 5538,
      "ĠÂ»": 5539,
      "Ġgeneration": 5540,
      "Ġmentioned": 5541,
      "ĠLos": 5542,
      "Ġexperiences": 5543,
      "Ġotherwise": 5544,
      "Ġbrain": 5545,
      "nivers": 5546,
      "Ġchec": 5547,
      "Ġulti": 5548,
      "tei": 5549,
      "Ġcultural": 5550,
      "ĠCommunity": 5551,
      "Of": 5552,
      "Ġwouldn": 5553,
      "ĠImp": 5554,
      "ĠSecret": 5555,
      "Ġsenior": 5556,
      "Ġdistance": 5557,
      "Ġjoined": 5558,
      "ourth": 5559,
      "Not": 5560,
      "Ġholid": 5561,
      "Ġfunctions": 5562,
      "eph": 5563,
      "ĠâĢ¢": 5564,
      "Ġhealthy": 5565,
      "ĠEngine": 5566,
      "ĠCD": 5567,
      "road": 5568,
      "Ġcompla": 5569,
      "Ġcommunication": 5570,
      "aro": 5571,
      "Ġitem": 5572,
      "efore": 5573,
      "igration": 5574,
      "ĠJul": 5575,
      "ĠLy": 5576,
      "Ġconflic": 5577,
      "ĠRad": 5578,
      "Key": 5579,
      "ĠSol": 5580,
      "torney": 5581,
      "Ġnine": 5582,
      "vate": 5583,
      "ribute": 5584,
      "equest": 5585,
      "ĠÃ©": 5586,
      "Ġthanks": 5587,
      "Rec": 5588,
      "Ġearth": 5589,
      "ÐµÑĤ": 5590,
      "ĠSet": 5591,
      "ĠMass": 5592,
      "nings": 5593,
      "Ġfunds": 5594,
      "ĠID": 5595,
      "utri": 5596,
      "ĠWho": 5597,
      "ĠLove": 5598,
      "Ġresidents": 5599,
      "FL": 5600,
      "Â»": 5601,
      "ĠSil": 5602,
      "ĠOpen": 5603,
      "Ġindex": 5604,
      "level": 5605,
      "ĠThomas": 5606,
      "reek": 5607,
      "Ġolder": 5608,
      "iency": 5609,
      "inde": 5610,
      "Ġincred": 5611,
      "Ġafford": 5612,
      ",'": 5613,
      "Time": 5614,
      "Ġenvironmental": 5615,
      "antic": 5616,
      "Ð½Ð¾": 5617,
      "Ġing": 5618,
      "Ġcompetition": 5619,
      "Ġwid": 5620,
      "Ġbra": 5621,
      "ticle": 5622,
      "Ġexperienced": 5623,
      "uster": 5624,
      "beta": 5625,
      "ĠOh": 5626,
      "Ġextremely": 5627,
      "Ġtask": 5628,
      "kin": 5629,
      "produc": 5630,
      "Ġplaced": 5631,
      "Ġnuc": 5632,
      "pass": 5633,
      "Ġadministration": 5634,
      "ĠLord": 5635,
      "esty": 5636,
      "State": 5637,
      "Ġserver": 5638,
      "ĠCy": 5639,
      "Ġpolicies": 5640,
      "ĠSecurity": 5641,
      "Ġselection": 5642,
      "ĠMedic": 5643,
      "px": 5644,
      "ĠEarth": 5645,
      "Ġfinding": 5646,
      "ĠÑĥ": 5647,
      "ĠAre": 5648,
      "Ġpoll": 5649,
      "sert": 5650,
      "Ġexcl": 5651,
      "Ġwhom": 5652,
      "oles": 5653,
      "Ġencoura": 5654,
      "}{\\": 5655,
      "Ġcreative": 5656,
      "Ġcold": 5657,
      "ml": 5658,
      "Ġinstr": 5659,
      "ĠHy": 5660,
      "ĠFund": 5661,
      "Ġdriving": 5662,
      "Ġsupp": 5663,
      "sigma": 5664,
      "Ġmeasures": 5665,
      "Ġerr": 5666,
      "ensity": 5667,
      "orpor": 5668,
      "Ġruns": 5669,
      "Ġwonderful": 5670,
      "86": 5671,
      "ĠÂ«": 5672,
      "Ġsusp": 5673,
      "Ġconcent": 5674,
      "ĠChicago": 5675,
      "Ġconserv": 5676,
      "ĠĠĠĠĠĠ": 5677,
      "hm": 5678,
      "toms": 5679,
      "ĠTeam": 5680,
      "Ġthousands": 5681,
      "OC": 5682,
      "Ġknows": 5683,
      "unt": 5684,
      "adian": 5685,
      "().": 5686,
      "Read": 5687,
      "ĠProduc": 5688,
      "epsilon": 5689,
      "rough": 5690,
      "Ġsurge": 5691,
      "abled": 5692,
      "Ġwww": 5693,
      "Ġtemperature": 5694,
      "lligence": 5695,
      "ĠRussian": 5696,
      "Ġben": 5697,
      "Ġrise": 5698,
      "Ġcovered": 5699,
      "Ġeasier": 5700,
      "ora": 5701,
      "Ġbrow": 5702,
      "Ġappeared": 5703,
      "rosoft": 5704,
      "ĠAlthough": 5705,
      "^{-": 5706,
      "ĠJesus": 5707,
      "Ġoptim": 5708,
      "Ġseparate": 5709,
      "Ġcore": 5710,
      "Ġspring": 5711,
      "Ġviolence": 5712,
      "Ġbreat": 5713,
      "Ġsession": 5714,
      "Ġbrief": 5715,
      "Ġfinished": 5716,
      "Ġovers": 5717,
      "unately": 5718,
      "Ġillust": 5719,
      "Ġchai": 5720,
      "Ġinternet": 5721,
      "rier": 5722,
      "Ġfilms": 5723,
      "each": 5724,
      "Ġbecoming": 5725,
      "Ġsets": 5726,
      "Ġspl": 5727,
      "Ġtree": 5728,
      "Mo": 5729,
      "Ġmental": 5730,
      "Inter": 5731,
      "Ġsuffe": 5732,
      "ĠInformation": 5733,
      "Ð½Ñĭ": 5734,
      "Ġowner": 5735,
      "Ġ2003": 5736,
      "ĠGar": 5737,
      "Ġvision": 5738,
      "auth": 5739,
      "bed": 5740,
      "));": 5741,
      "ML": 5742,
      "Ġstreet": 5743,
      "place": 5744,
      "Ġlabor": 5745,
      "uries": 5746,
      "Ð»Ð°": 5747,
      "ĠPower": 5748,
      "aming": 5749,
      "ats": 5750,
      "ĠBos": 5751,
      "ĠVi": 5752,
      "ĠKar": 5753,
      "known": 5754,
      "teria": 5755,
      "Ġtechnical": 5756,
      "dered": 5757,
      "Ġadvantage": 5758,
      "aid": 5759,
      "ĠTour": 5760,
      "tein": 5761,
      "Ġ70": 5762,
      "missions": 5763,
      "ĠScot": 5764,
      "dro": 5765,
      "ĠVirgin": 5766,
      "idential": 5767,
      "Ġdry": 5768,
      "Ġphil": 5769,
      "Ġwriter": 5770,
      "MA": 5771,
      "osen": 5772,
      "Ġfol": 5773,
      "ĠRev": 5774,
      "ogue": 5775,
      "asting": 5776,
      "Ġneighbor": 5777,
      "Ġshowing": 5778,
      "ĠAmericans": 5779,
      "Ġexpression": 5780,
      "unic": 5781,
      "urate": 5782,
      "ĠVer": 5783,
      "Ġclasses": 5784,
      "Ġapplied": 5785,
      "Ġpassion": 5786,
      "take": 5787,
      "Ġstrength": 5788,
      "ĠTheir": 5789,
      "Ġoccup": 5790,
      "Ġpow": 5791,
      "Ġadvertis": 5792,
      "ails": 5793,
      "Ġchea": 5794,
      "ĠGlobal": 5795,
      "ĠProject": 5796,
      "ĠHen": 5797,
      "owns": 5798,
      "ĠTechnology": 5799,
      "ĠEU": 5800,
      "ĠApple": 5801,
      "Ġended": 5802,
      "Ġscore": 5803,
      "Ġcities": 5804,
      "hop": 5805,
      "Ġsigned": 5806,
      "idden": 5807,
      "Ġ(\\": 5808,
      "Ġtend": 5809,
      "Ġoutput": 5810,
      "ake": 5811,
      "Ġmanager": 5812,
      "bition": 5813,
      "Ġoperating": 5814,
      "ĠIT": 5815,
      "Ġdelivery": 5816,
      "Ġweather": 5817,
      "ĠWeb": 5818,
      "Class": 5819,
      "ĠWestern": 5820,
      "rat": 5821,
      "Ġdistinc": 5822,
      "Ġcamera": 5823,
      "Home": 5824,
      "Ġarm": 5825,
      "nergy": 5826,
      "Ġfocused": 5827,
      "Ġteaching": 5828,
      "SA": 5829,
      "ĠLake": 5830,
      "Ġshape": 5831,
      "olars": 5832,
      "Ġpractices": 5833,
      "abilities": 5834,
      "har": 5835,
      "Ġinternal": 5836,
      "ĠPat": 5837,
      "Ġvisual": 5838,
      "Ġfacilities": 5839,
      "Ġsupported": 5840,
      "Ġlinks": 5841,
      "titution": 5842,
      "ĠWood": 5843,
      "Ġ45": 5844,
      "ĠEnd": 5845,
      "cea": 5846,
      "PR": 5847,
      "Ġbattle": 5848,
      "../../": 5849,
      "Ġpas": 5850,
      "ĠUnder": 5851,
      "Ġnet": 5852,
      "Ð»Ð¸": 5853,
      "ĠArts": 5854,
      "nite": 5855,
      "ĠCEO": 5856,
      "Ð¾Ð¹": 5857,
      "Ġexception": 5858,
      "rive": 5859,
      "Ġconnected": 5860,
      "['": 5861,
      "Ġformat": 5862,
      "fficient": 5863,
      "Ġhappens": 5864,
      "2018": 5865,
      "Serv": 5866,
      "Ġthea": 5867,
      "etry": 5868,
      "lang": 5869,
      "lah": 5870,
      "His": 5871,
      "Ġdrop": 5872,
      "Ġsexual": 5873,
      "ĠRichard": 5874,
      "uer": 5875,
      "rolled": 5876,
      "Ġfailed": 5877,
      "itz": 5878,
      "ĠSer": 5879,
      "matically": 5880,
      "Ġnav": 5881,
      "Ġsmaller": 5882,
      "Ġpool": 5883,
      "nies": 5884,
      "Ġagency": 5885,
      "CL": 5886,
      "Ġcitizens": 5887,
      "ila": 5888,
      "odies": 5889,
      "bour": 5890,
      "ĠTwo": 5891,
      "section": 5892,
      "ji": 5893,
      "Ġminor": 5894,
      "ĠIran": 5895,
      "Ġsitu": 5896,
      "Ġcircum": 5897,
      "Ġcloud": 5898,
      "+\\": 5899,
      "Ġdistrict": 5900,
      "Ġcompar": 5901,
      "Ġcriminal": 5902,
      "Ge": 5903,
      "Ġwhatever": 5904,
      "Ġidentify": 5905,
      "Can": 5906,
      "Ġdiscussion": 5907,
      "ĠSuper": 5908,
      "Ġwed": 5909,
      "Ġfemale": 5910,
      "ĠLike": 5911,
      "ĠBecause": 5912,
      "ĠSeries": 5913,
      "ĠWeek": 5914,
      "ĠLand": 5915,
      "ĠAND": 5916,
      "Ġfell": 5917,
      "Ġleaving": 5918,
      "ups": 5919,
      "Ġpieces": 5920,
      "Ġbaby": 5921,
      "Ġpark": 5922,
      "ĠLong": 5923,
      "ei": 5924,
      "lusion": 5925,
      "Ġcars": 5926,
      "Sa": 5927,
      "burg": 5928,
      "how": 5929,
      "Ġmanage": 5930,
      "acement": 5931,
      "mathr": 5932,
      "Ġfan": 5933,
      "89": 5934,
      "Ġuti": 5935,
      "ĠSun": 5936,
      "range": 5937,
      "Ġtrai": 5938,
      "Ġprocesses": 5939,
      "ĠShow": 5940,
      "rome": 5941,
      "ĠMatt": 5942,
      "ĠFamily": 5943,
      "Ġbalance": 5944,
      "Ġnoted": 5945,
      "Ġappar": 5946,
      "ĠEach": 5947,
      "ĠAngeles": 5948,
      "nition": 5949,
      "Ġattempt": 5950,
      "ĠWater": 5951,
      "Ã¥": 5952,
      "tection": 5953,
      "ĠLouis": 5954,
      "tanding": 5955,
      "van": 5956,
      "Ġfields": 5957,
      "Ġhonor": 5958,
      "Ġadvance": 5959,
      "Ġtrain": 5960,
      "ĠPolicy": 5961,
      "._": 5962,
      "rich": 5963,
      "Ġbath": 5964,
      "Ġhaven": 5965,
      "Ġdecisions": 5966,
      "76": 5967,
      "Ġbul": 5968,
      "Ġanimals": 5969,
      "doc": 5970,
      "arily": 5971,
      "ideos": 5972,
      "tie": 5973,
      "ĠList": 5974,
      "Ġdetermined": 5975,
      "ĠParis": 5976,
      "Ġdepartment": 5977,
      "Ġrob": 5978,
      "Ġchair": 5979,
      "Ġremove": 5980,
      "eserve": 5981,
      "Ġspeech": 5982,
      "ĠBrit": 5983,
      "poses": 5984,
      "ĠCas": 5985,
      "ponse": 5986,
      "Ġadding": 5987,
      "ĠMat": 5988,
      "ilder": 5989,
      "Ġrac": 5990,
      "Ġdemonstra": 5991,
      "Ġreligious": 5992,
      "Ġintroduced": 5993,
      "Ġze": 5994,
      "Ġtex": 5995,
      "yan": 5996,
      "ĠBlue": 5997,
      "Ġalle": 5998,
      "Ġconta": 5999,
      "tilde": 6000,
      "MP": 6001,
      "Ġmeant": 6002,
      "Ġmanaged": 6003,
      "rix": 6004,
      "ional": 6005,
      "teen": 6006,
      "ĠTen": 6007,
      "Ġselect": 6008,
      "Ġdedicated": 6009,
      "Ġchief": 6010,
      "America": 6011,
      "Ġcab": 6012,
      "ĠSu": 6013,
      "ĠPC": 6014,
      "free": 6015,
      "Ġarrang": 6016,
      "Ġdecades": 6017,
      "Ġdriver": 6018,
      "ĠIslam": 6019,
      "Ġmicro": 6020,
      "59": 6021,
      "Ġbrothe": 6022,
      "Ġsubsta": 6023,
      "Ġbrother": 6024,
      "Ġopinion": 6025,
      "Ġguess": 6026,
      "Ġorg": 6027,
      "Ġnegative": 6028,
      "lig": 6029,
      "arr": 6030,
      "Ġprepared": 6031,
      "Ð¾Ð³Ð¾": 6032,
      "ÐºÐ°": 6033,
      "Ġchanging": 6034,
      "Ġmeasure": 6035,
      "Ġevening": 6036,
      "Ġbatter": 6037,
      "know": 6038,
      "kins": 6039,
      "Ġkitchen": 6040,
      "Ġban": 6041,
      "pack": 6042,
      "Ġguara": 6043,
      "size": 6044,
      "mathrm": 6045,
      "Ġeventually": 6046,
      "Ġfreedom": 6047,
      "Ġcour": 6048,
      "etic": 6049,
      "ĠRem": 6050,
      ")(": 6051,
      "ilding": 6052,
      "Ġmani": 6053,
      "include": 6054,
      "Ġexcept": 6055,
      "reaking": 6056,
      "trans": 6057,
      "DF": 6058,
      "ĠAccording": 6059,
      "essions": 6060,
      "Ġnumerous": 6061,
      "Ġfashion": 6062,
      "Ġnone": 6063,
      "Ġcoord": 6064,
      "ĠCup": 6065,
      "ĠHuman": 6066,
      "Ð²Ð°": 6067,
      "ĠDown": 6068,
      "ĠTal": 6069,
      "Ġimportance": 6070,
      "law": 6071,
      "ered": 6072,
      "related": 6073,
      "Ġassum": 6074,
      "Ġaut": 6075,
      "iture": 6076,
      "Ġcrisis": 6077,
      "Ġexplore": 6078,
      "Ġrespec": 6079,
      "Ġmaintain": 6080,
      "unning": 6081,
      "ucky": 6082,
      "Ġdocuments": 6083,
      "ĠFl": 6084,
      "ĠCentr": 6085,
      "Ġedge": 6086,
      "Ġsoft": 6087,
      "Ġconsequ": 6088,
      "Ġpoly": 6089,
      "cep": 6090,
      "ana": 6091,
      "ients": 6092,
      "ĠObama": 6093,
      "Ġmarkets": 6094,
      "inate": 6095,
      "Ġpictures": 6096,
      "lishing": 6097,
      "Ġlived": 6098,
      "79": 6099,
      "Ġfab": 6100,
      "TH": 6101,
      "Ġguy": 6102,
      "Ġaware": 6103,
      "omestic": 6104,
      "oing": 6105,
      "Ġunits": 6106,
      "alled": 6107,
      "Ġdecr": 6108,
      "user": 6109,
      "Ġpray": 6110,
      "Dr": 6111,
      "Ġem": 6112,
      "ateg": 6113,
      "ĠMedical": 6114,
      "gamma": 6115,
      "Ġgirls": 6116,
      "ensions": 6117,
      "ĠWindows": 6118,
      "what": 6119,
      "Ġconcerns": 6120,
      "rene": 6121,
      "Ġdiagnos": 6122,
      "Ġpayment": 6123,
      "56": 6124,
      "nity": 6125,
      "ĠSpecial": 6126,
      "¿½": 6127,
      "Ġyout": 6128,
      "ĠDuring": 6129,
      "Ġ2002": 6130,
      "Ġterror": 6131,
      "Ġ(\"": 6132,
      "oses": 6133,
      "gorith": 6134,
      "Ġmetal": 6135,
      "Ġofficer": 6136,
      "Ġlea": 6137,
      "ĠSi": 6138,
      "Ġalternative": 6139,
      "Ġ2001": 6140,
      "Ġobtained": 6141,
      "ï¿½": 6142,
      "fication": 6143,
      "ĠGrand": 6144,
      "Ġ;": 6145,
      "========": 6146,
      "ĠChief": 6147,
      "ĠCharles": 6148,
      "Object": 6149,
      "Ġeditor": 6150,
      "Ġwaiting": 6151,
      "]{": 6152,
      "usted": 6153,
      "Ġmarried": 6154,
      "ĠJim": 6155,
      "Ġidentified": 6156,
      "Ġcentr": 6157,
      "gon": 6158,
      "Ġflu": 6159,
      "ĠArab": 6160,
      "Ġscri": 6161,
      "Ġrandom": 6162,
      "cher": 6163,
      "Ġcat": 6164,
      "Sp": 6165,
      "Ġice": 6166,
      "Ġmostly": 6167,
      "ĊĠĠĠĠĠĠĠĠĠĠĠĠĠĠĠĠĠĠĠĠĠĠĠĠĠĠĠĠĠĠĠĠ": 6168,
      "ĠCentre": 6169,
      "met": 6170,
      "heta": 6171,
      "Ġsharing": 6172,
      "ĠTO": 6173,
      "Ġstated": 6174,
      "SC": 6175,
      "ĠSus": 6176,
      "Ġevalu": 6177,
      "ects": 6178,
      "Ġarticles": 6179,
      "temporary": 6180,
      "Ġestate": 6181,
      "Ġproud": 6182,
      "Ġlots": 6183,
      "water": 6184,
      "racy": 6185,
      "Text": 6186,
      "ete": 6187,
      "ĠHor": 6188,
      "print": 6189,
      "bra": 6190,
      "Ġcommitted": 6191,
      "Ġjoint": 6192,
      "thle": 6193,
      "holic": 6194,
      "Ġvon": 6195,
      "Ġconver": 6196,
      "Ġequal": 6197,
      "Ste": 6198,
      "Ġfurn": 6199,
      "sequ": 6200,
      "ĠAsia": 6201,
      "ĠPac": 6202,
      "Ġbeach": 6203,
      "*}": 6204,
      "Ġwatching": 6205,
      "Ġsymbol": 6206,
      "0000": 6207,
      "Ġ///": 6208,
      "Ġexperiment": 6209,
      "Ġattach": 6210,
      "However": 6211,
      "Ġtransform": 6212,
      "ained": 6213,
      "ĠIts": 6214,
      "Ġgain": 6215,
      "Ġclinical": 6216,
      "allery": 6217,
      "that": 6218,
      "file": 6219,
      "AA": 6220,
      "Ġtro": 6221,
      "ĠThea": 6222,
      "udden": 6223,
      "Ġcop": 6224,
      "ustin": 6225,
      "Ġexecutive": 6226,
      "Ġcombination": 6227,
      "Ġcompos": 6228,
      "ches": 6229,
      "index": 6230,
      "Ġwine": 6231,
      "pet": 6232,
      "Ġhandle": 6233,
      "ĠLear": 6234,
      "ĠNY": 6235,
      "Ġphase": 6236,
      "Ġplays": 6237,
      "hal": 6238,
      "nistry": 6239,
      "Ġflex": 6240,
      "Ġvolun": 6241,
      "First": 6242,
      "Ġvolume": 6243,
      "istics": 6244,
      "iversity": 6245,
      "sm": 6246,
      "ĠÑĤ": 6247,
      "ĠTy": 6248,
      "igan": 6249,
      "Ġborder": 6250,
      "ĠRE": 6251,
      "aration": 6252,
      "je": 6253,
      "Ġkeeping": 6254,
      "esis": 6255,
      "lean": 6256,
      "Ġplants": 6257,
      "Ġ500": 6258,
      "Ġdefault": 6259,
      "Ġbow": 6260,
      "Ġideal": 6261,
      "zing": 6262,
      "rish": 6263,
      "Ġguys": 6264,
      "amples": 6265,
      "Ġsettle": 6266,
      "Ġbutton": 6267,
      "Ġlaunched": 6268,
      "vative": 6269,
      "ĠCamp": 6270,
      "ĠDie": 6271,
      "':": 6272,
      "Ġnotes": 6273,
      "ĠBrown": 6274,
      "File": 6275,
      "ĠValley": 6276,
      "Ġadvanced": 6277,
      "Ġleads": 6278,
      "Ġepisode": 6279,
      "ĠRights": 6280,
      "DE": 6281,
      "Ġmaximum": 6282,
      "center": 6283,
      "Ġhearing": 6284,
      "theta": 6285,
      "ĠPub": 6286,
      "Ġcolle": 6287,
      "Ġlabel": 6288,
      "Ġeat": 6289,
      "Ġinjury": 6290,
      "while": 6291,
      "ĠCul": 6292,
      "ĠBas": 6293,
      "ĠAff": 6294,
      "graphy": 6295,
      "rics": 6296,
      "Ġlisten": 6297,
      "part": 6298,
      "tility": 6299,
      "2017": 6300,
      "Ġbes": 6301,
      "Ġheight": 6302,
      "ĠDra": 6303,
      "Ġmotor": 6304,
      "Ġstars": 6305,
      "Ġdoubt": 6306,
      "Ġissued": 6307,
      "Ġstarts": 6308,
      "Ġobtain": 6309,
      "ĠAmazon": 6310,
      "Ġinterests": 6311,
      "Ġsurvey": 6312,
      "car": 6313,
      "Ġwaste": 6314,
      "EW": 6315,
      "ĠWhe": 6316,
      "titude": 6317,
      "EST": 6318,
      "Ġwilling": 6319,
      "hire": 6320,
      "Ġexchange": 6321,
      "ĠFac": 6322,
      "ĠMartin": 6323,
      "Ġidentity": 6324,
      "ĠHead": 6325,
      "Ġhistorical": 6326,
      "fl": 6327,
      "Next": 6328,
      "Ġsca": 6329,
      "ĠDan": 6330,
      "rho": 6331,
      "Ġlose": 6332,
      "ĠEnter": 6333,
      "Le": 6334,
      "Ġtelevision": 6335,
      "Ġmissing": 6336,
      "than": 6337,
      "figure": 6338,
      "Ġlisted": 6339,
      "Ġclassic": 6340,
      "ĠJohnso": 6341,
      "Ġbrings": 6342,
      "Ġstatis": 6343,
      "ĠJohnson": 6344,
      "gene": 6345,
      "Ġpair": 6346,
      "Ġadvent": 6347,
      "Ġraise": 6348,
      "ganiz": 6349,
      "Ġfuel": 6350,
      "delta": 6351,
      "$$": 6352,
      "pers": 6353,
      "ersey": 6354,
      "ĠSk": 6355,
      "^\\": 6356,
      "Ġcarried": 6357,
      "ĠMel": 6358,
      "Ġacademic": 6359,
      "Ġsample": 6360,
      "ike": 6361,
      "Ġrapid": 6362,
      "ĠLee": 6363,
      "craft": 6364,
      "rior": 6365,
      "LC": 6366,
      "Ġcrime": 6367,
      "reland": 6368,
      "ĠOnce": 6369,
      "Ġminimum": 6370,
      "Ġrid": 6371,
      "inding": 6372,
      "andemic": 6373,
      "Ġrecorded": 6374,
      "Ġexperts": 6375,
      "iden": 6376,
      "igital": 6377,
      "gg": 6378,
      "len": 6379,
      "fol": 6380,
      "ĠFood": 6381,
      "2020": 6382,
      "Ġapproximately": 6383,
      "Ġsounds": 6384,
      "can": 6385,
      "Ġresource": 6386,
      "Ġoccasion": 6387,
      "Ġinvestigation": 6388,
      "Ġrelationships": 6389,
      "inder": 6390,
      "path": 6391,
      "Def": 6392,
      "Ġdance": 6393,
      "ooting": 6394,
      "si": 6395,
      "Ġdefend": 6396,
      "ĠToday": 6397,
      "Ġcong": 6398,
      "zed": 6399,
      "Ġwelcome": 6400,
      "ĠÎ": 6401,
      "']": 6402,
      "oted": 6403,
      "embly": 6404,
      "ĠAbout": 6405,
      "Ġunless": 6406,
      "atory": 6407,
      "phere": 6408,
      "wers": 6409,
      "ĠAnal": 6410,
      "87": 6411,
      "ĠFederal": 6412,
      "enni": 6413,
      "Ġcoverage": 6414,
      "');": 6415,
      "achel": 6416,
      "Ġours": 6417,
      "Us": 6418,
      "ĠAustralian": 6419,
      "Ġuniversity": 6420,
      "ĠNav": 6421,
      "oga": 6422,
      "Ġbird": 6423,
      "Ð¸ÑĤ": 6424,
      "ride": 6425,
      "Ġforced": 6426,
      "Fra": 6427,
      "Ġfacility": 6428,
      "Ġholds": 6429,
      "length": 6430,
      "Ġparent": 6431,
      "Ġreviews": 6432,
      "Ġrank": 6433,
      "ds": 6434,
      "ĠThanks": 6435,
      "enance": 6436,
      "Ġexercise": 6437,
      "Ġcompreh": 6438,
      "ĠReal": 6439,
      "ĠCorpor": 6440,
      "cean": 6441,
      "Ġwinning": 6442,
      "count": 6443,
      "Ġcorporate": 6444,
      "ĠHous": 6445,
      "tract": 6446,
      "Ġresponsibility": 6447,
      "Ġyouth": 6448,
      "Ġannounce": 6449,
      "Ġ!=": 6450,
      "Pre": 6451,
      "icks": 6452,
      "ĠCare": 6453,
      "och": 6454,
      "Ġ($": 6455,
      "Ġ32": 6456,
      "friend": 6457,
      "ECT": 6458,
      "portation": 6459,
      "ĠStand": 6460,
      "nus": 6461,
      "Ġreli": 6462,
      "url": 6463,
      "Ġquanti": 6464,
      "ĠAdminist": 6465,
      "Ġstro": 6466,
      "Ġwinter": 6467,
      "Ġhero": 6468,
      "Ġdoctor": 6469,
      "ĠGame": 6470,
      "ĠLu": 6471,
      "Ġdial": 6472,
      "tise": 6473,
      "thr": 6474,
      "EE": 6475,
      ")}": 6476,
      "Ġspending": 6477,
      "69": 6478,
      "tau": 6479,
      "Ġjustice": 6480,
      "Ġmanner": 6481,
      "ĠFestival": 6482,
      "ĠUse": 6483,
      "Ġandroid": 6484,
      "Ġcalling": 6485,
      "Ġhousing": 6486,
      "Posted": 6487,
      "ĠStep": 6488,
      "oster": 6489,
      "ĠRoyal": 6490,
      "bat": 6491,
      "Reg": 6492,
      "ĠBud": 6493,
      "page": 6494,
      "ano": 6495,
      "UL": 6496,
      "liament": 6497,
      "Ġinfras": 6498,
      "Sup": 6499,
      "eri": 6500,
      "olve": 6501,
      "ĠSection": 6502,
      "Ġcomponents": 6503,
      "leq": 6504,
      "Ġkid": 6505,
      "Ġbelong": 6506,
      "jected": 6507,
      "ĠMin": 6508,
      "Ġexcited": 6509,
      "ĠMiddle": 6510,
      "Ġprocessing": 6511,
      "Ġexplai": 6512,
      "Ġexplain": 6513,
      "ĠDesign": 6514,
      "igion": 6515,
      "Ġprotected": 6516,
      "Ġteache": 6517,
      "ĠMur": 6518,
      "tol": 6519,
      "Ġteacher": 6520,
      "encing": 6521,
      "Car": 6522,
      "ello": 6523,
      "ÐµÐ½Ð¸": 6524,
      "Ġfourth": 6525,
      "ĠTH": 6526,
      "Ġsor": 6527,
      "ĠCanadian": 6528,
      "Ġpurposes": 6529,
      "ĠMexico": 6530,
      "Ġaccept": 6531,
      "sq": 6532,
      "cm": 6533,
      "());": 6534,
      "ĠJapanese": 6535,
      "Ġshut": 6536,
      "ĠBack": 6537,
      "Ġcentre": 6538,
      "nx": 6539,
      "Ġgift": 6540,
      "content": 6541,
      "ÐºÐ¸": 6542,
      "oken": 6543,
      "Pat": 6544,
      "Ð¾Ñģ": 6545,
      "57": 6546,
      "ĠInt": 6547,
      "Ġsignificantly": 6548,
      "inal": 6549,
      "Ġgun": 6550,
      "eah": 6551,
      "ums": 6552,
      "Ġsecure": 6553,
      "Ġfailure": 6554,
      "Ġcritic": 6555,
      "reme": 6556,
      "Ġpod": 6557,
      "ĠÐ°": 6558,
      "lications": 6559,
      "Ġpolitics": 6560,
      "Ġsho": 6561,
      "Ġdecor": 6562,
      "ĠEnergy": 6563,
      "Ġmort": 6564,
      "Ġcoffee": 6565,
      "eets": 6566,
      "nsel": 6567,
      "ĠCer": 6568,
      "ĠDu": 6569,
      "ĠMen": 6570,
      "wri": 6571,
      "draw": 6572,
      "Ġherself": 6573,
      "Ġwitness": 6574,
      "uests": 6575,
      "xy": 6576,
      "Ġshares": 6577,
      "Ġfixed": 6578,
      "Ġjump": 6579,
      "According": 6580,
      "Ġauthority": 6581,
      "tech": 6582,
      "Ġmovies": 6583,
      "Ġproto": 6584,
      "ane": 6585,
      "Ġmassive": 6586,
      "sts": 6587,
      "Ġcombined": 6588,
      "Ro": 6589,
      "$-": 6590,
      "Ġsuggest": 6591,
      "outs": 6592,
      "Ġrevealed": 6593,
      "67": 6594,
      "cho": 6595,
      "Ġpp": 6596,
      "Sec": 6597,
      ".;": 6598,
      "2016": 6599,
      "ĠStor": 6600,
      "Ġscientific": 6601,
      "Ġagreed": 6602,
      "elines": 6603,
      "umps": 6604,
      "\"><": 6605,
      "May": 6606,
      "Ġstrugg": 6607,
      "unde": 6608,
      "istry": 6609,
      "Ġpal": 6610,
      "Ġreduced": 6611,
      "ĠGal": 6612,
      "door": 6613,
      "Ġslightly": 6614,
      "Dec": 6615,
      "nz": 6616,
      "athle": 6617,
      "Ġteachers": 6618,
      "Ġtechniques": 6619,
      "Ġleaves": 6620,
      "ighted": 6621,
      "Ġdatabase": 6622,
      "fs": 6623,
      "ĠAuthor": 6624,
      "cious": 6625,
      "RI": 6626,
      "Ġven": 6627,
      "ĠAcademy": 6628,
      "bsp": 6629,
      "Ġallowing": 6630,
      "ket": 6631,
      "Ġpackage": 6632,
      "Ġbuildings": 6633,
      "quad": 6634,
      "ĠOld": 6635,
      "onds": 6636,
      "hones": 6637,
      "Ġinstitutions": 6638,
      "Ġdefense": 6639,
      "Ġanalys": 6640,
      "Ġcomfortable": 6641,
      "Ġpleas": 6642,
      "luding": 6643,
      "Ġrain": 6644,
      "Ġadvoc": 6645,
      "xi": 6646,
      "vir": 6647,
      "ĠView": 6648,
      "igen": 6649,
      "Ġposts": 6650,
      "ĠJoe": 6651,
      "ĠReport": 6652,
      "Ġexclusive": 6653,
      "Ġofficers": 6654,
      "Conf": 6655,
      "ushing": 6656,
      "lind": 6657,
      "iers": 6658,
      "Last": 6659,
      "Ġvehicles": 6660,
      "Ġobserved": 6661,
      "Ġholding": 6662,
      "long": 6663,
      "ĠLab": 6664,
      "Ġcoast": 6665,
      "58": 6666,
      "ĠJustice": 6667,
      "Ġwear": 6668,
      "lymp": 6669,
      "GB": 6670,
      "Ġtests": 6671,
      "Ġtot": 6672,
      "ĠGen": 6673,
      "hentic": 6674,
      "Ġdecide": 6675,
      "++": 6676,
      "Ġcards": 6677,
      "java": 6678,
      "ĠTer": 6679,
      "ĠWay": 6680,
      "Ġregistered": 6681,
      "Ġmedium": 6682,
      "arrow": 6683,
      "Ġobjects": 6684,
      "ocket": 6685,
      "reen": 6686,
      "ĠSand": 6687,
      "Ġcategory": 6688,
      "Ġextensive": 6689,
      "Ġaspects": 6690,
      "ĠWork": 6691,
      "ĠLibrary": 6692,
      "uls": 6693,
      "Ġphilos": 6694,
      "Ġsemi": 6695,
      "ĠVirginia": 6696,
      "utation": 6697,
      "istration": 6698,
      "Ġfilled": 6699,
      "lined": 6700,
      "Ġthoughts": 6701,
      "Ġrom": 6702,
      "icious": 6703,
      "See": 6704,
      "Ġtrees": 6705,
      "cc": 6706,
      "group": 6707,
      "Ġfill": 6708,
      "Ġforget": 6709,
      "Ġfamiliar": 6710,
      "Ġplenty": 6711,
      "Ġputting": 6712,
      "Ġweak": 6713,
      "Int": 6714,
      "Ġremoved": 6715,
      "Ġisland": 6716,
      "west": 6717,
      "olved": 6718,
      "tas": 6719,
      "Ġ$(": 6720,
      "sup": 6721,
      "Ġera": 6722,
      "ĠBet": 6723,
      "ĠIreland": 6724,
      "Ġintended": 6725,
      "ĠColor": 6726,
      "Ġtheme": 6727,
      "Ġaffected": 6728,
      "Ġexplained": 6729,
      "ĠÐ¡": 6730,
      "Ġlibrary": 6731,
      "ATION": 6732,
      "Ġdiscovered": 6733,
      "ĠHaw": 6734,
      "Ġaccurate": 6735,
      "68": 6736,
      "Ġking": 6737,
      "Ġ/>": 6738,
      "vity": 6739,
      "Ġsupposed": 6740,
      "Ġtag": 6741,
      "thon": 6742,
      "ĠShi": 6743,
      "ĠIP": 6744,
      "Ġapproved": 6745,
      "ĠAv": 6746,
      "Ġspecifically": 6747,
      "fortunately": 6748,
      "Ġsupporting": 6749,
      "ĠMaster": 6750,
      "ĠPolice": 6751,
      "Un": 6752,
      "Ġ/**": 6753,
      "chi": 6754,
      "ĠWall": 6755,
      "iana": 6756,
      "ĠCard": 6757,
      "Test": 6758,
      "ĠLast": 6759,
      "Ġanimal": 6760,
      "ĠHospital": 6761,
      "ÐµÐ¼": 6762,
      "ĠLim": 6763,
      "ystems": 6764,
      "idents": 6765,
      "bel": 6766,
      "Ġreturns": 6767,
      "Ġapart": 6768,
      "Error": 6769,
      "loyment": 6770,
      "Ġ2023": 6771,
      "ĠGa": 6772,
      "Ġsand": 6773,
      "apping": 6774,
      "Ġasking": 6775,
      "Ġinfrastructure": 6776,
      "Ġexamples": 6777,
      "Ġflight": 6778,
      "Ġauth": 6779,
      "Ġtough": 6780,
      "Ġsmooth": 6781,
      "Ġproceed": 6782,
      "pret": 6783,
      "Ġsweet": 6784,
      "Ġfeels": 6785,
      "ĠEp": 6786,
      "ĠEt": 6787,
      "ĠJones": 6788,
      "ipe": 6789,
      "tify": 6790,
      "Ġsquare": 6791,
      "opera": 6792,
      "HS": 6793,
      "ĠSecond": 6794,
      "ange": 6795,
      "dir": 6796,
      "Ġaffect": 6797,
      "Ġ&&": 6798,
      "FA": 6799,
      "Ġrestaurant": 6800,
      "Ġpitch": 6801,
      "ĠVictor": 6802,
      "Ġexpans": 6803,
      "ĠBeach": 6804,
      "ĠJewish": 6805,
      "Ġcolumn": 6806,
      "Ġserving": 6807,
      "Ġhighl": 6808,
      "Ġexpert": 6809,
      "Ġschedule": 6810,
      "Ġbranch": 6811,
      "Ġperspective": 6812,
      "hed": 6813,
      "Ġtransition": 6814,
      "Ġaccident": 6815,
      "ĠChampions": 6816,
      "Ġdiss": 6817,
      "ĠMcC": 6818,
      "Ġtells": 6819,
      "ĠArmy": 6820,
      "Ġderi": 6821,
      "Â°": 6822,
      "Ġpublish": 6823,
      "Ġhang": 6824,
      "prise": 6825,
      "ĠBob": 6826,
      "ĠConference": 6827,
      "iller": 6828,
      "ĠCam": 6829,
      "gna": 6830,
      "Ġchemical": 6831,
      "Ġrelax": 6832,
      "Ġmusical": 6833,
      "Ne": 6834,
      "Ġconcerned": 6835,
      "ĠFilm": 6836,
      "ĠNetwork": 6837,
      "Ġrespectively": 6838,
      "Ġemphas": 6839,
      "2015": 6840,
      "olar": 6841,
      "color": 6842,
      "Ġincorpor": 6843,
      "Ġconversation": 6844,
      "ossible": 6845,
      "anth": 6846,
      "Ġvideos": 6847,
      "Ñī": 6848,
      "Ġtechnologies": 6849,
      "Ġemergency": 6850,
      "Ġindustrial": 6851,
      "ĠInte": 6852,
      "Ġran": 6853,
      "Ġassistance": 6854,
      "Ġdivid": 6855,
      "Ġminute": 6856,
      "Wa": 6857,
      "Ġvillage": 6858,
      "reprene": 6859,
      "agers": 6860,
      "Please": 6861,
      "nbsp": 6862,
      "Â®": 6863,
      "Ġconducted": 6864,
      "Ġdele": 6865,
      "Ġcours": 6866,
      "Ð°ÑĤ": 6867,
      "DS": 6868,
      "Ġparticipants": 6869,
      "Ġbright": 6870,
      "rete": 6871,
      "goti": 6872,
      "Ġcomponent": 6873,
      "Ġargument": 6874,
      "Ġrail": 6875,
      "Ġupdated": 6876,
      "53": 6877,
      "ĠOnline": 6878,
      "Ġexciting": 6879,
      "piration": 6880,
      "Ġsoul": 6881,
      "ĠOri": 6882,
      "Ġreaders": 6883,
      "Since": 6884,
      "Ġmatters": 6885,
      "Ġbringing": 6886,
      "Ġlocations": 6887,
      "Ġformed": 6888,
      "Ġrepa": 6889,
      "Ġvirtual": 6890,
      "ente": 6891,
      "enda": 6892,
      "raq": 6893,
      "ĠMuslim": 6894,
      "Ġsudden": 6895,
      "iler": 6896,
      "Ġhos": 6897,
      "nno": 6898,
      "Ġseat": 6899,
      "Ġbio": 6900,
      "Gene": 6901,
      "}(\\": 6902,
      "ads": 6903,
      "ponent": 6904,
      "Ġdetailed": 6905,
      "osc": 6906,
      "ints": 6907,
      "Ġwave": 6908,
      "Ġcorner": 6909,
      "Ġmale": 6910,
      "Ġmotion": 6911,
      "ATE": 6912,
      "Ġmarriage": 6913,
      "Ġabsolutely": 6914,
      "ella": 6915,
      "Ġprop": 6916,
      "ĠAud": 6917,
      "Ġbag": 6918,
      "Ġgreatest": 6919,
      "Ġsac": 6920,
      "utor": 6921,
      "ĠCus": 6922,
      "Ġconv": 6923,
      "Ġnuclear": 6924,
      "ĠProfessor": 6925,
      "hony": 6926,
      "ells": 6927,
      "Ġtypically": 6928,
      "partial": 6929,
      "54": 6930,
      "Ġaccompl": 6931,
      "Ġloa": 6932,
      "iano": 6933,
      "ĠEqu": 6934,
      "ĠMike": 6935,
      "ĠJeff": 6936,
      "Ġstanding": 6937,
      "Ġbeauty": 6938,
      "Ġprofessionals": 6939,
      "Ġagent": 6940,
      "rupt": 6941,
      "uable": 6942,
      "stances": 6943,
      "BI": 6944,
      "Ġvisitors": 6945,
      "Ġpromote": 6946,
      "Ġenjoyed": 6947,
      "Ġgarden": 6948,
      "ĠSports": 6949,
      "Ġarrived": 6950,
      "ĠBoth": 6951,
      "Ġpattern": 6952,
      "eart": 6953,
      "Trans": 6954,
      "Ã£": 6955,
      "ĠPhilip": 6956,
      "Ġdomestic": 6957,
      "Ġcommitment": 6958,
      "Ġelim": 6959,
      "Ġpandemic": 6960,
      "Ġseek": 6961,
      "ounting": 6962,
      "host": 6963,
      "ĠSenate": 6964,
      "Ġwalking": 6965,
      "enters": 6966,
      "infty": 6967,
      "ERS": 6968,
      "Ġcharges": 6969,
      "ĠEnvironment": 6970,
      "fast": 6971,
      "Ġ**": 6972,
      "FF": 6973,
      "Ġcreation": 6974,
      "Ġconnect": 6975,
      "Ġsides": 6976,
      "Ġprofile": 6977,
      "orders": 6978,
      "Ġadults": 6979,
      "Ġroof": 6980,
      "Ġresearchers": 6981,
      "ĠSecretary": 6982,
      "(),": 6983,
      "igns": 6984,
      "Ġtreated": 6985,
      "ĠStudies": 6986,
      "uing": 6987,
      "ĠKey": 6988,
      "Ġamb": 6989,
      "Ġholiday": 6990,
      "lie": 6991,
      "Ð°ÑĢ": 6992,
      "Ġtopic": 6993,
      "rieved": 6994,
      "Rep": 6995,
      "ĠCarolina": 6996,
      "Ġaccounts": 6997,
      "Every": 6998,
      "omega": 6999,
      "run": 7000,
      "ophy": 7001,
      "Ġregional": 7002,
      "Ġappoint": 7003,
      "ĠDet": 7004,
      "Ġrevenue": 7005,
      "Ġauthorities": 7006,
      "nab": 7007,
      "paper": 7008,
      "Dir": 7009,
      "ĠLead": 7010,
      "ĠScott": 7011,
      "sk": 7012,
      "ĠGeorg": 7013,
      "Ã©e": 7014,
      "Ġflat": 7015,
      "ogy": 7016,
      "Ġremaining": 7017,
      "Yes": 7018,
      "ĠNov": 7019,
      "lywood": 7020,
      "ĠYoung": 7021,
      "rin": 7022,
      "cks": 7023,
      "Ġfle": 7024,
      "Ġcos": 7025,
      "Que": 7026,
      "Ġroute": 7027,
      "ĠAT": 7028,
      "okes": 7029,
      "Ġproof": 7030,
      "Ġmal": 7031,
      "ilit": 7032,
      "eper": 7033,
      "Ġaf": 7034,
      "Ġcaught": 7035,
      "Ġ1990": 7036,
      "rants": 7037,
      "Ġmir": 7038,
      "ĠAnt": 7039,
      "ĠMicrosoft": 7040,
      "panish": 7041,
      "owered": 7042,
      "52": 7043,
      "Ġathle": 7044,
      "Ġenem": 7045,
      "PC": 7046,
      "ãĥ": 7047,
      "Ġrelatively": 7048,
      "EX": 7049,
      "ĠDani": 7050,
      "forcement": 7051,
      "ĠWilliams": 7052,
      "arp": 7053,
      "51": 7054,
      "Ġ36": 7055,
      "Ġdebt": 7056,
      "truction": 7057,
      "ĠPoli": 7058,
      "vec": 7059,
      "Ġaccommod": 7060,
      "Ġseeking": 7061,
      "NS": 7062,
      "Ġsnow": 7063,
      "ĠOlymp": 7064,
      "ĠCA": 7065,
      "sim": 7066,
      "luded": 7067,
      "Ġrenew": 7068,
      "Ġrecip": 7069,
      "Ġcommittee": 7070,
      "atm": 7071,
      "Ġinspired": 7072,
      "Ġbegins": 7073,
      "Ã±": 7074,
      "Ġchain": 7075,
      "azz": 7076,
      "Ġrang": 7077,
      "ĠChair": 7078,
      "ĠCode": 7079,
      "ttle": 7080,
      "cor": 7081,
      "Ġtradition": 7082,
      "nym": 7083,
      "Ġcontain": 7084,
      "nas": 7085,
      "Ġprove": 7086,
      "ĠYes": 7087,
      "''": 7088,
      "Ġspons": 7089,
      "space": 7090,
      "Ġconcern": 7091,
      "Ġwealth": 7092,
      "eqref": 7093,
      "map": 7094,
      "Ġdiscussed": 7095,
      "ĠControl": 7096,
      "Ġpour": 7097,
      "esting": 7098,
      "Ġdestroy": 7099,
      "ĠCH": 7100,
      "ticed": 7101,
      "case": 7102,
      "Ġaid": 7103,
      "ĠFort": 7104,
      "2014": 7105,
      "php": 7106,
      "comes": 7107,
      "Ġassets": 7108,
      "Ġwedding": 7109,
      "Photo": 7110,
      "Ġresolution": 7111,
      "Then": 7112,
      "à¥": 7113,
      "Ġ1999": 7114,
      "Ġselling": 7115,
      "subs": 7116,
      "ĠBow": 7117,
      "Ġrooms": 7118,
      "vince": 7119,
      "Ġhundreds": 7120,
      "Ġcauses": 7121,
      "Ġbought": 7122,
      "Ġdelivered": 7123,
      "Ġdifferences": 7124,
      "Ass": 7125,
      "Ġauthors": 7126,
      "real": 7127,
      "Ġforg": 7128,
      "utter": 7129,
      "pts": 7130,
      "Ġsuit": 7131,
      "edy": 7132,
      "Ġpil": 7133,
      "Ġgrew": 7134,
      "ĠAwards": 7135,
      "Ġplot": 7136,
      "Ġconfidence": 7137,
      "hick": 7138,
      "Event": 7139,
      "ersonal": 7140,
      "Ġdefinition": 7141,
      "Ġattacks": 7142,
      "RC": 7143,
      "Ġsolar": 7144,
      "noon": 7145,
      "Ġaudio": 7146,
      "Ġpossibly": 7147,
      "Ġdescription": 7148,
      "tiga": 7149,
      "Ġemployee": 7150,
      "}$.": 7151,
      "aga": 7152,
      "Te": 7153,
      "spec": 7154,
      "Ġoppos": 7155,
      "ĠHotel": 7156,
      "Ġenable": 7157,
      "Ġdollars": 7158,
      "ĠUk": 7159,
      "Ġpositions": 7160,
      "UM": 7161,
      "ems": 7162,
      "Ð¾ÑĤ": 7163,
      "Ġinvolve": 7164,
      "Ġparameters": 7165,
      "Ġrare": 7166,
      "Ġturns": 7167,
      "aci": 7168,
      "Ġsister": 7169,
      "Ġcandidate": 7170,
      "via": 7171,
      "Ġkill": 7172,
      "Ġnegoti": 7173,
      "mic": 7174,
      "iness": 7175,
      "ĠPop": 7176,
      "Ġseconds": 7177,
      "}$,": 7178,
      "};": 7179,
      "Ġflav": 7180,
      "licit": 7181,
      "Ġentirely": 7182,
      "Ġstrategies": 7183,
      "Ġdrugs": 7184,
      "ĊĊĠĠĠĠĠĠĠĠĠĠĠ": 7185,
      "Ġupper": 7186,
      "ãĤ": 7187,
      "porters": 7188,
      "lus": 7189,
      "Ġindeed": 7190,
      "Ġimplementation": 7191,
      "Ġodd": 7192,
      "Ġexpensive": 7193,
      "Ġcrew": 7194,
      "omi": 7195,
      "Ġadult": 7196,
      "Ġancient": 7197,
      "ster": 7198,
      "half": 7199,
      "Ġeducational": 7200,
      "Ġconflict": 7201,
      "Well": 7202,
      "Ġcircumstances": 7203,
      "ĠMedicine": 7204,
      "dd": 7205,
      "Ġharm": 7206,
      "####": 7207,
      "ĠChildren": 7208,
      "Ġimproved": 7209,
      "ĠVo": 7210,
      "Mr": 7211,
      "Ġedition": 7212,
      "ancy": 7213,
      "atmos": 7214,
      "LA": 7215,
      "Ġride": 7216,
      "ĠExecutive": 7217,
      "Ġappearance": 7218,
      "Your": 7219,
      "ĠCrea": 7220,
      "ÃŃa": 7221,
      "Ġicon": 7222,
      "ĠBoston": 7223,
      "Ġgoods": 7224,
      "Ġconfirmed": 7225,
      "num": 7226,
      "under": 7227,
      "ori": 7228,
      "Ġlaugh": 7229,
      "Ġalgorith": 7230,
      "Ġstopped": 7231,
      "aine": 7232,
      "Ġpred": 7233,
      "Ġdestin": 7234,
      "arks": 7235,
      "Ġunf": 7236,
      "Ġliqu": 7237,
      "amin": 7238,
      "ĠÐ·Ð°": 7239,
      "Ġsitting": 7240,
      "wal": 7241,
      "ett": 7242,
      "ĠAndrew": 7243,
      "str": 7244,
      "Ġtun": 7245,
      "ĠMake": 7246,
      "Ġagencies": 7247,
      "vid": 7248,
      "Ġfee": 7249,
      "oh": 7250,
      "Ġacknow": 7251,
      "porter": 7252,
      "CD": 7253,
      "Ġquiet": 7254,
      "Ġsubsequ": 7255,
      "About": 7256,
      "Ġvul": 7257,
      "Ġchosen": 7258,
      "='": 7259,
      "Delta": 7260,
      "bing": 7261,
      "ĠPay": 7262,
      "Ġ300": 7263,
      "zil": 7264,
      "Ġuna": 7265,
      "Ġtow": 7266,
      "ĠItaly": 7267,
      "Ġlaye": 7268,
      "Chr": 7269,
      "ĠJun": 7270,
      "Ġstudio": 7271,
      "Ġlayer": 7272,
      "Ġbelieved": 7273,
      "ĠFar": 7274,
      "Service": 7275,
      "Ð¾Ðº": 7276,
      "Ġextended": 7277,
      "ĠCatholic": 7278,
      "Ġnative": 7279,
      "Ġoblig": 7280,
      "Ġfilter": 7281,
      "Ã£o": 7282,
      "Ġguests": 7283,
      "Ġplane": 7284,
      "ĠRos": 7285,
      "Ãł": 7286,
      "Ġconsumer": 7287,
      "Ġbeat": 7288,
      "ĠThus": 7289,
      "Ġcolour": 7290,
      "Ġsigns": 7291,
      "84": 7292,
      "Ġzero": 7293,
      "Ġaccepted": 7294,
      "legal": 7295,
      "worth": 7296,
      "Ġengineering": 7297,
      "mond": 7298,
      "tagram": 7299,
      "chen": 7300,
      "Ġworse": 7301,
      "Item": 7302,
      "Ġemployment": 7303,
      "tell": 7304,
      "Ġly": 7305,
      "Ġworry": 7306,
      "aser": 7307,
      "Ġdiscip": 7308,
      "Ġrecognized": 7309,
      "ĠWher": 7310,
      "ĠOk": 7311,
      "Ġatmos": 7312,
      "ĠFrancisco": 7313,
      "Ġinh": 7314,
      "iated": 7315,
      "Ġhonest": 7316,
      "TC": 7317,
      "chang": 7318,
      "|\\": 7319,
      "Ġmaint": 7320,
      "ĠIraq": 7321,
      "Per": 7322,
      "Ġdecade": 7323,
      "Ġinfo": 7324,
      "Ġsteel": 7325,
      "PE": 7326,
      "Table": 7327,
      "Ġourselves": 7328,
      "ĠPak": 7329,
      "ĠON": 7330,
      "Ġphen": 7331,
      "tist": 7332,
      "ĠOnly": 7333,
      "Bar": 7334,
      "Ġinten": 7335,
      "Ġpra": 7336,
      "Ġmurder": 7337,
      "Ġcandidates": 7338,
      "ĠDivision": 7339,
      "TER": 7340,
      "bal": 7341,
      "Ġdomain": 7342,
      "Ġtransport": 7343,
      "Ġfees": 7344,
      "fg": 7345,
      "Ġcoo": 7346,
      "ĠLuc": 7347,
      "ĠGames": 7348,
      "Ġinvestors": 7349,
      "Ġfo": 7350,
      "Ġspeaking": 7351,
      "Ġperman": 7352,
      "ĠId": 7353,
      "Ġremind": 7354,
      "appe": 7355,
      "ĠLive": 7356,
      "merce": 7357,
      "Ġfiled": 7358,
      "Ġlos": 7359,
      "Ve": 7360,
      "Ġefficient": 7361,
      "Ġends": 7362,
      "ĠLar": 7363,
      "ĠBritain": 7364,
      "Path": 7365,
      "Ġstores": 7366,
      "cohol": 7367,
      "eff": 7368,
      "Ġproperly": 7369,
      "Ġtherapy": 7370,
      "ĠMont": 7371,
      "comm": 7372,
      "ĠPic": 7373,
      "ssue": 7374,
      "Ġequival": 7375,
      "';": 7376,
      "Ġring": 7377,
      "ĠPass": 7378,
      "Ġdesire": 7379,
      "Ġinvi": 7380,
      "ink": 7381,
      "Ġyes": 7382,
      "ĠMarket": 7383,
      "Ġfigures": 7384,
      "Ġestimated": 7385,
      "Ġlitera": 7386,
      "rooms": 7387,
      "ocking": 7388,
      "elly": 7389,
      "American": 7390,
      "ÑĨÐ¸": 7391,
      "nning": 7392,
      "ĠLight": 7393,
      "owa": 7394,
      "Ġneighborhood": 7395,
      "Ġox": 7396,
      "Ġconsidering": 7397,
      "aylor": 7398,
      "Ġkm": 7399,
      "esterday": 7400,
      "TR": 7401,
      "Ġrepresents": 7402,
      "had": 7403,
      "ĠPhys": 7404,
      "Ġplai": 7405,
      "Ġentered": 7406,
      "Ġplanned": 7407,
      "itt": 7408,
      "Ġconsumers": 7409,
      "Ġstatements": 7410,
      "97": 7411,
      "ucks": 7412,
      "Map": 7413,
      "Ġrough": 7414,
      "ĠCheck": 7415,
      "Ġcarbon": 7416,
      "ept": 7417,
      "ĠColumb": 7418,
      "ĠÐĴ": 7419,
      "itors": 7420,
      "Ġgender": 7421,
      "eens": 7422,
      "Ġterri": 7423,
      "Ġcloser": 7424,
      "Ġcharged": 7425,
      "Ġcourses": 7426,
      "Ġmouth": 7427,
      "ributes": 7428,
      "eller": 7429,
      "Ġassist": 7430,
      "ĠWatch": 7431,
      "uality": 7432,
      "Ġpet": 7433,
      "orm": 7434,
      "ĠEgy": 7435,
      "Ġbroken": 7436,
      "Ġloan": 7437,
      "63": 7438,
      "Ġexternal": 7439,
      "ĠCra": 7440,
      "cles": 7441,
      "ĠOpera": 7442,
      "Ġcolo": 7443,
      "Ġupgra": 7444,
      "FC": 7445,
      "Ġsuggested": 7446,
      "iser": 7447,
      "Ġnetworks": 7448,
      "Any": 7449,
      "Out": 7450,
      "olate": 7451,
      "acting": 7452,
      "rence": 7453,
      "TA": 7454,
      "ĠForce": 7455,
      "Ġreceiving": 7456,
      "Field": 7457,
      "ĠSpanish": 7458,
      "yn": 7459,
      "Am": 7460,
      "Image": 7461,
      "Ġdelay": 7462,
      "ESS": 7463,
      "ruption": 7464,
      "Ġhousehold": 7465,
      "Ġworldwide": 7466,
      "Ġment": 7467,
      "Ġtwice": 7468,
      "Ġterrit": 7469,
      "Ġdiverse": 7470,
      "umi": 7471,
      "Ġprotei": 7472,
      "Ġenhance": 7473,
      "ĠMode": 7474,
      "Ġliber": 7475,
      "ÐµÐ´": 7476,
      "Ġà¤": 7477,
      "fil": 7478,
      "Ġowned": 7479,
      "Ġprotein": 7480,
      "Ġcomprehensive": 7481,
      "Ġmaintenance": 7482,
      "Ġcloth": 7483,
      "lock": 7484,
      "John": 7485,
      "Ġarres": 7486,
      "Ġtaste": 7487,
      "Ġdept": 7488,
      "Ġstone": 7489,
      "hema": 7490,
      "Ġfighting": 7491,
      "Ġpartnership": 7492,
      "ĠLang": 7493,
      "83": 7494,
      "ĠAS": 7495,
      "Ġabuse": 7496,
      "orem": 7497,
      "eases": 7498,
      "Ġsubstanti": 7499,
      "utch": 7500,
      "illy": 7501,
      "Ġratio": 7502,
      "Ġje": 7503,
      "Ġshopping": 7504,
      "vie": 7505,
      "nations": 7506,
      "ista": 7507,
      "Ġpractical": 7508,
      "Ġspoke": 7509,
      "comp": 7510,
      "lot": 7511,
      "Ġveget": 7512,
      "uter": 7513,
      "iter": 7514,
      "ĠJackson": 7515,
      "ĠDC": 7516,
      "Ġmeasur": 7517,
      "Ġdebate": 7518,
      "Ġtim": 7519,
      "Ġassessment": 7520,
      "Ġdescribe": 7521,
      "esome": 7522,
      "Ġarms": 7523,
      "ĠCall": 7524,
      "mann": 7525,
      "Ġbla": 7526,
      "2013": 7527,
      "Ġportion": 7528,
      "Comm": 7529,
      "unting": 7530,
      "title": 7531,
      "ĠKingdom": 7532,
      "ulating": 7533,
      "Ġriver": 7534,
      "abeth": 7535,
      "pli": 7536,
      "Ġong": 7537,
      "%)": 7538,
      "Ġdangerous": 7539,
      "Ġok": 7540,
      "Äį": 7541,
      "Ġcup": 7542,
      "ĠFurther": 7543,
      "ĠRoman": 7544,
      "Ġnorm": 7545,
      "array": 7546,
      "Wor": 7547,
      "Ġmoments": 7548,
      "Context": 7549,
      "Ġmuseum": 7550,
      "asters": 7551,
      "ego": 7552,
      "ĠCross": 7553,
      "Ġtelling": 7554,
      "ĠBla": 7555,
      "ĠItalian": 7556,
      "Ġscholars": 7557,
      "Ġappeal": 7558,
      "Ġorders": 7559,
      "Top": 7560,
      "Ġfriendly": 7561,
      "Ġgro": 7562,
      "Ġreflec": 7563,
      "Ġmotiv": 7564,
      "Ġconduct": 7565,
      "you": 7566,
      "ican": 7567,
      "ibilities": 7568,
      "Ġbreath": 7569,
      "Ġgenerated": 7570,
      "Ġspaces": 7571,
      "anno": 7572,
      "Ġexists": 7573,
      "Ġwest": 7574,
      "Ġresulting": 7575,
      "Ġrecommended": 7576,
      "Ġelectronic": 7577,
      "ador": 7578,
      "Ġliterature": 7579,
      "ĠAuto": 7580,
      "ĠAD": 7581,
      "Ġcru": 7582,
      "ansas": 7583,
      "Request": 7584,
      "Ot": 7585,
      "ĠThank": 7586,
      "Ġreporting": 7587,
      "Ġeth": 7588,
      "trical": 7589,
      "Ġwidth": 7590,
      "Oh": 7591,
      "acc": 7592,
      "aco": 7593,
      "ĠTherefore": 7594,
      "uccess": 7595,
      "Ð¼Ð¸": 7596,
      "lace": 7597,
      "Ġthick": 7598,
      "Ġsla": 7599,
      "HT": 7600,
      "sa": 7601,
      "nating": 7602,
      "Ġdinner": 7603,
      "Ġregions": 7604,
      "Ġsettings": 7605,
      "Char": 7606,
      "Ġ1998": 7607,
      "ulp": 7608,
      "Ġeffectively": 7609,
      "flow": 7610,
      "Ġnutri": 7611,
      "eft": 7612,
      "Ġencourage": 7613,
      "73": 7614,
      "Ġafternoon": 7615,
      "Ġintelligence": 7616,
      "Ġoriginally": 7617,
      "Ġalleged": 7618,
      "Ġselec": 7619,
      "ĠCur": 7620,
      "Ġbuying": 7621,
      "Ġfeatured": 7622,
      "ĠTable": 7623,
      "Ġ33": 7624,
      "Ġstretch": 7625,
      "Ġregula": 7626,
      "Ġguard": 7627,
      "Ġfellow": 7628,
      "ym": 7629,
      "Ġinnovative": 7630,
      "Ġchapter": 7631,
      "61": 7632,
      "Ġcontemporary": 7633,
      "Ġ},": 7634,
      "Ġmu": 7635,
      "ashed": 7636,
      "ĠGri": 7637,
      "Ġvictory": 7638,
      "Ġrisks": 7639,
      "Whe": 7640,
      "ferences": 7641,
      "Ġprovider": 7642,
      "eight": 7643,
      "Ġthread": 7644,
      "Ġforth": 7645,
      "ĠSupreme": 7646,
      "Ġrecovery": 7647,
      "Ġstands": 7648,
      "isa": 7649,
      "Just": 7650,
      "Ġlux": 7651,
      "child": 7652,
      "arian": 7653,
      "Ġsubmit": 7654,
      "ĠÑĩ": 7655,
      "CS": 7656,
      "Ġtips": 7657,
      "Control": 7658,
      "ĠHenry": 7659,
      "72": 7660,
      "Ġplanet": 7661,
      "gic": 7662,
      "Ġongoing": 7663,
      "Ġcycle": 7664,
      "tims": 7665,
      "ĠTown": 7666,
      "Ġemotional": 7667,
      "Ġyield": 7668,
      "Qu": 7669,
      "\").": 7670,
      "ĠNight": 7671,
      "Ġhappening": 7672,
      "ĠTha": 7673,
      "Ja": 7674,
      "Mi": 7675,
      "ĠThrough": 7676,
      "Source": 7677,
      "Ġdiet": 7678,
      "Ġdepending": 7679,
      "Ġdirected": 7680,
      "Ġexpressed": 7681,
      "Ġ});": 7682,
      "ĠMid": 7683,
      "Big": 7684,
      "rus": 7685,
      "UP": 7686,
      "ĠSouthern": 7687,
      "jection": 7688,
      "Ġhouses": 7689,
      "98": 7690,
      "turally": 7691,
      "Ġconsistent": 7692,
      "elo": 7693,
      "ĠAri": 7694,
      "ĠZeal": 7695,
      "Ġveri": 7696,
      "resent": 7697,
      "aya": 7698,
      "Ġdiscl": 7699,
      "Mic": 7700,
      "born": 7701,
      "][": 7702,
      "ĠLtd": 7703,
      "opyright": 7704,
      "Ġingred": 7705,
      "Ġlas": 7706,
      "Ġguitar": 7707,
      "Log": 7708,
      "Ġscheme": 7709,
      "nea": 7710,
      "node": 7711,
      "Ġprogramme": 7712,
      "ifts": 7713,
      "Ġreferred": 7714,
      "ĠCivil": 7715,
      "Ġinterface": 7716,
      "Ġsad": 7717,
      "nions": 7718,
      "Ġpregna": 7719,
      "Ġfaster": 7720,
      "nty": 7721,
      "Ġtele": 7722,
      "Ġplastic": 7723,
      "Ġregulations": 7724,
      "Ġcounty": 7725,
      "ĠMod": 7726,
      "Ġlegislation": 7727,
      "Ġmillions": 7728,
      "ĠHave": 7729,
      "iment": 7730,
      "Equ": 7731,
      "Ġmenu": 7732,
      "ourse": 7733,
      "71": 7734,
      "hew": 7735,
      "Ġjudge": 7736,
      "Ġhyp": 7737,
      "Ġinnovation": 7738,
      "Ñĺ": 7739,
      "ĠMA": 7740,
      "redit": 7741,
      "Ġserves": 7742,
      "ÑĢÑĥ": 7743,
      "ĠEr": 7744,
      "grees": 7745,
      "fts": 7746,
      "Ġdoors": 7747,
      "âĢĭ": 7748,
      "riso": 7749,
      "alo": 7750,
      "ĠPrime": 7751,
      "Ġfly": 7752,
      "icken": 7753,
      "Ġvent": 7754,
      "Ġcampus": 7755,
      "holders": 7756,
      "Ġnode": 7757,
      "Ġspect": 7758,
      "nput": 7759,
      "Ġincident": 7760,
      "Ġbusy": 7761,
      "cing": 7762,
      "74": 7763,
      "Thanks": 7764,
      "Ġignor": 7765,
      "Ġfacing": 7766,
      "Phone": 7767,
      "ĠKim": 7768,
      "Ġprison": 7769,
      "Sub": 7770,
      "Ġconstitu": 7771,
      "ĠOct": 7772,
      "ounted": 7773,
      "amil": 7774,
      "Ġarts": 7775,
      "lets": 7776,
      "ÄĻ": 7777,
      "yo": 7778,
      "Ġtalent": 7779,
      "Ġinstalled": 7780,
      "Fil": 7781,
      "Ġcompens": 7782,
      "isation": 7783,
      "ĠÂ·": 7784,
      "Ġusual": 7785,
      "mately": 7786,
      "ĠAccess": 7787,
      "Ġspa": 7788,
      "ĠSpace": 7789,
      "Ġjus": 7790,
      "Don": 7791,
      "Ġtaught": 7792,
      "Ø§": 7793,
      "Ġcolors": 7794,
      "Ġsuccessfully": 7795,
      "Will": 7796,
      "Info": 7797,
      "ĠJac": 7798,
      "Ġprocedure": 7799,
      "Ġhelpful": 7800,
      "ĠSara": 7801,
      "Ġfro": 7802,
      "ĠKorea": 7803,
      "Ġknowing": 7804,
      "input": 7805,
      "Ġrecep": 7806,
      "areness": 7807,
      "tons": 7808,
      "Ġimagine": 7809,
      "ĠÐŁ": 7810,
      "Ġacid": 7811,
      "ĠZealand": 7812,
      "Ġvast": 7813,
      "62": 7814,
      "iary": 7815,
      "Ġextent": 7816,
      "/>": 7817,
      "Ġfacts": 7818,
      "Ġsurrounding": 7819,
      "iven": 7820,
      "81": 7821,
      "Ġupdates": 7822,
      "ĠRepublica": 7823,
      "ĠLog": 7824,
      "ĠMP": 7825,
      "Ġcompl": 7826,
      "Ġsymptoms": 7827,
      "Ġsplit": 7828,
      "ĠFair": 7829,
      "Ġpara": 7830,
      "Ġmanufacturing": 7831,
      "\\,": 7832,
      "Ġ1980": 7833,
      "Ġroles": 7834,
      "zi": 7835,
      "Ġteen": 7836,
      "ĠInstead": 7837,
      "ĠMichigan": 7838,
      "ĠCoast": 7839,
      "ĠÐļ": 7840,
      "ĠNOT": 7841,
      "Ġdefine": 7842,
      "ĠEngineering": 7843,
      "Ġframework": 7844,
      "Ġshift": 7845,
      "Ġtrig": 7846,
      "Ġprepare": 7847,
      "Ġpun": 7848,
      "alleng": 7849,
      "Ġsurprise": 7850,
      "true": 7851,
      "Ġinterpret": 7852,
      "ĠLittle": 7853,
      "oding": 7854,
      "Ġincreases": 7855,
      "parent": 7856,
      "Ġempty": 7857,
      "Another": 7858,
      "Ġearned": 7859,
      "heless": 7860,
      "ĠDigital": 7861,
      "ÑģÑı": 7862,
      "ĠGover": 7863,
      "Ġevolution": 7864,
      "ography": 7865,
      "ĠWri": 7866,
      "Ġtotally": 7867,
      "Ġremote": 7868,
      "qui": 7869,
      "Ġrealize": 7870,
      "Ġlicense": 7871,
      "ĠPacific": 7872,
      "Ġpersons": 7873,
      "virus": 7874,
      "Ġimpossible": 7875,
      "cdot": 7876,
      "una": 7877,
      "ĠRepublican": 7878,
      "Ġsupports": 7879,
      "Ġdepart": 7880,
      "ĠSciences": 7881,
      "util": 7882,
      "Ġremark": 7883,
      "Ġgrown": 7884,
      "ĠCirc": 7885,
      "Ġreplace": 7886,
      "Ġtrading": 7887,
      "quare": 7888,
      "ĠFore": 7889,
      "Ġcruc": 7890,
      "raine": 7891,
      "ĠNige": 7892,
      "obs": 7893,
      "Ġremained": 7894,
      "82": 7895,
      "style": 7896,
      "Ġcollaboration": 7897,
      "2012": 7898,
      "elled": 7899,
      "Date": 7900,
      "\"></": 7901,
      "Ġinstrument": 7902,
      "Ġassume": 7903,
      "Ġpossibility": 7904,
      "Ġshooting": 7905,
      "ĠNote": 7906,
      "Ġstructures": 7907,
      "ĠJoseph": 7908,
      "âĢī": 7909,
      "ensus": 7910,
      "Ġdrink": 7911,
      "fth": 7912,
      "ĠGuide": 7913,
      "ĠJr": 7914,
      "Ġbigger": 7915,
      "ĠWhere": 7916,
      "amental": 7917,
      "Ġboys": 7918,
      "endar": 7919,
      "Ġantic": 7920,
      "ĠBio": 7921,
      "Ġfounded": 7922,
      "Ġbodies": 7923,
      "Ġparticipate": 7924,
      "Ġplug": 7925,
      "Pub": 7926,
      "ĠJersey": 7927,
      "Ġrelation": 7928,
      "Ġsuggests": 7929,
      "ĠBrad": 7930,
      "nament": 7931,
      "ĠAR": 7932,
      "ĠSteve": 7933,
      "Ġbanks": 7934,
      "proof": 7935,
      "ĠDeb": 7936,
      "Ãº": 7937,
      "Lo": 7938,
      "ulous": 7939,
      "Ġdebut": 7940,
      "marily": 7941,
      "Ġvary": 7942,
      "Ġdegrees": 7943,
      "Ġefficiency": 7944,
      "Ġjava": 7945,
      "Ġreasonable": 7946,
      "Äħ": 7947,
      "ading": 7948,
      "Ġtarge": 7949,
      "ĠAndroid": 7950,
      "Ġlunch": 7951,
      "ĠGirl": 7952,
      "Ġcheap": 7953,
      "``": 7954,
      "ĠHand": 7955,
      "ignment": 7956,
      "Ġcovers": 7957,
      "ĠOR": 7958,
      "Ġfantastic": 7959,
      "Ġhealthcare": 7960,
      "ĠPage": 7961,
      "sl": 7962,
      "max": 7963,
      "Ġtopics": 7964,
      "Pol": 7965,
      "Ġexpansion": 7966,
      "Ġnavig": 7967,
      "Ġdesk": 7968,
      "ĠIII": 7969,
      "uan": 7970,
      "Ġrub": 7971,
      "Ġmixed": 7972,
      "PM": 7973,
      "\\\\\\\\\\\\\\\\": 7974,
      "TV": 7975,
      "ĠDonald": 7976,
      "gely": 7977,
      "Ð¸Ð½": 7978,
      "Count": 7979,
      "cr": 7980,
      "Hand": 7981,
      "eding": 7982,
      "pto": 7983,
      "ĠElec": 7984,
      "Ġdisapp": 7985,
      "ĠPrince": 7986,
      "ĠThose": 7987,
      "ĠBru": 7988,
      "Ġleague": 7989,
      "Ġtrouble": 7990,
      "Ġanywhere": 7991,
      "Ġfeedback": 7992,
      "96": 7993,
      "tants": 7994,
      "thy": 7995,
      "Ġvec": 7996,
      "ocracy": 7997,
      "ĠForm": 7998,
      "ĠMS": 7999,
      "Ġreligion": 8000,
      "ĠDar": 8001,
      "Ġmessages": 8002,
      "BO": 8003,
      "summary": 8004,
      "Wher": 8005,
      "otal": 8006,
      "edge": 8007,
      "Ġpaying": 8008,
      "Ġvulne": 8009,
      "Ġtalks": 8010,
      "Ġprivacy": 8011,
      "Ġboa": 8012,
      "Ġworst": 8013,
      "yers": 8014,
      "Ġtor": 8015,
      "ears": 8016,
      "Ġachieved": 8017,
      "uling": 8018,
      "Ġvacci": 8019,
      "Ġwinner": 8020,
      "ĠBooks": 8021,
      "Ġentertainment": 8022,
      "Ġpassing": 8023,
      "Ġsequence": 8024,
      "Ġast": 8025,
      "Ġgrant": 8026,
      "Ġagricul": 8027,
      "Ġexpertise": 8028,
      "Ġadvertising": 8029,
      "void": 8030,
      "}[": 8031,
      "Ġgenerate": 8032,
      "look": 8033,
      "Ġretail": 8034,
      "Ġelig": 8035,
      "Ġtwenty": 8036,
      "Ġurban": 8037,
      "bil": 8038,
      "Ġwindows": 8039,
      "Ġclaimed": 8040,
      "tood": 8041,
      "gent": 8042,
      "Ġcouncil": 8043,
      "Sch": 8044,
      "ĠMer": 8045,
      "phy": 8046,
      "ĠOs": 8047,
      "Ġhistoric": 8048,
      "Ġparking": 8049,
      "ĠPsych": 8050,
      "Ġexistence": 8051,
      "allenging": 8052,
      "Ġautomatically": 8053,
      "Me": 8054,
      "ĠNorthern": 8055,
      "netic": 8056,
      "ira": 8057,
      "Ġunable": 8058,
      "chester": 8059,
      "Ġcollected": 8060,
      "Ġagents": 8061,
      "Ġroot": 8062,
      "Ġsurgery": 8063,
      "lizabeth": 8064,
      "Ġswim": 8065,
      "Ġstood": 8066,
      "foot": 8067,
      "duate": 8068,
      "Ġvaluable": 8069,
      "ĊĠĠĠĠĠĠĠĠĠĠĠĠĠ": 8070,
      "anx": 8071,
      "Ġclosely": 8072,
      "news": 8073,
      "Ġwalls": 8074,
      "Ġproviders": 8075,
      "Oth": 8076,
      "uba": 8077,
      "profit": 8078,
      "ĠGeorgia": 8079,
      "ollowing": 8080,
      "ÑĹ": 8081,
      "Ġkick": 8082,
      "licated": 8083,
      "ounded": 8084,
      "Ġeating": 8085,
      "xic": 8086,
      "Ġultimately": 8087,
      "Ġacts": 8088,
      "orda": 8089,
      "Ġdemonst": 8090,
      "operation": 8091,
      "ĠĊĠ": 8092,
      "Ba": 8093,
      "Ġawareness": 8094,
      "ĠAnother": 8095,
      "ima": 8096,
      "ĠQueen": 8097,
      "Are": 8098,
      "LO": 8099,
      "augh": 8100,
      "Ġcream": 8101,
      "ever": 8102,
      "Ġmeetings": 8103,
      "vas": 8104,
      "ĠFinancial": 8105,
      "Ġ34": 8106,
      "Net": 8107,
      "ĠWild": 8108,
      "ĠDub": 8109,
      "mega": 8110,
      "Ġfruit": 8111,
      "Ġmagazine": 8112,
      "Ġdepos": 8113,
      "Ġchoices": 8114,
      "Many": 8115,
      "ĠAssocia": 8116,
      "Ġhumans": 8117,
      "ĠEas": 8118,
      "Ġ1997": 8119,
      "Ġstrategic": 8120,
      "Ġwidely": 8121,
      "Tube": 8122,
      "ĠKnow": 8123,
      "Ġcomfort": 8124,
      "ĠMax": 8125,
      "Ġacting": 8126,
      "Ġincreasingly": 8127,
      "hur": 8128,
      "ĠÐ¿ÑĢ": 8129,
      "Ġfinds": 8130,
      "Ġhall": 8131,
      "Ġbrands": 8132,
      "Ġtypical": 8133,
      "Ġcapable": 8134,
      "Ġuncer": 8135,
      "Ġcoal": 8136,
      "Ġeast": 8137,
      "open": 8138,
      "Ġturning": 8139,
      "Ġvariable": 8140,
      "ĠManager": 8141,
      "ĠPrem": 8142,
      "Ġlatter": 8143,
      "rement": 8144,
      "Ġpenal": 8145,
      "tellect": 8146,
      "Ġincredible": 8147,
      "Ġprocedures": 8148,
      "high": 8149,
      "Ġfrequently": 8150,
      "scale": 8151,
      "Ġpatterns": 8152,
      ">>": 8153,
      "tingu": 8154,
      "Ġtom": 8155,
      "Ġdisp": 8156,
      "star": 8157,
      "ĠIrish": 8158,
      "ĠCamb": 8159,
      "tificate": 8160,
      "Ġadvis": 8161,
      "Ġfulf": 8162,
      "Ġ75": 8163,
      "makers": 8164,
      "ĠFind": 8165,
      "EP": 8166,
      "Ġindepend": 8167,
      "Ġawarded": 8168,
      "asp": 8169,
      "unicip": 8170,
      "ĠConf": 8171,
      "Ġimport": 8172,
      "())": 8173,
      "irs": 8174,
      "ĠRef": 8175,
      "Ġcompetitive": 8176,
      "lder": 8177,
      "ALL": 8178,
      "Ġlargely": 8179,
      "Ġkinds": 8180,
      "Ġsustainable": 8181,
      "Ġaccord": 8182,
      "ttorney": 8183,
      "Ġscra": 8184,
      "iry": 8185,
      "ĠField": 8186,
      "pol": 8187,
      "Ġaircraft": 8188,
      "attorney": 8189,
      "iders": 8190,
      "Ġcomb": 8191,
      "Ġbasket": 8192,
      "lar": 8193,
      "Ġadjust": 8194,
      "ĠStory": 8195,
      "agues": 8196,
      ")$.": 8197,
      "ĠNext": 8198,
      "ĠTake": 8199,
      "Ġimpressive": 8200,
      "ution": 8201,
      "Ġoccurred": 8202,
      "umes": 8203,
      "omo": 8204,
      "Ġstreets": 8205,
      "Most": 8206,
      "ÂŃ": 8207,
      "stand": 8208,
      "ĠOhio": 8209,
      "const": 8210,
      "ĠTest": 8211,
      "Who": 8212,
      "ameter": 8213,
      "Ġsky": 8214,
      "Note": 8215,
      "niversary": 8216,
      "Sim": 8217,
      "ersion": 8218,
      "ĠSpring": 8219,
      "Ġdesigns": 8220,
      "ician": 8221,
      "eserved": 8222,
      "nois": 8223,
      "Ġ48": 8224,
      "ginal": 8225,
      "gun": 8226,
      "Ġcrowd": 8227,
      "Ġcomparison": 8228,
      "Ġpresentation": 8229,
      "Ġsport": 8230,
      "Ġrecording": 8231,
      "Ġupcoming": 8232,
      "Ġlie": 8233,
      "Ġboat": 8234,
      "ĠFire": 8235,
      "Ġguest": 8236,
      "%.": 8237,
      "Ġirr": 8238,
      "Config": 8239,
      "Ġscientists": 8240,
      "Ġentreprene": 8241,
      "pay": 8242,
      "Ġlap": 8243,
      "ĠAdministration": 8244,
      "Ġtrend": 8245,
      "Ð¾Ð±": 8246,
      "Ġbattery": 8247,
      "ĠDaily": 8248,
      "ĠDev": 8249,
      "ĠSP": 8250,
      "Array": 8251,
      "Ġmissed": 8252,
      "Ġlinked": 8253,
      "DP": 8254,
      "ĠPales": 8255,
      "api": 8256,
      "essed": 8257,
      "ĠDisney": 8258,
      "Ġmainly": 8259,
      "RS": 8260,
      "Ġformal": 8261,
      "Ġessay": 8262,
      "ĠTem": 8263,
      "Â©": 8264,
      "Ġmedicine": 8265,
      "nan": 8266,
      "Ġattorney": 8267,
      "Ġcommission": 8268,
      "Gu": 8269,
      "Ġextension": 8270,
      "Ġduty": 8271,
      "core": 8272,
      "Ġprime": 8273,
      "Ġvirus": 8274,
      "tible": 8275,
      "Ġrepeated": 8276,
      "Ġfurniture": 8277,
      "ĠAction": 8278,
      "Ġrevolution": 8279,
      "plete": 8280,
      "ĠHistor": 8281,
      "trum": 8282,
      "gage": 8283,
      "Ġlandscape": 8284,
      "Ġreduction": 8285,
      "ĠAnti": 8286,
      "ĠCho": 8287,
      "ĠWord": 8288,
      "ĠDemocratic": 8289,
      "Ġvital": 8290,
      "93": 8291,
      "too": 8292,
      "ĠCla": 8293,
      "Ġchat": 8294,
      "Att": 8295,
      "adel": 8296,
      "tile": 8297,
      "rovers": 8298,
      "Ġvictims": 8299,
      "Ġsole": 8300,
      "Ġweapons": 8301,
      "Code": 8302,
      "Ġprinciples": 8303,
      "ĠSanta": 8304,
      "Ġrepresented": 8305,
      "estyle": 8306,
      "trick": 8307,
      "ĠLabor": 8308,
      "Ġpolitic": 8309,
      "Å¡": 8310,
      "mpion": 8311,
      "Ġglo": 8312,
      "ĠInf": 8313,
      "Ġreaction": 8314,
      "ĠHard": 8315,
      "ĠBefore": 8316,
      "Ġanswers": 8317,
      "Ġ1996": 8318,
      "Ġcorresponding": 8319,
      "Ġ);": 8320,
      "Ġprofessor": 8321,
      "ĠBrazil": 8322,
      "Ġ150": 8323,
      "ĠTheatre": 8324,
      "hir": 8325,
      "Ġprotes": 8326,
      "ĠUr": 8327,
      "AND": 8328,
      "endo": 8329,
      "Index": 8330,
      "Ġcontrast": 8331,
      "Ġju": 8332,
      "Ġexcess": 8333,
      "gate": 8334,
      "ĠAsh": 8335,
      "aa": 8336,
      "Ġanx": 8337,
      "Click": 8338,
      "ĠFOR": 8339,
      "ĠCommunic": 8340,
      "Ġax": 8341,
      "ugs": 8342,
      "Ġactor": 8343,
      "Ġtail": 8344,
      "inet": 8345,
      "Ġdivision": 8346,
      "Ġawards": 8347,
      "lich": 8348,
      "Ġ1970": 8349,
      "ĠRetrieved": 8350,
      "Ġisol": 8351,
      "Ġsuitable": 8352,
      "ĠStan": 8353,
      "ĠFig": 8354,
      "isk": 8355,
      "Ġsugar": 8356,
      "nature": 8357,
      "Ġarchitecture": 8358,
      "Ġchallenging": 8359,
      "Ã¼r": 8360,
      "Ġfindings": 8361,
      "Ġletters": 8362,
      "tances": 8363,
      "Ġpu": 8364,
      "Ġdrivers": 8365,
      "bre": 8366,
      "esh": 8367,
      "Ġprimarily": 8368,
      "Ġyounger": 8369,
      "Ġhydro": 8370,
      "script": 8371,
      "VD": 8372,
      "Ġgraduate": 8373,
      "ogen": 8374,
      "plement": 8375,
      "Ġtested": 8376,
      "ĠRight": 8377,
      "\"\"": 8378,
      "eman": 8379,
      "Ġsevere": 8380,
      "ĠTaylor": 8381,
      "){": 8382,
      "noc": 8383,
      "Ġscheduled": 8384,
      "2011": 8385,
      "Ġpromp": 8386,
      "Ġprofit": 8387,
      "Ġbee": 8388,
      "ĠPoint": 8389,
      "dim": 8390,
      "Ġtack": 8391,
      "Ġordered": 8392,
      "Ġdropped": 8393,
      "Back": 8394,
      "bro": 8395,
      "asci": 8396,
      "IST": 8397,
      "aron": 8398,
      "Ġelected": 8399,
      "enth": 8400,
      "ĠKo": 8401,
      "Ġbelieves": 8402,
      "oner": 8403,
      "ĠSpain": 8404,
      "Ġrepair": 8405,
      "Also": 8406,
      "Ġdynamic": 8407,
      "Ġexposure": 8408,
      "Ġstudied": 8409,
      "ULL": 8410,
      "Ġtea": 8411,
      "Ġcatal": 8412,
      "inant": 8413,
      "ective": 8414,
      "Ġvisiting": 8415,
      "[]": 8416,
      "ĠUl": 8417,
      "Ġattended": 8418,
      "ÑģÑĮ": 8419,
      "ĠTech": 8420,
      "vol": 8421,
      "Ġstruggle": 8422,
      "Ġutiliz": 8423,
      "Ġassert": 8424,
      "ĠAli": 8425,
      "ĠFat": 8426,
      "ĠdÃ©": 8427,
      "Ġplate": 8428,
      "Ġmanufacture": 8429,
      "Ġresistance": 8430,
      "During": 8431,
      "Ġreflect": 8432,
      "Ġregularly": 8433,
      "Ġdeals": 8434,
      "dec": 8435,
      "Ġceremo": 8436,
      "ĠRen": 8437,
      "Ġpric": 8438,
      "ĠDou": 8439,
      "VER": 8440,
      "Ġnoise": 8441,
      "Ġjoy": 8442,
      "ĠAL": 8443,
      "peed": 8444,
      "onavirus": 8445,
      "Ġpicked": 8446,
      "ĠRadio": 8447,
      "Size": 8448,
      "Ġsamples": 8449,
      "Ġreb": 8450,
      "HO": 8451,
      "eans": 8452,
      "Ġinspiration": 8453,
      "Although": 8454,
      "version": 8455,
      "Ġinner": 8456,
      "QL": 8457,
      "Where": 8458,
      "Ġperfectly": 8459,
      "aked": 8460,
      "bury": 8461,
      "Ġauthentic": 8462,
      "ĠInstagram": 8463,
      "Ġwriters": 8464,
      "Ġapps": 8465,
      "itals": 8466,
      "Ġrelief": 8467,
      "Ġtrave": 8468,
      "Ġlicens": 8469,
      "}}\\": 8470,
      "nen": 8471,
      "300": 8472,
      "sqrt": 8473,
      "Ġaspect": 8474,
      "lite": 8475,
      "TO": 8476,
      "Ġreader": 8477,
      "Ġrecognition": 8478,
      "ĠFox": 8479,
      "Element": 8480,
      "ĠNi": 8481,
      "ographic": 8482,
      "ĠCos": 8483,
      "making": 8484,
      "Ġengage": 8485,
      "Ġexplains": 8486,
      "MC": 8487,
      "Ġheav": 8488,
      "itle": 8489,
      "weight": 8490,
      "dium": 8491,
      "pling": 8492,
      "ols": 8493,
      "ĠOx": 8494,
      "Ġgrade": 8495,
      "acle": 8496,
      "Ġimprovement": 8497,
      "oration": 8498,
      "Ġmig": 8499,
      "Ġguidance": 8500,
      "2010": 8501,
      "icon": 8502,
      "create": 8503,
      "plit": 8504,
      "uli": 8505,
      "Ġfeaturing": 8506,
      "IO": 8507,
      "Ġrestaurants": 8508,
      "Na": 8509,
      "Ġtight": 8510,
      "Ġzone": 8511,
      "Ġtrained": 8512,
      "Ġcurr": 8513,
      "Ġrealized": 8514,
      "Ġos": 8515,
      "ĠPR": 8516,
      "Ġearn": 8517,
      "server": 8518,
      "Ġlosing": 8519,
      "ĠVideo": 8520,
      "ountains": 8521,
      "ĠFred": 8522,
      "User": 8523,
      "Ġ37": 8524,
      "Ġnur": 8525,
      "ntee": 8526,
      "Ġtables": 8527,
      "ĉĉĉĉ": 8528,
      "Ġalcohol": 8529,
      "Ġbroke": 8530,
      "Ġimmediate": 8531,
      "wan": 8532,
      "Ġconfirm": 8533,
      "Ġencounter": 8534,
      "Ġperforming": 8535,
      "acking": 8536,
      "Ġmolec": 8537,
      "ĠInvest": 8538,
      "Ġcro": 8539,
      "Ġforest": 8540,
      "person": 8541,
      "ĠMaybe": 8542,
      "Ġwearing": 8543,
      "db": 8544,
      "tica": 8545,
      "apore": 8546,
      "Ġenth": 8547,
      "ĠOrganiz": 8548,
      "ĠRay": 8549,
      "ĠBat": 8550,
      "arc": 8551,
      "Ġpowers": 8552,
      "Ġsolve": 8553,
      "ĠCorporation": 8554,
      "VE": 8555,
      "ĠLine": 8556,
      "tif": 8557,
      "Ġdepth": 8558,
      "ĠÑĢÐ°": 8559,
      "config": 8560,
      "Ġapproval": 8561,
      "Ġdogs": 8562,
      "ĠĠĠĠĠĠĠĠĠĠĠĠĠĠĠĠĠĠĠĠĠĠĠĠĠĠĠĠĠĠĠĠ": 8563,
      "Ġstim": 8564,
      "Ġcounsel": 8565,
      "Ġtasks": 8566,
      "Ġtickets": 8567,
      "ĠCond": 8568,
      "Ġfoundation": 8569,
      "Ġlights": 8570,
      "oolean": 8571,
      "Ġmountain": 8572,
      "2021": 8573,
      "vania": 8574,
      "Ġmel": 8575,
      "ĊĠĠĠĠĠĠĠĠĠĠĠĠĠĠĠĠĠĠĠĠĠĠĠĠĠĠĠ": 8576,
      "Ġom": 8577,
      "Ġcontaining": 8578,
      "owned": 8579,
      "cine": 8580,
      "Ġscript": 8581,
      "fit": 8582,
      "arters": 8583,
      "ĠThree": 8584,
      "El": 8585,
      "ĠÂ©": 8586,
      "ĠConnec": 8587,
      "Ġcontribute": 8588,
      "Ġoperate": 8589,
      "iently": 8590,
      "Ġalongside": 8591,
      "ĠSeason": 8592,
      "Ġappreciate": 8593,
      "Ġhidden": 8594,
      "Ġsuperv": 8595,
      "94": 8596,
      "Ġfundamental": 8597,
      "ĠOrder": 8598,
      "endment": 8599,
      "bec": 8600,
      "Othe": 8601,
      "Thank": 8602,
      "Ġ~": 8603,
      "Other": 8604,
      "hu": 8605,
      "Ġinterior": 8606,
      "Ġsynth": 8607,
      "ĠMu": 8608,
      "92": 8609,
      "Ġinstallation": 8610,
      "Ġcutting": 8611,
      "dated": 8612,
      "Ġspecified": 8613,
      "nie": 8614,
      "ilton": 8615,
      "Ġcontributions": 8616,
      "ĠTax": 8617,
      "Ġlies": 8618,
      "Ġwalked": 8619,
      "Ġstake": 8620,
      "ĠVan": 8621,
      "ben": 8622,
      "Ġlegisla": 8623,
      "ĠCast": 8624,
      "exp": 8625,
      "Star": 8626,
      "Ġ1995": 8627,
      "Ġreplaced": 8628,
      "info": 8629,
      "alified": 8630,
      "Ġpaint": 8631,
      "Ġpris": 8632,
      "ĠOfficer": 8633,
      "Ġequivalent": 8634,
      "psi": 8635,
      "ĠMill": 8636,
      "Ġyesterday": 8637,
      "xx": 8638,
      "ĠDate": 8639,
      "Ġsick": 8640,
      "ste": 8641,
      "agraph": 8642,
      "ĠHas": 8643,
      "ĠSystems": 8644,
      "hro": 8645,
      "thm": 8646,
      "Ġpip": 8647,
      "enever": 8648,
      "Ġfrac": 8649,
      "Ġpayments": 8650,
      "Ġwebsites": 8651,
      "Ġintro": 8652,
      "ĠSky": 8653,
      "hel": 8654,
      "tock": 8655,
      "Ġpublication": 8656,
      "Ġlock": 8657,
      "Ġbear": 8658,
      "Ġanticip": 8659,
      "Ġaccessible": 8660,
      "Ġpulled": 8661,
      "Ġthor": 8662,
      "Manager": 8663,
      "Model": 8664,
      "Ġintegrated": 8665,
      "aria": 8666,
      "Ġparameter": 8667,
      "Doc": 8668,
      "Ġinformed": 8669,
      "ÑģÐºÐ¸": 8670,
      "Two": 8671,
      "Message": 8672,
      "EA": 8673,
      "ĠAsian": 8674,
      "Chris": 8675,
      "Ġaccele": 8676,
      "Ġdispl": 8677,
      "Call": 8678,
      "itionally": 8679,
      "frame": 8680,
      "Ġ400": 8681,
      "CP": 8682,
      "âĢ¦âĢ¦": 8683,
      "cling": 8684,
      "Ġ38": 8685,
      "Ġoutdoor": 8686,
      "Ġengaged": 8687,
      "requ": 8688,
      "Ġlistening": 8689,
      "ordan": 8690,
      "Ġarmy": 8691,
      "ietnam": 8692,
      "ĠNS": 8693,
      "folio": 8694,
      "ĠPet": 8695,
      "ĠYet": 8696,
      "Ġrecognize": 8697,
      "Ġwonde": 8698,
      "Ġsat": 8699,
      "Ġadds": 8700,
      "Ġsituations": 8701,
      "Ġpapers": 8702,
      "Today": 8703,
      "Spec": 8704,
      "Ġtit": 8705,
      "ĠMrs": 8706,
      "Ġtracks": 8707,
      "Ġunion": 8708,
      "ĠFoot": 8709,
      "ĠLew": 8710,
      "tism": 8711,
      "Node": 8712,
      "ĠGuard": 8713,
      "ĠTrust": 8714,
      "ĠStrate": 8715,
      "Ġfer": 8716,
      "Ġpurchased": 8717,
      "ĠUsing": 8718,
      "ĠDaniel": 8719,
      "Ġcontribution": 8720,
      "enger": 8721,
      "Ġcapture": 8722,
      "ulta": 8723,
      "ficial": 8724,
      "ighter": 8725,
      "ÐµÐ¹": 8726,
      "ĠBroad": 8727,
      "aug": 8728,
      "ĠÐľ": 8729,
      "burgh": 8730,
      "Ġfacilit": 8731,
      "Ġnearby": 8732,
      "ART": 8733,
      "Ġinstant": 8734,
      "Ġorganized": 8735,
      "Ġgod": 8736,
      "ae": 8737,
      "Once": 8738,
      "ĠKong": 8739,
      "Ġhi": 8740,
      "isters": 8741,
      "sch": 8742,
      "tellectual": 8743,
      "Ġdrama": 8744,
      "Ġmonitoring": 8745,
      "Ġspiritual": 8746,
      "Ġrural": 8747,
      "ĠBoy": 8748,
      "Ġminister": 8749,
      "Ġshor": 8750,
      "News": 8751,
      "ĠMinistry": 8752,
      "Ġfestival": 8753,
      "91": 8754,
      "itory": 8755,
      "Ġoperator": 8756,
      "Ġdiversity": 8757,
      "Ġapproaches": 8758,
      "ĠDri": 8759,
      "Ġatmosphere": 8760,
      "Ġpainting": 8761,
      "ku": 8762,
      "Ġum": 8763,
      "ĠDer": 8764,
      "Ġir": 8765,
      "Even": 8766,
      "ĠArea": 8767,
      "ategory": 8768,
      "Ġbridge": 8769,
      "Ġwheel": 8770,
      "Ġaffordable": 8771,
      "ĠLeo": 8772,
      "Ġreform": 8773,
      "emble": 8774,
      "iners": 8775,
      "Ġscope": 8776,
      "NN": 8777,
      "Ġpotentially": 8778,
      "Ġregistration": 8779,
      "sha": 8780,
      "udi": 8781,
      "Ġassociation": 8782,
      "overty": 8783,
      "Ġengagement": 8784,
      "icians": 8785,
      "brid": 8786,
      "mony": 8787,
      "ĠAtt": 8788,
      "_.": 8789,
      "icide": 8790,
      "Ġmoves": 8791,
      "Ġarrested": 8792,
      "Ġenforcement": 8793,
      "Ġbond": 8794,
      "Ġplatforms": 8795,
      "ĠYouTube": 8796,
      "chest": 8797,
      "Ġfabric": 8798,
      "lib": 8799,
      "Ġproposal": 8800,
      "ĠGreek": 8801,
      "RL": 8802,
      "Dav": 8803,
      "Ġtaxes": 8804,
      "Ġpercentage": 8805,
      "Ġheads": 8806,
      "Ġ42": 8807,
      "ylvania": 8808,
      "Ġcreates": 8809,
      "acter": 8810,
      "olid": 8811,
      "Ġexpectations": 8812,
      "post": 8813,
      "iff": 8814,
      "Ġdans": 8815,
      "Ġopposite": 8816,
      "Ġkeeps": 8817,
      "eni": 8818,
      "Ġconstantly": 8819,
      "Ġmob": 8820,
      "Ġnecessarily": 8821,
      "Color": 8822,
      "cul": 8823,
      "Ġnoticed": 8824,
      "pdf": 8825,
      "ĠCapital": 8826,
      "Ġcarefully": 8827,
      "Ġcrucial": 8828,
      "Ġmodule": 8829,
      "oms": 8830,
      "Ġvisited": 8831,
      "world": 8832,
      "veness": 8833,
      "cond": 8834,
      "ĠLocal": 8835,
      "Ġphenomen": 8836,
      "Ġrent": 8837,
      "Ġfrequency": 8838,
      "llinois": 8839,
      "tag": 8840,
      "ĠFord": 8841,
      "Ġneck": 8842,
      "Ġrepresentation": 8843,
      "ĠHollywood": 8844,
      "Ġcommunications": 8845,
      "ĠExperi": 8846,
      "ĠLatin": 8847,
      "Ġsomewhat": 8848,
      "obby": 8849,
      "Ġsucceed": 8850,
      "cos": 8851,
      "Ġdensity": 8852,
      "Ġrear": 8853,
      "Ġsuffering": 8854,
      "ocated": 8855,
      "aining": 8856,
      "Ġnarrow": 8857,
      "ĠConserv": 8858,
      "Ġreliable": 8859,
      "Ġappointed": 8860,
      "ĠRod": 8861,
      "Ġmonthly": 8862,
      "Ġoutstanding": 8863,
      "Ġslowly": 8864,
      "ĠAgency": 8865,
      "ĠPers": 8866,
      "}_{\\": 8867,
      "inso": 8868,
      "aching": 8869,
      "rig": 8870,
      "Ġdates": 8871,
      "Ġfaces": 8872,
      "inema": 8873,
      "ĠWis": 8874,
      "ĠBea": 8875,
      "Eng": 8876,
      "Ref": 8877,
      "Ġgal": 8878,
      "ĠÑģÑĤ": 8879,
      "Ġtechnique": 8880,
      "ĠDoes": 8881,
      "ĠSof": 8882,
      "ĠMain": 8883,
      "Ġthin": 8884,
      "minent": 8885,
      "Ġhorse": 8886,
      "izer": 8887,
      "Rel": 8888,
      "Ġped": 8889,
      "Ġinvolving": 8890,
      "source": 8891,
      "ĠBlog": 8892,
      "Ġinvestiga": 8893,
      "pg": 8894,
      "ias": 8895,
      "Ġneither": 8896,
      "Ġtum": 8897,
      "Ġiron": 8898,
      "Ġshock": 8899,
      "Ġseriously": 8900,
      "Ġobviously": 8901,
      "ÄĽ": 8902,
      "Ġpharm": 8903,
      "Ġgranted": 8904,
      "Ġadopted": 8905,
      "Äĥ": 8906,
      "ĠCarl": 8907,
      "nance": 8908,
      "nell": 8909,
      "ĠColorado": 8910,
      "Ġsurprising": 8911,
      "Ġillness": 8912,
      "ounta": 8913,
      "ĠNick": 8914,
      "Ġunderstood": 8915,
      "Ġchampions": 8916,
      "ĠScotland": 8917,
      "enders": 8918,
      "uris": 8919,
      "Ġliquid": 8920,
      "Sy": 8921,
      "Ġenthusi": 8922,
      "Imp": 8923,
      "Ġunknown": 8924,
      "greg": 8925,
      "Ġversions": 8926,
      "ĠPor": 8927,
      "mers": 8928,
      "eased": 8929,
      "apped": 8930,
      "Ð»ÑĮ": 8931,
      "Ġacquis": 8932,
      "Ġcontinuing": 8933,
      "Ġhate": 8934,
      "Ġmeat": 8935,
      "Ġyards": 8936,
      "Ġcelebrate": 8937,
      "ĠChem": 8938,
      "Ãª": 8939,
      "Ġnewly": 8940,
      "ĠPakistan": 8941,
      "ĠRam": 8942,
      "ĠVill": 8943,
      "Ġelections": 8944,
      "Ġliked": 8945,
      "Ġsurprised": 8946,
      "Comp": 8947,
      "Ġfaculty": 8948,
      "Ġlimits": 8949,
      "Ġtill": 8950,
      "ĠPrac": 8951,
      "Ġsilver": 8952,
      "ators": 8953,
      "pool": 8954,
      "Ġ->": 8955,
      "Ġforec": 8956,
      "Fac": 8957,
      "lated": 8958,
      "inson": 8959,
      "ĠMethod": 8960,
      "wind": 8961,
      "Ġscored": 8962,
      "End": 8963,
      "abs": 8964,
      "Ġbehalf": 8965,
      "ĠSong": 8966,
      "Omega": 8967,
      "Ġcontrolled": 8968,
      "zona": 8969,
      "Ġdealing": 8970,
      "Ġillegal": 8971,
      "dri": 8972,
      "Ġ00": 8973,
      "Ġcrash": 8974,
      "ĠStaff": 8975,
      "arity": 8976,
      "Ġfinance": 8977,
      "Ġoutcomes": 8978,
      "Ġdisappe": 8979,
      "Ġairport": 8980,
      "aba": 8981,
      "ailed": 8982,
      "%,": 8983,
      "Ġinjuries": 8984,
      "Ġawesome": 8985,
      "itan": 8986,
      "nial": 8987,
      "Ġvictim": 8988,
      "Ġfairly": 8989,
      "Ġq": 8990,
      "Ġdepends": 8991,
      "ĠOw": 8992,
      "Ð½Ñı": 8993,
      "Ġsubjects": 8994,
      "ĠWorks": 8995,
      "Ġvib": 8996,
      "Ġabsor": 8997,
      "Ġglad": 8998,
      "Ret": 8999,
      "Ġdrawn": 9000,
      "ĠiPhone": 9001,
      "lyn": 9002,
      "________": 9003,
      "ĠÑĢ": 9004,
      "Ġinvited": 9005,
      "ĠBible": 9006,
      "ĠProv": 9007,
      "Ġrefuge": 9008,
      "Ġexhibition": 9009,
      "connec": 9010,
      "Ġrei": 9011,
      "Ġcontained": 9012,
      "Ġquery": 9013,
      "gressive": 9014,
      "Ġsoil": 9015,
      "illiant": 9016,
      "GA": 9017,
      "Mod": 9018,
      "ĠBul": 9019,
      "ĠBang": 9020,
      "lon": 9021,
      "Ġpromise": 9022,
      "ĠCountry": 9023,
      "Ġskill": 9024,
      "Ġflag": 9025,
      "bold": 9026,
      "Vis": 9027,
      "ĠSuch": 9028,
      ".</": 9029,
      "uced": 9030,
      "!!!": 9031,
      "fghan": 9032,
      "HA": 9033,
      "MM": 9034,
      "teer": 9035,
      "ĠAdva": 9036,
      "Ġmarked": 9037,
      "ireless": 9038,
      "Ġerrors": 9039,
      "TP": 9040,
      "Ġsalt": 9041,
      "Ġdies": 9042,
      "Ġloop": 9043,
      "Ġresc": 9044,
      "nsylvania": 9045,
      "CR": 9046,
      "mai": 9047,
      "Previous": 9048,
      "ĠSwed": 9049,
      "Ġdeaths": 9050,
      "ĠElizabeth": 9051,
      "Ġassistant": 9052,
      "Ġrig": 9053,
      "Ġgap": 9054,
      "Ġpermanent": 9055,
      "Ġalive": 9056,
      "ĠEastern": 9057,
      "web": 9058,
      "Ġfavou": 9059,
      "Ð²Ð¸": 9060,
      "Stud": 9061,
      "Ġcontrovers": 9062,
      "Ġ1994": 9063,
      "Ġfasci": 9064,
      "Ġdriven": 9065,
      "OU": 9066,
      "ĠSaint": 9067,
      "Ġlec": 9068,
      "Ġprovision": 9069,
      "ĠHarry": 9070,
      "Ġpresents": 9071,
      "Ġoutcome": 9072,
      "Ġreward": 9073,
      "Ġdating": 9074,
      "ĠModel": 9075,
      ")=": 9076,
      "bot": 9077,
      "ĠAdam": 9078,
      "ĠBor": 9079,
      "olo": 9080,
      "Ġconsequences": 9081,
      "^*": 9082,
      "ĠSl": 9083,
      "timate": 9084,
      ")$,": 9085,
      "Ġextreme": 9086,
      "Ġconsists": 9087,
      "Ġsubmitted": 9088,
      "lantic": 9089,
      "Ġhyper": 9090,
      "Ġmanif": 9091,
      "ĠKent": 9092,
      "object": 9093,
      "Ġprincipal": 9094,
      "ĠRome": 9095,
      "narray": 9096,
      "ĠAge": 9097,
      "Ġintroduction": 9098,
      "Bo": 9099,
      "ĠWars": 9100,
      "formances": 9101,
      "Ġtransportation": 9102,
      "ocolate": 9103,
      "Ġcontrols": 9104,
      "Ġmit": 9105,
      "Gl": 9106,
      "tiveness": 9107,
      "Ġinteraction": 9108,
      "eqnarray": 9109,
      "Ġlovely": 9110,
      "lemented": 9111,
      "niti": 9112,
      "icted": 9113,
      "Ġsessions": 9114,
      "Ġsufficient": 9115,
      "Ġsanc": 9116,
      "Ð»Ñı": 9117,
      "Ġingredients": 9118,
      "Ġimproving": 9119,
      "issio": 9120,
      "ritten": 9121,
      "Ġpup": 9122,
      "ĠWilson": 9123,
      "Ġgear": 9124,
      "Ġscenes": 9125,
      "image": 9126,
      "OK": 9127,
      "Ġbrowser": 9128,
      "Ġlegend": 9129,
      "ĠFile": 9130,
      "bas": 9131,
      "reaks": 9132,
      "Ġfiction": 9133,
      "ilst": 9134,
      "PL": 9135,
      "Ġmac": 9136,
      "rey": 9137,
      "ĠÅ": 9138,
      "Ġformation": 9139,
      "ĠDNA": 9140,
      "Ġgovernments": 9141,
      "Ġstrike": 9142,
      "reats": 9143,
      "Ġconstra": 9144,
      "Ġpure": 9145,
      "Ġcategories": 9146,
      "ĠFull": 9147,
      "cience": 9148,
      "Ġfirms": 9149,
      "Ġindicate": 9150,
      "Ġaffil": 9151,
      "Ġvisible": 9152,
      "ĠImm": 9153,
      "Ġsought": 9154,
      "Ġwatched": 9155,
      "Ġ65": 9156,
      "ĠDid": 9157,
      "ĠRyan": 9158,
      "oub": 9159,
      "Ġstrict": 9160,
      "uine": 9161,
      "ĠNone": 9162,
      "Ġages": 9163,
      "Tags": 9164,
      "result": 9165,
      "zes": 9166,
      "ĠLind": 9167,
      "Ġtrends": 9168,
      "ĠCommon": 9169,
      "urities": 9170,
      "fted": 9171,
      "Ġmanaging": 9172,
      "olis": 9173,
      "neys": 9174,
      "Ġcollect": 9175,
      "ĠEconomic": 9176,
      "Ġrising": 9177,
      "Ġopposition": 9178,
      "ĠClick": 9179,
      "////////": 9180,
      "ĠPlus": 9181,
      "Ð¡": 9182,
      "Ġstrengthen": 9183,
      "ĠDavis": 9184,
      "Ġinstructions": 9185,
      "Ġending": 9186,
      "Sm": 9187,
      "ĠProm": 9188,
      "Ġdining": 9189,
      "ĠHD": 9190,
      "essional": 9191,
      "ĠBush": 9192,
      "error": 9193,
      "ĠMD": 9194,
      "Ġhopes": 9195,
      "AF": 9196,
      "ĠCON": 9197,
      "prec": 9198,
      "Ġdestination": 9199,
      "riers": 9200,
      "Ġexplan": 9201,
      "Gamma": 9202,
      "etes": 9203,
      "Ġnurs": 9204,
      "ĠFish": 9205,
      "Ġoffices": 9206,
      "Ġjoining": 9207,
      "Ġorganic": 9208,
      "Ġmatrix": 9209,
      "Ġwors": 9210,
      "vacy": 9211,
      "ĠToronto": 9212,
      "Prof": 9213,
      "imal": 9214,
      "google": 9215,
      "ĠJen": 9216,
      "gov": 9217,
      "Ġreputation": 9218,
      "Ġconsideration": 9219,
      "Ġcleaning": 9220,
      "Ð¾ÑģÑĤ": 9221,
      "cuss": 9222,
      "Ġtruck": 9223,
      "aka": 9224,
      "pled": 9225,
      "Ġmail": 9226,
      "Ġ:=": 9227,
      "BN": 9228,
      "AY": 9229,
      "ĠAI": 9230,
      "ÃŁ": 9231,
      "Ġdiscount": 9232,
      "ĠÐ³Ð¾Ð´": 9233,
      "Ġspin": 9234,
      "Ġol": 9235,
      "Ġbou": 9236,
      "Ġ55": 9237,
      "Ġthousand": 9238,
      "ĠBox": 9239,
      "****************": 9240,
      "dra": 9241,
      "ĠSupport": 9242,
      "ĠVietnam": 9243,
      "rapy": 9244,
      "efully": 9245,
      "Ġfre": 9246,
      "Ġsinge": 9247,
      "Ġadventure": 9248,
      "ĠAgr": 9249,
      "Ġinitiative": 9250,
      "ĠStephen": 9251,
      "eder": 9252,
      "Ġcompare": 9253,
      "Ġmilk": 9254,
      "lins": 9255,
      "ĠHop": 9256,
      "Off": 9257,
      "bm": 9258,
      "ĠLiber": 9259,
      "ĠHong": 9260,
      "dt": 9261,
      "Ġapartment": 9262,
      "ĠAu": 9263,
      "including": 9264,
      "Ġapplicable": 9265,
      "bits": 9266,
      "ĠDeath": 9267,
      "Ġdiseases": 9268,
      "first": 9269,
      "ĠGre": 9270,
      "Ġbread": 9271,
      "owing": 9272,
      "tero": 9273,
      "ws": 9274,
      "Ġguarantee": 9275,
      "ĠBuilding": 9276,
      "phia": 9277,
      "Ġ1960": 9278,
      "Ġtalked": 9279,
      "achine": 9280,
      "Ġsoldiers": 9281,
      "Ġbasically": 9282,
      "pic": 9283,
      "Ġmachines": 9284,
      "cept": 9285,
      "Ġsinger": 9286,
      "ido": 9287,
      "antum": 9288,
      "Ĥ¬": 9289,
      "Ġyellow": 9290,
      "/**": 9291,
      "Ġescape": 9292,
      "ME": 9293,
      "ĠIllinois": 9294,
      "race": 9295,
      "Ġvit": 9296,
      "Ġsaved": 9297,
      "Ġfrust": 9298,
      "ĠPy": 9299,
      "ĠTar": 9300,
      "Ġstrongly": 9301,
      "aded": 9302,
      "ifying": 9303,
      "ĠAvenue": 9304,
[...]
